{
  "version": "1.0",
  "truncation": null,
  "padding": null,
  "added_tokens": [
    {
      "id": 0,
      "content": "[UNK]",
      "single_word": false,
      "lstrip": false,
      "rstrip": false,
      "normalized": false,
      "special": true
    },
    {
      "id": 1,
      "content": "[CLS]",
      "single_word": false,
      "lstrip": false,
      "rstrip": false,
      "normalized": false,
      "special": true
    },
    {
      "id": 2,
      "content": "[SEP]",
      "single_word": false,
      "lstrip": false,
      "rstrip": false,
      "normalized": false,
      "special": true
    },
    {
      "id": 3,
      "content": "[PAD]",
      "single_word": false,
      "lstrip": false,
      "rstrip": false,
      "normalized": false,
      "special": true
    },
    {
      "id": 4,
      "content": "[MASK]",
      "single_word": false,
      "lstrip": false,
      "rstrip": false,
      "normalized": false,
      "special": true
    }
  ],
  "normalizer": null,
  "pre_tokenizer": {
    "type": "Whitespace"
  },
  "post_processor": null,
  "decoder": null,
  "model": {
    "type": "BPE",
    "dropout": null,
    "unk_token": "[UNK]",
    "continuing_subword_prefix": null,
    "end_of_word_suffix": null,
    "fuse_unk": false,
    "vocab": {
      "[UNK]": 0,
      "[CLS]": 1,
      "[SEP]": 2,
      "[PAD]": 3,
      "[MASK]": 4,
      "'": 5,
      "-": 6,
      "0": 7,
      "1": 8,
      "2": 9,
      "3": 10,
      "4": 11,
      "5": 12,
      "6": 13,
      "7": 14,
      "8": 15,
      "9": 16,
      "_": 17,
      "a": 18,
      "b": 19,
      "c": 20,
      "d": 21,
      "e": 22,
      "f": 23,
      "g": 24,
      "h": 25,
      "i": 26,
      "j": 27,
      "k": 28,
      "l": 29,
      "m": 30,
      "n": 31,
      "o": 32,
      "p": 33,
      "q": 34,
      "r": 35,
      "s": 36,
      "t": 37,
      "u": 38,
      "v": 39,
      "w": 40,
      "x": 41,
      "y": 42,
      "z": 43,
      "th": 44,
      "in": 45,
      "re": 46,
      "on": 47,
      "an": 48,
      "ti": 49,
      "the": 50,
      "en": 51,
      "al": 52,
      "er": 53,
      "ed": 54,
      "or": 55,
      "es": 56,
      "at": 57,
      "as": 58,
      "of": 59,
      "is": 60,
      "and": 61,
      "tion": 62,
      "ar": 63,
      "to": 64,
      "ro": 65,
      "ic": 66,
      "ing": 67,
      "ac": 68,
      "co": 69,
      "st": 70,
      "ent": 71,
      "le": 72,
      "it": 73,
      "se": 74,
      "de": 75,
      "ve": 76,
      "ation": 77,
      "ly": 78,
      "ec": 79,
      "us": 80,
      "si": 81,
      "vi": 82,
      "we": 83,
      "for": 84,
      "ul": 85,
      "un": 86,
      "ce": 87,
      "res": 88,
      "ur": 89,
      "be": 90,
      "lo": 91,
      "wi": 92,
      "di": 93,
      "mp": 94,
      "ch": 95,
      "con": 96,
      "pro": 97,
      "me": 98,
      "with": 99,
      "ag": 100,
      "mo": 101,
      "ho": 102,
      "tr": 103,
      "ter": 104,
      "ab": 105,
      "il": 106,
      "po": 107,
      "are": 108,
      "ig": 109,
      "su": 110,
      "ad": 111,
      "ati": 112,
      "ment": 113,
      "no": 114,
      "ut": 115,
      "ver": 116,
      "ex": 117,
      "ts": 118,
      "so": 119,
      "that": 120,
      "20": 121,
      "ap": 122,
      "ity": 123,
      "ll": 124,
      "am": 125,
      "li": 126,
      "ted": 127,
      "ma": 128,
      "was": 129,
      "per": 130,
      "ate": 131,
      "ated": 132,
      "he": 133,
      "ir": 134,
      "cl": 135,
      "sp": 136,
      "qu": 137,
      "ff": 138,
      "et": 139,
      "te": 140,
      "by": 141,
      "tic": 142,
      "du": 143,
      "were": 144,
      "id": 145,
      "ol": 146,
      "um": 147,
      "ther": 148,
      "im": 149,
      "inf": 150,
      "dis": 151,
      "age": 152,
      "gen": 153,
      "wh": 154,
      "vir": 155,
      "ne": 156,
      "do": 157,
      "rom": 158,
      "19": 159,
      "ents": 160,
      "this": 161,
      "use": 162,
      "if": 163,
      "ess": 164,
      "em": 165,
      "ical": 166,
      "ud": 167,
      "ain": 168,
      "der": 169,
      "sy": 170,
      "ase": 171,
      "from": 172,
      "igh": 173,
      "ci": 174,
      "pre": 175,
      "comp": 176,
      "ha": 177,
      "ure": 178,
      "ine": 179,
      "ri": 180,
      "ren": 181,
      "ant": 182,
      "pati": 183,
      "pl": 184,
      "ay": 185,
      "vid": 186,
      "str": 187,
      "tive": 188,
      "par": 189,
      "all": 190,
      "od": 191,
      "pres": 192,
      "ct": 193,
      "med": 194,
      "able": 195,
      "fo": 196,
      "ge": 197,
      "not": 198,
      "com": 199,
      "pe": 200,
      "up": 201,
      "ack": 202,
      "est": 203,
      "low": 204,
      "ich": 205,
      "infec": 206,
      "ations": 207,
      "ort": 208,
      "ph": 209,
      "00": 210,
      "cre": 211,
      "sion": 212,
      "cell": 213,
      "sis": 214,
      "patients": 215,
      "act": 216,
      "resp": 217,
      "cont": 218,
      "can": 219,
      "tions": 220,
      "ers": 221,
      "ence": 222,
      "out": 223,
      "ug": 224,
      "have": 225,
      "imp": 226,
      "ten": 227,
      "iz": 228,
      "covid": 229,
      "virus": 230,
      "sho": 231,
      "val": 232,
      "min": 233,
      "bo": 234,
      "ser": 235,
      "ib": 236,
      "which": 237,
      "ans": 238,
      "ke": 239,
      "duc": 240,
      "pr": 241,
      "cy": 242,
      "ally": 243,
      "log": 244,
      "ous": 245,
      "red": 246,
      "ach": 247,
      "gn": 248,
      "alth": 249,
      "inter": 250,
      "ding": 251,
      "form": 252,
      "cor": 253,
      "sa": 254,
      "anti": 255,
      "wor": 256,
      "one": 257,
      "ven": 258,
      "fe": 259,
      "stud": 260,
      "ary": 261,
      "ies": 262,
      "high": 263,
      "ion": 264,
      "10": 265,
      "ory": 266,
      "ars": 267,
      "und": 268,
      "dat": 269,
      "other": 270,
      "has": 271,
      "mon": 272,
      "ific": 273,
      "eff": 274,
      "ved": 275,
      "ance": 276,
      "uld": 277,
      "more": 278,
      "gr": 279,
      "diff": 280,
      "op": 281,
      "ors": 282,
      "pack": 283,
      "these": 284,
      "ass": 285,
      "spec": 286,
      "ong": 287,
      "ased": 288,
      "package": 289,
      "ari": 290,
      "mic": 291,
      "ob": 292,
      "wo": 293,
      "bet": 294,
      "soci": 295,
      "usepackage": 296,
      "des": 297,
      "lu": 298,
      "man": 299,
      "tec": 300,
      "also": 301,
      "reg": 302,
      "rel": 303,
      "gro": 304,
      "ative": 305,
      "study": 306,
      "mun": 307,
      "health": 308,
      "our": 309,
      "bi": 310,
      "del": 311,
      "lic": 312,
      "sign": 313,
      "cent": 314,
      "ty": 315,
      "end": 316,
      "por": 317,
      "cr": 318,
      "ip": 319,
      "aly": 320,
      "ms": 321,
      "ia": 322,
      "wn": 323,
      "used": 324,
      "tiv": 325,
      "fig": 326,
      "ases": 327,
      "data": 328,
      "been": 329,
      "eren": 330,
      "over": 331,
      "enti": 332,
      "na": 333,
      "ugh": 334,
      "ath": 335,
      "12": 336,
      "prote": 337,
      "acc": 338,
      "may": 339,
      "fi": 340,
      "incl": 341,
      "resul": 342,
      "differen": 343,
      "there": 344,
      "cul": 345,
      "their": 346,
      "cov": 347,
      "vel": 348,
      "af": 349,
      "tre": 350,
      "fin": 351,
      "ting": 352,
      "dise": 353,
      "pt": 354,
      "als": 355,
      "cells": 356,
      "ber": 357,
      "respon": 358,
      "ates": 359,
      "analy": 360,
      "iti": 361,
      "ace": 362,
      "ces": 363,
      "using": 364,
      "work": 365,
      "effec": 366,
      "trans": 367,
      "sub": 368,
      "ction": 369,
      "ta": 370,
      "ca": 371,
      "incre": 372,
      "ep": 373,
      "protein": 374,
      "sur": 375,
      "ween": 376,
      "ility": 377,
      "between": 378,
      "les": 379,
      "its": 380,
      "atory": 381,
      "cal": 382,
      "dies": 383,
      "cur": 384,
      "ub": 385,
      "peri": 386,
      "tim": 387,
      "mar": 388,
      "such": 389,
      "cri": 390,
      "than": 391,
      "ang": 392,
      "el": 393,
      "valu": 394,
      "dur": 395,
      "model": 396,
      "sars": 397,
      "infection": 398,
      "fir": 399,
      "ree": 400,
      "dic": 401,
      "time": 402,
      "au": 403,
      "201": 404,
      "hy": 405,
      "stem": 406,
      "br": 407,
      "ams": 408,
      "group": 409,
      "ds": 410,
      "ast": 411,
      "av": 412,
      "int": 413,
      "under": 414,
      "vari": 415,
      "ris": 416,
      "pos": 417,
      "olog": 418,
      "ight": 419,
      "sup": 420,
      "coun": 421,
      "system": 422,
      "level": 423,
      "partic": 424,
      "includ": 425,
      "who": 426,
      "ble": 427,
      "velo": 428,
      "immun": 429,
      "clin": 430,
      "cu": 431,
      "stu": 432,
      "present": 433,
      "inv": 434,
      "sh": 435,
      "but": 436,
      "disease": 437,
      "num": 438,
      "fol": 439,
      "2020": 440,
      "ating": 441,
      "care": 442,
      "ays": 443,
      "signific": 444,
      "during": 445,
      "most": 446,
      "dr": 447,
      "col": 448,
      "cle": 449,
      "whe": 450,
      "mil": 451,
      "200": 452,
      "mis": 453,
      "velop": 454,
      "fact": 455,
      "viral": 456,
      "requ": 457,
      "after": 458,
      "mit": 459,
      "set": 460,
      "dition": 461,
      "ial": 462,
      "ments": 463,
      "bin": 464,
      "cer": 465,
      "arch": 466,
      "develop": 467,
      "usepackageams": 468,
      "ures": 469,
      "repor": 470,
      "ulation": 471,
      "activ": 472,
      "main": 473,
      "car": 474,
      "eng": 475,
      "posi": 476,
      "significant": 477,
      "two": 478,
      "appro": 479,
      "om": 480,
      "11": 481,
      "based": 482,
      "show": 483,
      "stru": 484,
      "studies": 485,
      "ak": 486,
      "associ": 487,
      "fore": 488,
      "they": 489,
      "port": 490,
      "sequ": 491,
      "hosp": 492,
      "samp": 493,
      "risk": 494,
      "tho": 495,
      "gener": 496,
      "will": 497,
      "ater": 498,
      "ye": 499,
      "15": 500,
      "ular": 501,
      "ses": 502,
      "hum": 503,
      "results": 504,
      "ital": 505,
      "ants": 506,
      "treat": 507,
      "fic": 508,
      "howe": 509,
      "however": 510,
      "mal": 511,
      "search": 512,
      "side": 513,
      "clinical": 514,
      "had": 515,
      "ra": 516,
      "indi": 517,
      "some": 518,
      "follow": 519,
      "thod": 520,
      "fun": 521,
      "ared": 522,
      "contro": 523,
      "ust": 524,
      "ability": 525,
      "cess": 526,
      "ist": 527,
      "docu": 528,
      "well": 529,
      "path": 530,
      "ile": 531,
      "only": 532,
      "pop": 533,
      "number": 534,
      "ality": 535,
      "ck": 536,
      "different": 537,
      "test": 538,
      "ized": 539,
      "identi": 540,
      "both": 541,
      "ss": 542,
      "14": 543,
      "cases": 544,
      "like": 545,
      "mul": 546,
      "when": 547,
      "ational": 548,
      "document": 549,
      "gg": 550,
      "ple": 551,
      "13": 552,
      "ail": 553,
      "vacc": 554,
      "analysis": 555,
      "each": 556,
      "acter": 557,
      "reported": 558,
      "tes": 559,
      "sen": 560,
      "non": 561,
      "ines": 562,
      "pand": 563,
      "iv": 564,
      "table": 565,
      "thro": 566,
      "meas": 567,
      "lec": 568,
      "ish": 569,
      "la": 570,
      "ard": 571,
      "sed": 572,
      "into": 573,
      "line": 574,
      "aff": 575,
      "first": 576,
      "ill": 577,
      "ung": 578,
      "ld": 579,
      "sti": 580,
      "ide": 581,
      "emic": 582,
      "fur": 583,
      "jec": 584,
      "ties": 585,
      "tain": 586,
      "expres": 587,
      "very": 588,
      "formation": 589,
      "ite": 590,
      "trib": 591,
      "treatment": 592,
      "comple": 593,
      "pub": 594,
      "ew": 595,
      "addition": 596,
      "could": 597,
      "research": 598,
      "ful": 599,
      "new": 600,
      "ced": 601,
      "mpto": 602,
      "fer": 603,
      "patient": 604,
      "specific": 605,
      "obser": 606,
      "ie": 607,
      "oc": 608,
      "detec": 609,
      "ute": 610,
      "kno": 611,
      "further": 612,
      "pandemic": 613,
      "arg": 614,
      "pec": 615,
      "fied": 616,
      "sing": 617,
      "dep": 618,
      "16": 619,
      "import": 620,
      "produc": 621,
      "where": 622,
      "figure": 623,
      "tical": 624,
      "ution": 625,
      "view": 626,
      "go": 627,
      "found": 628,
      "experi": 629,
      "vidu": 630,
      "human": 631,
      "org": 632,
      "individu": 633,
      "han": 634,
      "control": 635,
      "associated": 636,
      "men": 637,
      "fr": 638,
      "action": 639,
      "ici": 640,
      "need": 641,
      "stand": 642,
      "gene": 643,
      "gin": 644,
      "gi": 645,
      "particip": 646,
      "hib": 647,
      "18": 648,
      "cap": 649,
      "positive": 650,
      "related": 651,
      "medi": 652,
      "ange": 653,
      "25": 654,
      "bio": 655,
      "ization": 656,
      "rece": 657,
      "phy": 658,
      "arge": 659,
      "atic": 660,
      "ev": 661,
      "read": 662,
      "due": 663,
      "rna": 664,
      "while": 665,
      "including": 666,
      "pri": 667,
      "ign": 668,
      "amp": 669,
      "ature": 670,
      "mb": 671,
      "den": 672,
      "should": 673,
      "tial": 674,
      "indic": 675,
      "app": 676,
      "poten": 677,
      "sin": 678,
      "higher": 679,
      "vis": 680,
      "son": 681,
      "struct": 682,
      "amin": 683,
      "30": 684,
      "method": 685,
      "plic": 686,
      "17": 687,
      "ves": 688,
      "nor": 689,
      "through": 690,
      "tra": 691,
      "blo": 692,
      "dro": 693,
      "hospital": 694,
      "sco": 695,
      "sever": 696,
      "mission": 697,
      "tal": 698,
      "process": 699,
      "less": 700,
      "ological": 701,
      "simil": 702,
      "ities": 703,
      "sympto": 704,
      "math": 705,
      "inte": 706,
      "reduc": 707,
      "those": 708,
      "tis": 709,
      "respir": 710,
      "enz": 711,
      "formed": 712,
      "function": 713,
      "ded": 714,
      "sugg": 715,
      "amm": 716,
      "diag": 717,
      "viruses": 718,
      "mi": 719,
      "air": 720,
      "king": 721,
      "50": 722,
      "influ": 723,
      "ving": 724,
      "mental": 725,
      "among": 726,
      "bre": 727,
      "arly": 728,
      "vere": 729,
      "cd": 730,
      "long": 731,
      "curren": 732,
      "24": 733,
      "led": 734,
      "ning": 735,
      "many": 736,
      "compared": 737,
      "tech": 738,
      "vic": 739,
      "centr": 740,
      "diagno": 741,
      "multi": 742,
      "therap": 743,
      "information": 744,
      "ness": 745,
      "sive": 746,
      "ateg": 747,
      "ages": 748,
      "respiratory": 749,
      "requi": 750,
      "any": 751,
      "levels": 752,
      "sure": 753,
      "important": 754,
      "sch": 755,
      "social": 756,
      "syn": 757,
      "cus": 758,
      "vious": 759,
      "type": 760,
      "countr": 761,
      "increased": 762,
      "infected": 763,
      "public": 764,
      "ety": 765,
      "ps": 766,
      "case": 767,
      "rs": 768,
      "about": 769,
      "severe": 770,
      "response": 771,
      "bec": 772,
      "bed": 773,
      "avail": 774,
      "infl": 775,
      "population": 776,
      "inhib": 777,
      "ext": 778,
      "sible": 779,
      "ogen": 780,
      "usion": 781,
      "rate": 782,
      "shown": 783,
      "cyto": 784,
      "descri": 785,
      "ild": 786,
      "ef": 787,
      "os": 788,
      "gu": 789,
      "tively": 790,
      "organ": 791,
      "three": 792,
      "ual": 793,
      "micro": 794,
      "tern": 795,
      "rect": 796,
      "within": 797,
      "deter": 798,
      "vers": 799,
      "days": 800,
      "class": 801,
      "commun": 802,
      "ze": 803,
      "ural": 804,
      "then": 805,
      "ks": 806,
      "sel": 807,
      "assess": 808,
      "aining": 809,
      "activity": 810,
      "limit": 811,
      "again": 812,
      "inc": 813,
      "ques": 814,
      "ona": 815,
      "ough": 816,
      "previous": 817,
      "typ": 818,
      "tics": 819,
      "inflamm": 820,
      "imal": 821,
      "char": 822,
      "depend": 823,
      "order": 824,
      "come": 825,
      "beca": 826,
      "21": 827,
      "ress": 828,
      "respec": 829,
      "nec": 830,
      "neg": 831,
      "current": 832,
      "predic": 833,
      "effect": 834,
      "region": 835,
      "post": 836,
      "observed": 837,
      "fac": 838,
      "tt": 839,
      "secon": 840,
      "impro": 841,
      "would": 842,
      "ily": 843,
      "23": 844,
      "mer": 845,
      "ople": 846,
      "prim": 847,
      "lead": 848,
      "drug": 849,
      "child": 850,
      "yo": 851,
      "dist": 852,
      "evalu": 853,
      "expression": 854,
      "gre": 855,
      "people": 856,
      "grap": 857,
      "rest": 858,
      "similar": 859,
      "day": 860,
      "them": 861,
      "sm": 862,
      "showed": 863,
      "being": 864,
      "second": 865,
      "100": 866,
      "lin": 867,
      "emp": 868,
      "clo": 869,
      "potential": 870,
      "lish": 871,
      "40": 872,
      "years": 873,
      "chang": 874,
      "ric": 875,
      "nu": 876,
      "eu": 877,
      "part": 878,
      "eg": 879,
      "person": 880,
      "ii": 881,
      "provid": 882,
      "ody": 883,
      "bal": 884,
      "initi": 885,
      "22": 886,
      "net": 887,
      "ox": 888,
      "iter": 889,
      "immune": 890,
      "ane": 891,
      "samples": 892,
      "way": 893,
      "approach": 894,
      "equ": 895,
      "mem": 896,
      "national": 897,
      "available": 898,
      "tig": 899,
      "review": 900,
      "ters": 901,
      "period": 902,
      "acro": 903,
      "groups": 904,
      "because": 905,
      "ism": 906,
      "neu": 907,
      "cular": 908,
      "dy": 909,
      "performed": 910,
      "mec": 911,
      "face": 912,
      "temp": 913,
      "tran": 914,
      "effects": 915,
      "against": 916,
      "symptoms": 917,
      "body": 918,
      "recent": 919,
      "auth": 920,
      "ude": 921,
      "medical": 922,
      "glo": 923,
      "participants": 924,
      "corona": 925,
      "proteins": 926,
      "mat": 927,
      "mark": 928,
      "therefore": 929,
      "negative": 930,
      "ture": 931,
      "factors": 932,
      "lected": 933,
      "character": 934,
      "thus": 935,
      "increase": 936,
      "several": 937,
      "invol": 938,
      "til": 939,
      "pti": 940,
      "ived": 941,
      "cis": 942,
      "reco": 943,
      "common": 944,
      "ences": 945,
      "following": 946,
      "estim": 947,
      "although": 948,
      "atis": 949,
      "ently": 950,
      "measure": 951,
      "same": 952,
      "uni": 953,
      "ound": 954,
      "total": 955,
      "95": 956,
      "mechan": 957,
      "acy": 958,
      "provi": 959,
      "affec": 960,
      "combin": 961,
      "da": 962,
      "protec": 963,
      "lung": 964,
      "erg": 965,
      "acti": 966,
      "tri": 967,
      "plas": 968,
      "down": 969,
      "ame": 970,
      "support": 971,
      "lower": 972,
      "sus": 973,
      "duce": 974,
      "resi": 975,
      "stit": 976,
      "ency": 977,
      "obtain": 978,
      "wee": 979,
      "death": 980,
      "large": 981,
      "pcr": 982,
      "finding": 983,
      "ically": 984,
      "decre": 985,
      "zed": 986,
      "26": 987,
      "28": 988,
      "development": 989,
      "isol": 990,
      "induc": 991,
      "infections": 992,
      "evid": 993,
      "leng": 994,
      "fy": 995,
      "vention": 996,
      "role": 997,
      "abor": 998,
      "ele": 999,
      "individuals": 1000,
      "compar": 1001,
      "ited": 1002,
      "inves": 1003,
      "mole": 1004,
      "69": 1005,
      "ina": 1006,
      "sider": 1007,
      "examp": 1008,
      "small": 1009,
      "blood": 1010,
      "countries": 1011,
      "hip": 1012,
      "investig": 1013,
      "ately": 1014,
      "confir": 1015,
      "27": 1016,
      "hel": 1017,
      "rele": 1018,
      "accor": 1019,
      "sit": 1020,
      "consider": 1021,
      "000": 1022,
      "29": 1023,
      "mean": 1024,
      "omic": 1025,
      "poly": 1026,
      "que": 1027,
      "break": 1028,
      "fs": 1029,
      "defin": 1030,
      "did": 1031,
      "without": 1032,
      "jor": 1033,
      "ml": 1034,
      "pi": 1035,
      "significantly": 1036,
      "how": 1037,
      "design": 1038,
      "ben": 1039,
      "ns": 1040,
      "uc": 1041,
      "pathogen": 1042,
      "2019": 1043,
      "known": 1044,
      "demon": 1045,
      "begin": 1046,
      "gree": 1047,
      "prof": 1048,
      "identified": 1049,
      "demonstr": 1050,
      "epide": 1051,
      "fication": 1052,
      "sist": 1053,
      "strateg": 1054,
      "ger": 1055,
      "strain": 1056,
      "contin": 1057,
      "even": 1058,
      "included": 1059,
      "met": 1060,
      "normal": 1061,
      "acid": 1062,
      "see": 1063,
      "mort": 1064,
      "graph": 1065,
      "fam": 1066,
      "play": 1067,
      "value": 1068,
      "given": 1069,
      "oid": 1070,
      "state": 1071,
      "concentr": 1072,
      "major": 1073,
      "since": 1074,
      "phys": 1075,
      "likely": 1076,
      "children": 1077,
      "enza": 1078,
      "acute": 1079,
      "bacter": 1080,
      "vaccine": 1081,
      "mut": 1082,
      "models": 1083,
      "particular": 1084,
      "world": 1085,
      "sample": 1086,
      "ics": 1087,
      "cs": 1088,
      "host": 1089,
      "surve": 1090,
      "allow": 1091,
      "occur": 1092,
      "binding": 1093,
      "respectively": 1094,
      "logy": 1095,
      "influenza": 1096,
      "possible": 1097,
      "conside": 1098,
      "considered": 1099,
      "ons": 1100,
      "values": 1101,
      "pur": 1102,
      "ards": 1103,
      "sto": 1104,
      "direct": 1105,
      "posed": 1106,
      "mu": 1107,
      "before": 1108,
      "perform": 1109,
      "ult": 1110,
      "mortality": 1111,
      "active": 1112,
      "ption": 1113,
      "continu": 1114,
      "inhibit": 1115,
      "37": 1116,
      "interest": 1117,
      "arm": 1118,
      "according": 1119,
      "servic": 1120,
      "xim": 1121,
      "flu": 1122,
      "viron": 1123,
      "comes": 1124,
      "environ": 1125,
      "ner": 1126,
      "cardi": 1127,
      "sci": 1128,
      "transmission": 1129,
      "exp": 1130,
      "impact": 1131,
      "cing": 1132,
      "remain": 1133,
      "diseases": 1134,
      "changes": 1135,
      "35": 1136,
      "pat": 1137,
      "complex": 1138,
      "frequ": 1139,
      "mm": 1140,
      "abs": 1141,
      "general": 1142,
      "arget": 1143,
      "distrib": 1144,
      "represent": 1145,
      "actions": 1146,
      "target": 1147,
      "cho": 1148,
      "evidence": 1149,
      "early": 1150,
      "lear": 1151,
      "example": 1152,
      "recept": 1153,
      "cat": 1154,
      "ained": 1155,
      "py": 1156,
      "199": 1157,
      "described": 1158,
      "minis": 1159,
      "bu": 1160,
      "inal": 1161,
      "bility": 1162,
      "kin": 1163,
      "loc": 1164,
      "vant": 1165,
      "self": 1166,
      "result": 1167,
      "plication": 1168,
      "tur": 1169,
      "econ": 1170,
      "ator": 1171,
      "wer": 1172,
      "vo": 1173,
      "ition": 1174,
      "ens": 1175,
      "nucle": 1176,
      "ables": 1177,
      "coronavirus": 1178,
      "beha": 1179,
      "change": 1180,
      "inflammatory": 1181,
      "outbreak": 1182,
      "ditions": 1183,
      "oper": 1184,
      "provide": 1185,
      "methods": 1186,
      "art": 1187,
      "ology": 1188,
      "behavi": 1189,
      "dependent": 1190,
      "testing": 1191,
      "ni": 1192,
      "my": 1193,
      "ome": 1194,
      "tivity": 1195,
      "vol": 1196,
      "60": 1197,
      "measures": 1198,
      "contrib": 1199,
      "conditions": 1200,
      "mice": 1201,
      "matic": 1202,
      "statis": 1203,
      "hol": 1204,
      "onic": 1205,
      "know": 1206,
      "local": 1207,
      "sugges": 1208,
      "might": 1209,
      "inten": 1210,
      "cles": 1211,
      "vent": 1212,
      "agement": 1213,
      "month": 1214,
      "mes": 1215,
      "34": 1216,
      "spread": 1217,
      "network": 1218,
      "multiple": 1219,
      "verse": 1220,
      "four": 1221,
      "ste": 1222,
      "range": 1223,
      "medic": 1224,
      "determin": 1225,
      "ade": 1226,
      "hand": 1227,
      "her": 1228,
      "relations": 1229,
      "tro": 1230,
      "report": 1231,
      "findings": 1232,
      "therapy": 1233,
      "uted": 1234,
      "lack": 1235,
      "effici": 1236,
      "verage": 1237,
      "yl": 1238,
      "life": 1239,
      "production": 1240,
      "wide": 1241,
      "scal": 1242,
      "tissu": 1243,
      "ise": 1244,
      "trac": 1245,
      "endo": 1246,
      "pa": 1247,
      "mas": 1248,
      "progr": 1249,
      "minimal": 1250,
      "ked": 1251,
      "bodies": 1252,
      "psy": 1253,
      "parame": 1254,
      "cost": 1255,
      "techno": 1256,
      "single": 1257,
      "chall": 1258,
      "mor": 1259,
      "transp": 1260,
      "obtained": 1261,
      "sensi": 1262,
      "developed": 1263,
      "lished": 1264,
      "overn": 1265,
      "prior": 1266,
      "33": 1267,
      "rap": 1268,
      "margin": 1269,
      "types": 1270,
      "rt": 1271,
      "systems": 1272,
      "point": 1273,
      "suggest": 1274,
      "effective": 1275,
      "cour": 1276,
      "asing": 1277,
      "ken": 1278,
      "ination": 1279,
      "individual": 1280,
      "ref": 1281,
      "grow": 1282,
      "mg": 1283,
      "polic": 1284,
      "vs": 1285,
      "lement": 1286,
      "regul": 1287,
      "ive": 1288,
      "proble": 1289,
      "nas": 1290,
      "comm": 1291,
      "tious": 1292,
      "put": 1293,
      "detection": 1294,
      "structure": 1295,
      "ori": 1296,
      "colle": 1297,
      "45": 1298,
      "cept": 1299,
      "quality": 1300,
      "hc": 1301,
      "key": 1302,
      "improve": 1303,
      "sol": 1304,
      "relative": 1305,
      "nam": 1306,
      "auto": 1307,
      "prog": 1308,
      "size": 1309,
      "contr": 1310,
      "sym": 1311,
      "38": 1312,
      "stat": 1313,
      "36": 1314,
      "prob": 1315,
      "understand": 1316,
      "ually": 1317,
      "cro": 1318,
      "48": 1319,
      "factor": 1320,
      "made": 1321,
      "another": 1322,
      "feren": 1323,
      "whether": 1324,
      "ways": 1325,
      "membr": 1326,
      "implement": 1327,
      "times": 1328,
      "fon": 1329,
      "educ": 1330,
      "include": 1331,
      "cial": 1332,
      "genes": 1333,
      "labor": 1334,
      "infectious": 1335,
      "cancer": 1336,
      "dna": 1337,
      "hypo": 1338,
      "responses": 1339,
      "appe": 1340,
      "arr": 1341,
      "sequence": 1342,
      "symb": 1343,
      "bas": 1344,
      "expl": 1345,
      "real": 1346,
      "antibody": 1347,
      "various": 1348,
      "confirmed": 1349,
      "abo": 1350,
      "adminis": 1351,
      "differences": 1352,
      "bro": 1353,
      "certain": 1354,
      "subjec": 1355,
      "his": 1356,
      "govern": 1357,
      "ga": 1358,
      "antibodies": 1359,
      "ins": 1360,
      "gly": 1361,
      "neum": 1362,
      "tail": 1363,
      "presence": 1364,
      "solu": 1365,
      "ither": 1366,
      "sw": 1367,
      "back": 1368,
      "ling": 1369,
      "place": 1370,
      "inde": 1371,
      "vas": 1372,
      "recomm": 1373,
      "oral": 1374,
      "nat": 1375,
      "try": 1376,
      "ize": 1377,
      "help": 1378,
      "across": 1379,
      "domain": 1380,
      "students": 1381,
      "recommend": 1382,
      "expec": 1383,
      "calcul": 1384,
      "antigen": 1385,
      "immuno": 1386,
      "ry": 1387,
      "aging": 1388,
      "outcomes": 1389,
      "aren": 1390,
      "land": 1391,
      "80": 1392,
      "top": 1393,
      "global": 1394,
      "concer": 1395,
      "strong": 1396,
      "greek": 1397,
      "china": 1398,
      "chr": 1399,
      "hydro": 1400,
      "right": 1401,
      "pneum": 1402,
      "via": 1403,
      "sequences": 1404,
      "ticles": 1405,
      "stric": 1406,
      "ions": 1407,
      "required": 1408,
      "fut": 1409,
      "fonts": 1410,
      "management": 1411,
      "usepackagemath": 1412,
      "die": 1413,
      "sour": 1414,
      "mater": 1415,
      "usepackageamssymb": 1416,
      "usepackageamsfonts": 1417,
      "community": 1418,
      "rsfs": 1419,
      "bsy": 1420,
      "wasy": 1421,
      "usepackagewasy": 1422,
      "usepackageamsbsy": 1423,
      "usepackagewasysym": 1424,
      "12pt": 1425,
      "usepackagemathrsfs": 1426,
      "class12pt": 1427,
      "class12ptminimal": 1428,
      "usepackageamsmath": 1429,
      "ledge": 1430,
      "tw": 1431,
      "supple": 1432,
      "dside": 1433,
      "dsidemargin": 1434,
      "upgreek": 1435,
      "setleng": 1436,
      "thoddsidemargin": 1437,
      "69pt": 1438,
      "setlengthoddsidemargin": 1439,
      "usepackageupgreek": 1440,
      "rates": 1441,
      "primary": 1442,
      "instit": 1443,
      "induced": 1444,
      "ctions": 1445,
      "ially": 1446,
      "pneumon": 1447,
      "activation": 1448,
      "hyper": 1449,
      "tically": 1450,
      "documentclass12ptminimal": 1451,
      "epi": 1452,
      "diagnosis": 1453,
      "atten": 1454,
      "access": 1455,
      "rapid": 1456,
      "characteris": 1457,
      "bs": 1458,
      "emer": 1459,
      "31": 1460,
      "future": 1461,
      "healthcare": 1462,
      "identify": 1463,
      "reduced": 1464,
      "often": 1465,
      "don": 1466,
      "relationship": 1467,
      "expo": 1468,
      "pan": 1469,
      "isms": 1470,
      "cir": 1471,
      "sal": 1472,
      "treated": 1473,
      "what": 1474,
      "emo": 1475,
      "version": 1476,
      "detected": 1477,
      "cc": 1478,
      "ential": 1479,
      "just": 1480,
      "pepti": 1481,
      "year": 1482,
      "contact": 1483,
      "survey": 1484,
      "ino": 1485,
      "stress": 1486,
      "term": 1487,
      "epidemic": 1488,
      "home": 1489,
      "sum": 1490,
      "step": 1491,
      "limited": 1492,
      "scre": 1493,
      "conduc": 1494,
      "resour": 1495,
      "discus": 1496,
      "vit": 1497,
      "emplo": 1498,
      "pap": 1499,
      "tration": 1500,
      "ero": 1501,
      "learning": 1502,
      "aim": 1503,
      "ression": 1504,
      "deli": 1505,
      "ators": 1506,
      "light": 1507,
      "clear": 1508,
      "tox": 1509,
      "short": 1510,
      "overall": 1511,
      "family": 1512,
      "mid": 1513,
      "additional": 1514,
      "sc": 1515,
      "ening": 1516,
      "species": 1517,
      "still": 1518,
      "estab": 1519,
      "variables": 1520,
      "assi": 1521,
      "standard": 1522,
      "knowledge": 1523,
      "ably": 1524,
      "proced": 1525,
      "above": 1526,
      "section": 1527,
      "70": 1528,
      "idence": 1529,
      "chem": 1530,
      "39": 1531,
      "pul": 1532,
      "lymp": 1533,
      "pneumonia": 1534,
      "issu": 1535,
      "ano": 1536,
      "here": 1537,
      "quanti": 1538,
      "conf": 1539,
      "begindocument": 1540,
      "remo": 1541,
      "tested": 1542,
      "hr": 1543,
      "water": 1544,
      "examin": 1545,
      "food": 1546,
      "ace2": 1547,
      "eth": 1548,
      "wa": 1549,
      "print": 1550,
      "cytok": 1551,
      "versity": 1552,
      "provided": 1553,
      "demonstrated": 1554,
      "collected": 1555,
      "economic": 1556,
      "average": 1557,
      "espec": 1558,
      "ists": 1559,
      "preval": 1560,
      "32": 1561,
      "reve": 1562,
      "question": 1563,
      "rand": 1564,
      "previously": 1565,
      "ian": 1566,
      "either": 1567,
      "conducted": 1568,
      "mod": 1569,
      "emergen": 1570,
      "ko": 1571,
      "score": 1572,
      "assay": 1573,
      "cas": 1574,
      "radi": 1575,
      "distribution": 1576,
      "least": 1577,
      "ue": 1578,
      "fail": 1579,
      "suff": 1580,
      "receptor": 1581,
      "increasing": 1582,
      "author": 1583,
      "promo": 1584,
      "theli": 1585,
      "signal": 1586,
      "dri": 1587,
      "tests": 1588,
      "cause": 1589,
      "critical": 1590,
      "take": 1591,
      "tric": 1592,
      "exten": 1593,
      "aged": 1594,
      "presented": 1595,
      "ied": 1596,
      "phase": 1597,
      "optim": 1598,
      "better": 1599,
      "ice": 1600,
      "especially": 1601,
      "scale": 1602,
      "ifn": 1603,
      "defined": 1604,
      "ped": 1605,
      "recogn": 1606,
      "pen": 1607,
      "necess": 1608,
      "az": 1609,
      "transcri": 1610,
      "hal": 1611,
      "itor": 1612,
      "gl": 1613,
      "initial": 1614,
      "exposure": 1615,
      "complete": 1616,
      "hist": 1617,
      "io": 1618,
      "off": 1619,
      "add": 1620,
      "training": 1621,
      "pd": 1622,
      "eld": 1623,
      "ason": 1624,
      "psych": 1625,
      "authors": 1626,
      "van": 1627,
      "enddocument": 1628,
      "tool": 1629,
      "membrane": 1630,
      "modi": 1631,
      "states": 1632,
      "physical": 1633,
      "international": 1634,
      "lied": 1635,
      "facil": 1636,
      "classi": 1637,
      "ft": 1638,
      "atures": 1639,
      "proto": 1640,
      "cru": 1641,
      "hiv": 1642,
      "proper": 1643,
      "call": 1644,
      "2018": 1645,
      "bur": 1646,
      "prevent": 1647,
      "services": 1648,
      "phen": 1649,
      "serum": 1650,
      "ward": 1651,
      "load": 1652,
      "concl": 1653,
      "preprint": 1654,
      "ense": 1655,
      "areas": 1656,
      "lock": 1657,
      "highly": 1658,
      "surface": 1659,
      "ban": 1660,
      "pattern": 1661,
      "flow": 1662,
      "survi": 1663,
      "base": 1664,
      "synthe": 1665,
      "eric": 1666,
      "phil": 1667,
      "old": 1668,
      "setting": 1669,
      "require": 1670,
      "fec": 1671,
      "resist": 1672,
      "tered": 1673,
      "suc": 1674,
      "bar": 1675,
      "orig": 1676,
      "growth": 1677,
      "recor": 1678,
      "dose": 1679,
      "vities": 1680,
      "relation": 1681,
      "bil": 1682,
      "temper": 1683,
      "reveal": 1684,
      "drome": 1685,
      "integr": 1686,
      "consist": 1687,
      "culture": 1688,
      "lat": 1689,
      "practi": 1690,
      "valid": 1691,
      "uses": 1692,
      "does": 1693,
      "months": 1694,
      "supplement": 1695,
      "44": 1696,
      "now": 1697,
      "site": 1698,
      "achie": 1699,
      "xi": 1700,
      "dents": 1701,
      "acts": 1702,
      "syndrome": 1703,
      "let": 1704,
      "liter": 1705,
      "75": 1706,
      "fil": 1707,
      "lect": 1708,
      "asy": 1709,
      "mers": 1710,
      "cytes": 1711,
      "tissue": 1712,
      "90": 1713,
      "shows": 1714,
      "moreover": 1715,
      "att": 1716,
      "bor": 1717,
      "adap": 1718,
      "decis": 1719,
      "aw": 1720,
      "furthermore": 1721,
      "involved": 1722,
      "difference": 1723,
      "reduce": 1724,
      "neuro": 1725,
      "random": 1726,
      "diffic": 1727,
      "accur": 1728,
      "performance": 1729,
      "nal": 1730,
      "perce": 1731,
      "bl": 1732,
      "rati": 1733,
      "must": 1734,
      "situ": 1735,
      "cons": 1736,
      "compound": 1737,
      "amo": 1738,
      "benef": 1739,
      "portion": 1740,
      "women": 1741,
      "stic": 1742,
      "reduction": 1743,
      "chronic": 1744,
      "clust": 1745,
      "online": 1746,
      "followed": 1747,
      "count": 1748,
      "molecular": 1749,
      "categ": 1750,
      "ick": 1751,
      "free": 1752,
      "activities": 1753,
      "46": 1754,
      "alg": 1755,
      "ctor": 1756,
      "greater": 1757,
      "parameters": 1758,
      "week": 1759,
      "replication": 1760,
      "area": 1761,
      "dynam": 1762,
      "interaction": 1763,
      "ls": 1764,
      "pho": 1765,
      "dig": 1766,
      "arding": 1767,
      "caused": 1768,
      "drugs": 1769,
      "compon": 1770,
      "49": 1771,
      "rit": 1772,
      "prevalence": 1773,
      "concentration": 1774,
      "good": 1775,
      "47": 1776,
      "proposed": 1777,
      "laboratory": 1778,
      "ai": 1779,
      "coh": 1780,
      "fib": 1781,
      "2017": 1782,
      "pression": 1783,
      "excl": 1784,
      "tral": 1785,
      "izing": 1786,
      "analyses": 1787,
      "strategies": 1788,
      "challeng": 1789,
      "terms": 1790,
      "status": 1791,
      "detail": 1792,
      "stim": 1793,
      "duct": 1794,
      "ventil": 1795,
      "contain": 1796,
      "65": 1797,
      "correspon": 1798,
      "observ": 1799,
      "success": 1800,
      "restric": 1801,
      "ession": 1802,
      "ury": 1803,
      "plan": 1804,
      "mitted": 1805,
      "affected": 1806,
      "vaccines": 1807,
      "fl": 1808,
      "super": 1809,
      "inj": 1810,
      "scho": 1811,
      "tially": 1812,
      "characteristics": 1813,
      "enzy": 1814,
      "severity": 1815,
      "igg": 1816,
      "regions": 1817,
      "employ": 1818,
      "saf": 1819,
      "position": 1820,
      "logical": 1821,
      "ae": 1822,
      "fra": 1823,
      "appropri": 1824,
      "intro": 1825,
      "moder": 1826,
      "context": 1827,
      "mix": 1828,
      "extr": 1829,
      "intr": 1830,
      "lled": 1831,
      "ems": 1832,
      "grad": 1833,
      "bon": 1834,
      "utions": 1835,
      "much": 1836,
      "ised": 1837,
      "events": 1838,
      "ference": 1839,
      "anim": 1840,
      "cm": 1841,
      "subsequ": 1842,
      "vascular": 1843,
      "vaccination": 1844,
      "seen": 1845,
      "regarding": 1846,
      "criter": 1847,
      "abil": 1848,
      "comparis": 1849,
      "55": 1850,
      "five": 1851,
      "block": 1852,
      "assu": 1853,
      "expected": 1854,
      "tor": 1855,
      "ler": 1856,
      "ats": 1857,
      "icu": 1858,
      "nur": 1859,
      "ok": 1860,
      "close": 1861,
      "sity": 1862,
      "school": 1863,
      "determined": 1864,
      "safety": 1865,
      "genome": 1866,
      "incub": 1867,
      "macro": 1868,
      "sensitivity": 1869,
      "2016": 1870,
      "specif": 1871,
      "poin": 1872,
      "staff": 1873,
      "died": 1874,
      "daily": 1875,
      "display": 1876,
      "education": 1877,
      "experience": 1878,
      "weeks": 1879,
      "monary": 1880,
      "throm": 1881,
      "mine": 1882,
      "novel": 1883,
      "genetic": 1884,
      "lockdown": 1885,
      "lympho": 1886,
      "communic": 1887,
      "protocol": 1888,
      "association": 1889,
      "plac": 1890,
      "thir": 1891,
      "ings": 1892,
      "elec": 1893,
      "cross": 1894,
      "icity": 1895,
      "dia": 1896,
      "fully": 1897,
      "complic": 1898,
      "43": 1899,
      "oxy": 1900,
      "intervention": 1901,
      "techni": 1902,
      "ulations": 1903,
      "connec": 1904,
      "larg": 1905,
      "few": 1906,
      "spi": 1907,
      "workers": 1908,
      "ax": 1909,
      "stre": 1910,
      "olution": 1911,
      "gs": 1912,
      "needed": 1913,
      "pp": 1914,
      "environment": 1915,
      "animals": 1916,
      "around": 1917,
      "2015": 1918,
      "percent": 1919,
      "particularly": 1920,
      "simp": 1921,
      "41": 1922,
      "bacterial": 1923,
      "ances": 1924,
      "features": 1925,
      "taken": 1926,
      "loss": 1927,
      "therapeu": 1928,
      "lying": 1929,
      "deaths": 1930,
      "proportion": 1931,
      "cellular": 1932,
      "admission": 1933,
      "applied": 1934,
      "ones": 1935,
      "lation": 1936,
      "policy": 1937,
      "media": 1938,
      "vered": 1939,
      "temperature": 1940,
      "uk": 1941,
      "sof": 1942,
      "recently": 1943,
      "though": 1944,
      "every": 1945,
      "resources": 1946,
      "containing": 1947,
      "carri": 1948,
      "condition": 1949,
      "hold": 1950,
      "ergy": 1951,
      "star": 1952,
      "enced": 1953,
      "prac": 1954,
      "urs": 1955,
      "euro": 1956,
      "march": 1957,
      "technology": 1958,
      "chain": 1959,
      "particles": 1960,
      "targe": 1961,
      "relevant": 1962,
      "fusion": 1963,
      "plasma": 1964,
      "agg": 1965,
      "expressed": 1966,
      "desp": 1967,
      "literature": 1968,
      "utes": 1969,
      "domin": 1970,
      "effic": 1971,
      "approxim": 1972,
      "ders": 1973,
      "antiviral": 1974,
      "interactions": 1975,
      "program": 1976,
      "monitor": 1977,
      "pharm": 1978,
      "ible": 1979,
      "susce": 1980,
      "fa": 1981,
      "country": 1982,
      "practice": 1983,
      "rh": 1984,
      "thelial": 1985,
      "government": 1986,
      "outcome": 1987,
      "dem": 1988,
      "amino": 1989,
      "usa": 1990,
      "s1": 1991,
      "ious": 1992,
      "uth": 1993,
      "profession": 1994,
      "scienti": 1995,
      "unt": 1996,
      "inflammation": 1997,
      "selected": 1998,
      "dam": 1999,
      "cies": 2000,
      "suscepti": 2001,
      "objec": 2002,
      "best": 2003,
      "measured": 2004,
      "determine": 2005,
      "phosp": 2006,
      "despite": 2007,
      "focus": 2008,
      "sites": 2009,
      "uary": 2010,
      "trials": 2011,
      "istic": 2012,
      "assessment": 2013,
      "42": 2014,
      "analyzed": 2015,
      "ster": 2016,
      "exis": 2017,
      "necessary": 2018,
      "htt": 2019,
      "illness": 2020,
      "bd": 2021,
      "essential": 2022,
      "sions": 2023,
      "tum": 2024,
      "combination": 2025,
      "decreased": 2026,
      "capac": 2027,
      "received": 2028,
      "lig": 2029,
      "coll": 2030,
      "course": 2031,
      "revealed": 2032,
      "pulmonary": 2033,
      "animal": 2034,
      "reach": 2035,
      "tele": 2036,
      "finally": 2037,
      "indicated": 2038,
      "strains": 2039,
      "tas": 2040,
      "personal": 2041,
      "ire": 2042,
      "forms": 2043,
      "paren": 2044,
      "inst": 2045,
      "pose": 2046,
      "nm": 2047,
      "appropriate": 2048,
      "nf": 2049,
      "explo": 2050,
      "transfer": 2051,
      "itis": 2052,
      "reli": 2053,
      "reports": 2054,
      "open": 2055,
      "make": 2056,
      "maint": 2057,
      "lion": 2058,
      "others": 2059,
      "ratio": 2060,
      "2014": 2061,
      "anxi": 2062,
      "simul": 2063,
      "minim": 2064,
      "she": 2065,
      "consistent": 2066,
      "separ": 2067,
      "whereas": 2068,
      "having": 2069,
      "05": 2070,
      "cris": 2071,
      "lit": 2072,
      "unit": 2073,
      "turn": 2074,
      "andor": 2075,
      "projec": 2076,
      "neutral": 2077,
      "mechanisms": 2078,
      "emergency": 2079,
      "tu": 2080,
      "jo": 2081,
      "lip": 2082,
      "fem": 2083,
      "hu": 2084,
      "abol": 2085,
      "incidence": 2086,
      "last": 2087,
      "mus": 2088,
      "005": 2089,
      "secondary": 2090,
      "gal": 2091,
      "fit": 2092,
      "introduc": 2093,
      "ws": 2094,
      "sig": 2095,
      "spective": 2096,
      "estimated": 2097,
      "trial": 2098,
      "sibility": 2099,
      "orith": 2100,
      "algorith": 2101,
      "efficacy": 2102,
      "strategy": 2103,
      "agents": 2104,
      "pic": 2105,
      "bes": 2106,
      "gran": 2107,
      "published": 2108,
      "suggested": 2109,
      "understanding": 2110,
      "ring": 2111,
      "pressure": 2112,
      "frame": 2113,
      "emerg": 2114,
      "decrease": 2115,
      "calculated": 2116,
      "criteria": 2117,
      "currently": 2118,
      "university": 2119,
      "graphic": 2120,
      "populations": 2121,
      "avoid": 2122,
      "contrast": 2123,
      "gui": 2124,
      "uti": 2125,
      "later": 2126,
      "stage": 2127,
      "ot": 2128,
      "index": 2129,
      "memb": 2130,
      "198": 2131,
      "resulting": 2132,
      "quar": 2133,
      "members": 2134,
      "lor": 2135,
      "ults": 2136,
      "encing": 2137,
      "56": 2138,
      "residu": 2139,
      "hypothe": 2140,
      "field": 2141,
      "consis": 2142,
      "medicine": 2143,
      "paper": 2144,
      "subst": 2145,
      "license": 2146,
      "median": 2147,
      "weight": 2148,
      "altern": 2149,
      "anxiety": 2150,
      "europe": 2151,
      "liver": 2152,
      "screening": 2153,
      "jun": 2154,
      "ulated": 2155,
      "poor": 2156,
      "needs": 2157,
      "failure": 2158,
      "plat": 2159,
      "prin": 2160,
      "interven": 2161,
      "house": 2162,
      "cum": 2163,
      "energy": 2164,
      "bri": 2165,
      "points": 2166,
      "2013": 2167,
      "functional": 2168,
      "vement": 2169,
      "mechanism": 2170,
      "directly": 2171,
      "third": 2172,
      "iat": 2173,
      "evaluated": 2174,
      "57": 2175,
      "guidel": 2176,
      "mediated": 2177,
      "fever": 2178,
      "chemical": 2179,
      "las": 2180,
      "reaction": 2181,
      "full": 2182,
      "lay": 2183,
      "termin": 2184,
      "derived": 2185,
      "decl": 2186,
      "sk": 2187,
      "rather": 2188,
      "ering": 2189,
      "hs": 2190,
      "101": 2191,
      "young": 2192,
      "ear": 2193,
      "toge": 2194,
      "together": 2195,
      "six": 2196,
      "suppor": 2197,
      "get": 2198,
      "rup": 2199,
      "correlation": 2200,
      "evaluation": 2201,
      "wards": 2202,
      "protection": 2203,
      "left": 2204,
      "natural": 2205,
      "existing": 2206,
      "adjust": 2207,
      "capacity": 2208,
      "scores": 2209,
      "solution": 2210,
      "effor": 2211,
      "diagnostic": 2212,
      "tle": 2213,
      "sex": 2214,
      "therapeutic": 2215,
      "oxygen": 2216,
      "ready": 2217,
      "length": 2218,
      "ier": 2219,
      "disorder": 2220,
      "2012": 2221,
      "power": 2222,
      "event": 2223,
      "special": 2224,
      "cin": 2225,
      "presents": 2226,
      "independent": 2227,
      "biological": 2228,
      "statistical": 2229,
      "injury": 2230,
      "indu": 2231,
      "leading": 2232,
      "far": 2233,
      "brain": 2234,
      "adults": 2235,
      "prevention": 2236,
      "metabol": 2237,
      "ume": 2238,
      "prep": 2239,
      "next": 2240,
      "final": 2241,
      "kes": 2242,
      "products": 2243,
      "ground": 2244,
      "history": 2245,
      "generated": 2246,
      "constru": 2247,
      "mild": 2248,
      "humans": 2249,
      "68": 2250,
      "aa": 2251,
      "structural": 2252,
      "har": 2253,
      "suffici": 2254,
      "become": 2255,
      "ww": 2256,
      "healthy": 2257,
      "older": 2258,
      "2009": 2259,
      "categor": 2260,
      "interventions": 2261,
      "ju": 2262,
      "ran": 2263,
      "aring": 2264,
      "comparison": 2265,
      "instru": 2266,
      "central": 2267,
      "mono": 2268,
      "making": 2269,
      "isolation": 2270,
      "sep": 2271,
      "immunity": 2272,
      "onset": 2273,
      "importance": 2274,
      "frequency": 2275,
      "mber": 2276,
      "peak": 2277,
      "bers": 2278,
      "problem": 2279,
      "means": 2280,
      "pathogens": 2281,
      "67": 2282,
      "ids": 2283,
      "femal": 2284,
      "rang": 2285,
      "dire": 2286,
      "icians": 2287,
      "ered": 2288,
      "59": 2289,
      "protective": 2290,
      "date": 2291,
      "along": 2292,
      "glyco": 2293,
      "utili": 2294,
      "questions": 2295,
      "gt": 2296,
      "broad": 2297,
      "fat": 2298,
      "administration": 2299,
      "enhan": 2300,
      "demo": 2301,
      "va": 2302,
      "ht": 2303,
      "influence": 2304,
      "sor": 2305,
      "xiv": 2306,
      "adi": 2307,
      "variable": 2308,
      "cohort": 2309,
      "poli": 2310,
      "ney": 2311,
      "2010": 2312,
      "lr": 2313,
      "bul": 2314,
      "concentrations": 2315,
      "city": 2316,
      "vitro": 2317,
      "source": 2318,
      "zo": 2319,
      "applic": 2320,
      "aneous": 2321,
      "facilit": 2322,
      "own": 2323,
      "assessed": 2324,
      "adop": 2325,
      "pass": 2326,
      "alle": 2327,
      "you": 2328,
      "great": 2329,
      "devic": 2330,
      "efficient": 2331,
      "58": 2332,
      "mass": 2333,
      "upon": 2334,
      "working": 2335,
      "interesting": 2336,
      "phosph": 2337,
      "decision": 2338,
      "isolated": 2339,
      "highest": 2340,
      "location": 2341,
      "antibio": 2342,
      "intest": 2343,
      "ene": 2344,
      "n1": 2345,
      "room": 2346,
      "labe": 2347,
      "datab": 2348,
      "maxim": 2349,
      "established": 2350,
      "nt": 2351,
      "mag": 2352,
      "affect": 2353,
      "ights": 2354,
      "np": 2355,
      "yet": 2356,
      "spe": 2357,
      "lection": 2358,
      "cted": 2359,
      "cules": 2360,
      "compounds": 2361,
      "provides": 2362,
      "err": 2363,
      "che": 2364,
      "reason": 2365,
      "note": 2366,
      "approaches": 2367,
      "added": 2368,
      "regression": 2369,
      "subjects": 2370,
      "americ": 2371,
      "78": 2372,
      "ik": 2373,
      "conclusion": 2374,
      "amine": 2375,
      "processes": 2376,
      "until": 2377,
      "guidelines": 2378,
      "approximately": 2379,
      "supplementary": 2380,
      "lot": 2381,
      "late": 2382,
      "wash": 2383,
      "supp": 2384,
      "relatively": 2385,
      "acqu": 2386,
      "foc": 2387,
      "volume": 2388,
      "rich": 2389,
      "oti": 2390,
      "collection": 2391,
      "tract": 2392,
      "already": 2393,
      "nano": 2394,
      "veness": 2395,
      "itation": 2396,
      "bound": 2397,
      "sition": 2398,
      "problems": 2399,
      "pet": 2400,
      "service": 2401,
      "molecules": 2402,
      "finan": 2403,
      "cut": 2404,
      "resistance": 2405,
      "itals": 2406,
      "corresponding": 2407,
      "apr": 2408,
      "pathway": 2409,
      "beli": 2410,
      "psychological": 2411,
      "delivery": 2412,
      "increases": 2413,
      "ein": 2414,
      "surger": 2415,
      "anes": 2416,
      "numbers": 2417,
      "cult": 2418,
      "elev": 2419,
      "stri": 2420,
      "series": 2421,
      "teach": 2422,
      "medr": 2423,
      "001": 2424,
      "specifically": 2425,
      "nel": 2426,
      "medrxiv": 2427,
      "2011": 2428,
      "issues": 2429,
      "usually": 2430,
      "hospitals": 2431,
      "scen": 2432,
      "experiments": 2433,
      "secre": 2434,
      "epidemi": 2435,
      "ired": 2436,
      "53": 2437,
      "tren": 2438,
      "cp": 2439,
      "mention": 2440,
      "macroph": 2441,
      "peptide": 2442,
      "duration": 2443,
      "chlor": 2444,
      "feed": 2445,
      "aps": 2446,
      "asympto": 2447,
      "oxid": 2448,
      "monitoring": 2449,
      "99": 2450,
      "structures": 2451,
      "hen": 2452,
      "useful": 2453,
      "microbi": 2454,
      "majority": 2455,
      "afric": 2456,
      "behavior": 2457,
      "produced": 2458,
      "spike": 2459,
      "exer": 2460,
      "hours": 2461,
      "suggests": 2462,
      "thre": 2463,
      "hood": 2464,
      "environmental": 2465,
      "survival": 2466,
      "glu": 2467,
      "refer": 2468,
      "united": 2469,
      "plate": 2470,
      "million": 2471,
      "mainly": 2472,
      "smo": 2473,
      "scientific": 2474,
      "consu": 2475,
      "artic": 2476,
      "xy": 2477,
      "indicate": 2478,
      "heter": 2479,
      "improved": 2480,
      "aspec": 2481,
      "scenari": 2482,
      "transcription": 2483,
      "additionally": 2484,
      "agen": 2485,
      "homo": 2486,
      "mig": 2487,
      "ified": 2488,
      "entry": 2489,
      "mption": 2490,
      "arily": 2491,
      "fici": 2492,
      "potentially": 2493,
      "procedures": 2494,
      "transport": 2495,
      "lim": 2496,
      "advant": 2497,
      "baseline": 2498,
      "interval": 2499,
      "head": 2500,
      "ord": 2501,
      "ventilation": 2502,
      "pair": 2503,
      "generation": 2504,
      "interpre": 2505,
      "0001": 2506,
      "agree": 2507,
      "lant": 2508,
      "ctors": 2509,
      "application": 2510,
      "ior": 2511,
      "functions": 2512,
      "72": 2513,
      "difficult": 2514,
      "heart": 2515,
      "properties": 2516,
      "exhib": 2517,
      "63": 2518,
      "cannot": 2519,
      "dys": 2520,
      "below": 2521,
      "repe": 2522,
      "betes": 2523,
      "assays": 2524,
      "diabetes": 2525,
      "atives": 2526,
      "ores": 2527,
      "def": 2528,
      "ficial": 2529,
      "evaluate": 2530,
      "tware": 2531,
      "ker": 2532,
      "experimental": 2533,
      "lines": 2534,
      "01": 2535,
      "md": 2536,
      "depart": 2537,
      "vision": 2538,
      "inhibition": 2539,
      "bid": 2540,
      "sd": 2541,
      "bacteria": 2542,
      "cardio": 2543,
      "uded": 2544,
      "elect": 2545,
      "bus": 2546,
      "surg": 2547,
      "developing": 2548,
      "opport": 2549,
      "regulation": 2550,
      "ned": 2551,
      "opportun": 2552,
      "software": 2553,
      "ont": 2554,
      "corpor": 2555,
      "team": 2556,
      "los": 2557,
      "nature": 2558,
      "enter": 2559,
      "regard": 2560,
      "thrombo": 2561,
      "suggesting": 2562,
      "reference": 2563,
      "april": 2564,
      "practic": 2565,
      "situation": 2566,
      "electr": 2567,
      "pal": 2568,
      "designed": 2569,
      "lling": 2570,
      "mouse": 2571,
      "align": 2572,
      "fold": 2573,
      "challenges": 2574,
      "probability": 2575,
      "cise": 2576,
      "lex": 2577,
      "compo": 2578,
      "damage": 2579,
      "tumor": 2580,
      "market": 2581,
      "content": 2582,
      "crisis": 2583,
      "run": 2584,
      "iatric": 2585,
      "51": 2586,
      "alternative": 2587,
      "images": 2588,
      "omy": 2589,
      "copy": 2590,
      "onal": 2591,
      "ba": 2592,
      "travel": 2593,
      "linear": 2594,
      "respondents": 2595,
      "medium": 2596,
      "activated": 2597,
      "https": 2598,
      "studied": 2599,
      "buil": 2600,
      "lt": 2601,
      "famil": 2602,
      "continuous": 2603,
      "generally": 2604,
      "cytokines": 2605,
      "material": 2606,
      "pregn": 2607,
      "absence": 2608,
      "communication": 2609,
      "extrac": 2610,
      "kg": 2611,
      "space": 2612,
      "ancy": 2613,
      "2008": 2614,
      "remains": 2615,
      "52": 2616,
      "astro": 2617,
      "predict": 2618,
      "pm": 2619,
      "residues": 2620,
      "signaling": 2621,
      "physi": 2622,
      "degree": 2623,
      "amount": 2624,
      "ands": 2625,
      "bir": 2626,
      "nit": 2627,
      "cyte": 2628,
      "questionna": 2629,
      "dent": 2630,
      "wise": 2631,
      "cytokine": 2632,
      "bron": 2633,
      "center": 2634,
      "tation": 2635,
      "enge": 2636,
      "account": 2637,
      "yi": 2638,
      "asymptomatic": 2639,
      "polymer": 2640,
      "similarly": 2641,
      "surgery": 2642,
      "mrna": 2643,
      "mutations": 2644,
      "hence": 2645,
      "whole": 2646,
      "iting": 2647,
      "recru": 2648,
      "2003": 2649,
      "logies": 2650,
      "components": 2651,
      "79": 2652,
      "find": 2653,
      "pts": 2654,
      "approved": 2655,
      "larger": 2656,
      "tives": 2657,
      "linked": 2658,
      "iness": 2659,
      "selection": 2660,
      "release": 2661,
      "ancing": 2662,
      "moderate": 2663,
      "dimen": 2664,
      "jan": 2665,
      "electro": 2666,
      "agent": 2667,
      "appear": 2668,
      "match": 2669,
      "framework": 2670,
      "ensure": 2671,
      "nsp": 2672,
      "vin": 2673,
      "surgical": 2674,
      "sust": 2675,
      "ampli": 2676,
      "ges": 2677,
      "meth": 2678,
      "depression": 2679,
      "iving": 2680,
      "implementation": 2681,
      "oph": 2682,
      "qual": 2683,
      "64": 2684,
      "limin": 2685,
      "ides": 2686,
      "imaging": 2687,
      "bei": 2688,
      "causes": 2689,
      "enco": 2690,
      "investigated": 2691,
      "surveill": 2692,
      "seg": 2693,
      "eral": 2694,
      "challenge": 2695,
      "rsv": 2696,
      "cand": 2697,
      "inform": 2698,
      "doi": 2699,
      "never": 2700,
      "predicted": 2701,
      "pain": 2702,
      "ending": 2703,
      "financial": 2704,
      "patterns": 2705,
      "surveillance": 2706,
      "nc": 2707,
      "researchers": 2708,
      "ore": 2709,
      "meet": 2710,
      "mir": 2711,
      "carried": 2712,
      "vul": 2713,
      "adverse": 2714,
      "controls": 2715,
      "recommended": 2716,
      "conser": 2717,
      "soli": 2718,
      "pig": 2719,
      "buff": 2720,
      "pot": 2721,
      "detect": 2722,
      "princi": 2723,
      "54": 2724,
      "2021": 2725,
      "pto": 2726,
      "2000": 2727,
      "zing": 2728,
      "attention": 2729,
      "inhibitors": 2730,
      "evolution": 2731,
      "synthesis": 2732,
      "article": 2733,
      "66": 2734,
      "complications": 2735,
      "unique": 2736,
      "utro": 2737,
      "origin": 2738,
      "sufficient": 2739,
      "bat": 2740,
      "once": 2741,
      "2007": 2742,
      "noted": 2743,
      "ras": 2744,
      "visual": 2745,
      "ah": 2746,
      "zation": 2747,
      "exper": 2748,
      "2005": 2749,
      "retro": 2750,
      "concept": 2751,
      "migr": 2752,
      "stren": 2753,
      "distance": 2754,
      "receptors": 2755,
      "graphy": 2756,
      "cv": 2757,
      "contamin": 2758,
      "writ": 2759,
      "identification": 2760,
      "neutro": 2761,
      "exposed": 2762,
      "pathways": 2763,
      "sets": 2764,
      "rbd": 2765,
      "enzyme": 2766,
      "recovery": 2767,
      "invas": 2768,
      "manu": 2769,
      "gf": 2770,
      "gml": 2771,
      "institution": 2772,
      "specim": 2773,
      "tional": 2774,
      "2006": 2775,
      "prepared": 2776,
      "streng": 2777,
      "limitations": 2778,
      "chest": 2779,
      "nd": 2780,
      "examined": 2781,
      "attrib": 2782,
      "eas": 2783,
      "past": 2784,
      "confirm": 2785,
      "mentioned": 2786,
      "hetero": 2787,
      "intestinal": 2788,
      "tru": 2789,
      "done": 2790,
      "income": 2791,
      "safe": 2792,
      "emia": 2793,
      "accuracy": 2794,
      "implic": 2795,
      "dec": 2796,
      "ann": 2797,
      "combined": 2798,
      "tin": 2799,
      "chec": 2800,
      "cry": 2801,
      "digital": 2802,
      "satis": 2803,
      "vector": 2804,
      "resulted": 2805,
      "wild": 2806,
      "organization": 2807,
      "longer": 2808,
      "force": 2809,
      "sero": 2810,
      "users": 2811,
      "cf": 2812,
      "wu": 2813,
      "gender": 2814,
      "kid": 2815,
      "units": 2816,
      "rout": 2817,
      "08": 2818,
      "esis": 2819,
      "hepati": 2820,
      "vivo": 2821,
      "fix": 2822,
      "percentage": 2823,
      "datas": 2824,
      "77": 2825,
      "quarant": 2826,
      "markers": 2827,
      "mr": 2828,
      "urban": 2829,
      "tit": 2830,
      "substanti": 2831,
      "manufact": 2832,
      "subsequent": 2833,
      "tradition": 2834,
      "circul": 2835,
      "candid": 2836,
      "called": 2837,
      "procedure": 2838,
      "considering": 2839,
      "half": 2840,
      "algorithm": 2841,
      "delay": 2842,
      "distancing": 2843,
      "ito": 2844,
      "ules": 2845,
      "differenti": 2846,
      "mediate": 2847,
      "reporting": 2848,
      "2004": 2849,
      "contribute": 2850,
      "dataset": 2851,
      "sources": 2852,
      "aryn": 2853,
      "ulate": 2854,
      "towards": 2855,
      "stable": 2856,
      "stay": 2857,
      "signs": 2858,
      "priv": 2859,
      "itive": 2860,
      "suppres": 2861,
      "providing": 2862,
      "transplant": 2863,
      "benefit": 2864,
      "bc": 2865,
      "vide": 2866,
      "techniques": 2867,
      "perceived": 2868,
      "ising": 2869,
      "commit": 2870,
      "controlled": 2871,
      "interview": 2872,
      "characterized": 2873,
      "bp": 2874,
      "stead": 2875,
      "acell": 2876,
      "responsible": 2877,
      "produce": 2878,
      "cardiac": 2879,
      "bol": 2880,
      "chemo": 2881,
      "cop": 2882,
      "secur": 2883,
      "og": 2884,
      "doub": 2885,
      "inary": 2886,
      "text": 2887,
      "occurred": 2888,
      "tools": 2889,
      "density": 2890,
      "barri": 2891,
      "product": 2892,
      "kidney": 2893,
      "isation": 2894,
      "stor": 2895,
      "indeed": 2896,
      "geo": 2897,
      "s2": 2898,
      "efficiency": 2899,
      "coag": 2900,
      "squ": 2901,
      "specificity": 2902,
      "mach": 2903,
      "includes": 2904,
      "maximum": 2905,
      "cence": 2906,
      "mia": 2907,
      "ials": 2908,
      "reducing": 2909,
      "requires": 2910,
      "acellular": 2911,
      "tiveness": 2912,
      "disco": 2913,
      "tissues": 2914,
      "mode": 2915,
      "ato": 2916,
      "equip": 2917,
      "indicating": 2918,
      "practices": 2919,
      "injec": 2920,
      "basis": 2921,
      "defici": 2922,
      "almost": 2923,
      "eno": 2924,
      "systemic": 2925,
      "pharmac": 2926,
      "exce": 2927,
      "lis": 2928,
      "items": 2929,
      "disch": 2930,
      "win": 2931,
      "lang": 2932,
      "comor": 2933,
      "62": 2934,
      "iii": 2935,
      "conver": 2936,
      "shif": 2937,
      "bias": 2938,
      "gas": 2939,
      "settings": 2940,
      "science": 2941,
      "focused": 2942,
      "establish": 2943,
      "leu": 2944,
      "uncertain": 2945,
      "fund": 2946,
      "microbial": 2947,
      "ery": 2948,
      "scan": 2949,
      "living": 2950,
      "eti": 2951,
      "underlying": 2952,
      "highl": 2953,
      "susceptible": 2954,
      "opath": 2955,
      "cough": 2956,
      "internal": 2957,
      "database": 2958,
      "efforts": 2959,
      "enh": 2960,
      "commonly": 2961,
      "71": 2962,
      "hea": 2963,
      "nov": 2964,
      "male": 2965,
      "policies": 2966,
      "experiment": 2967,
      "frag": 2968,
      "vaccin": 2969,
      "09": 2970,
      "oids": 2971,
      "neur": 2972,
      "hor": 2973,
      "lies": 2974,
      "image": 2975,
      "sense": 2976,
      "semb": 2977,
      "alone": 2978,
      "oles": 2979,
      "covid19": 2980,
      "discussed": 2981,
      "granted": 2982,
      "estimate": 2983,
      "address": 2984,
      "statistically": 2985,
      "outbreaks": 2986,
      "rapidly": 2987,
      "dynamics": 2988,
      "ton": 2989,
      "security": 2990,
      "vulner": 2991,
      "holder": 2992,
      "basic": 2993,
      "implemented": 2994,
      "mely": 2995,
      "macrophages": 2996,
      "follows": 2997,
      "ium": 2998,
      "accept": 2999,
      "manif": 3000,
      "frequently": 3001,
      "intra": 3002,
      "hout": 3003,
      "processing": 3004,
      "vary": 3005,
      "exist": 3006,
      "south": 3007,
      "enhance": 3008,
      "uring": 3009,
      "aero": 3010,
      "88": 3011,
      "neutrophil": 3012,
      "lier": 3013,
      "numer": 3014,
      "regis": 3015,
      "rix": 3016,
      "aus": 3017,
      "input": 3018,
      "elevated": 3019,
      "located": 3020,
      "recorded": 3021,
      "risks": 3022,
      "ues": 3023,
      "thres": 3024,
      "san": 3025,
      "benefits": 3026,
      "estimates": 3027,
      "funder": 3028,
      "heren": 3029,
      "cycle": 3030,
      "improvement": 3031,
      "asth": 3032,
      "61": 3033,
      "none": 3034,
      "aware": 3035,
      "sim": 3036,
      "ono": 3037,
      "extre": 3038,
      "concerns": 3039,
      "fibro": 3040,
      "1a": 3041,
      "advan": 3042,
      "lar": 3043,
      "intensive": 3044,
      "coc": 3045,
      "networks": 3046,
      "metho": 3047,
      "sampling": 3048,
      "renal": 3049,
      "peptides": 3050,
      "orf": 3051,
      "row": 3052,
      "pool": 3053,
      "arter": 3054,
      "izations": 3055,
      "classification": 3056,
      "uity": 3057,
      "peer": 3058,
      "targets": 3059,
      "represents": 3060,
      "chen": 3061,
      "epithelial": 3062,
      "effectiveness": 3063,
      "placed": 3064,
      "technologies": 3065,
      "dle": 3066,
      "incubated": 3067,
      "pha": 3068,
      "commer": 3069,
      "chines": 3070,
      "taking": 3071,
      "allowed": 3072,
      "consent": 3073,
      "routine": 3074,
      "optimal": 3075,
      "january": 3076,
      "pv": 3077,
      "cogn": 3078,
      "histo": 3079,
      "matrix": 3080,
      "availability": 3081,
      "throug": 3082,
      "worldwide": 3083,
      "stream": 3084,
      "thin": 3085,
      "throughout": 3086,
      "burden": 3087,
      "panel": 3088,
      "ades": 3089,
      "chinese": 3090,
      "74": 3091,
      "kit": 3092,
      "map": 3093,
      "ru": 3094,
      "cd4": 3095,
      "disorders": 3096,
      "allows": 3097,
      "live": 3098,
      "diagnosed": 3099,
      "threat": 3100,
      "pes": 3101,
      "sequencing": 3102,
      "suspec": 3103,
      "nic": 3104,
      "society": 3105,
      "relationships": 3106,
      "phag": 3107,
      "widely": 3108,
      "sle": 3109,
      "prediction": 3110,
      "regular": 3111,
      "cd8": 3112,
      "theless": 3113,
      "weak": 3114,
      "collabor": 3115,
      "fal": 3116,
      "incorpor": 3117,
      "distin": 3118,
      "indicates": 3119,
      "quate": 3120,
      "persist": 3121,
      "fas": 3122,
      "sensitive": 3123,
      "fluores": 3124,
      "quantit": 3125,
      "fu": 3126,
      "fav": 3127,
      "bv": 3128,
      "virt": 3129,
      "affin": 3130,
      "replic": 3131,
      "systematic": 3132,
      "reviewed": 3133,
      "ologic": 3134,
      "chan": 3135,
      "copyright": 3136,
      "programs": 3137,
      "distress": 3138,
      "female": 3139,
      "dominant": 3140,
      "feature": 3141,
      "ose": 3142,
      "cup": 3143,
      "96": 3144,
      "const": 3145,
      "materials": 3146,
      "authorfunder": 3147,
      "aries": 3148,
      "questionnaire": 3149,
      "skin": 3150,
      "mask": 3151,
      "feel": 3152,
      "myo": 3153,
      "acce": 3154,
      "leads": 3155,
      "acids": 3156,
      "core": 3157,
      "project": 3158,
      "compan": 3159,
      "inhibitor": 3160,
      "tension": 3161,
      "occurs": 3162,
      "compet": 3163,
      "gp": 3164,
      "emerging": 3165,
      "counter": 3166,
      "entire": 3167,
      "ond": 3168,
      "enhanced": 3169,
      "induce": 3170,
      "apop": 3171,
      "solid": 3172,
      "uter": 3173,
      "tnf": 3174,
      "demand": 3175,
      "rd": 3176,
      "apopto": 3177,
      "upper": 3178,
      "bit": 3179,
      "gluco": 3180,
      "disrup": 3181,
      "versus": 3182,
      "asons": 3183,
      "rare": 3184,
      "rob": 3185,
      "serious": 3186,
      "dece": 3187,
      "inn": 3188,
      "correct": 3189,
      "73": 3190,
      "summar": 3191,
      "zu": 3192,
      "achieved": 3193,
      "concern": 3194,
      "hd": 3195,
      "pheno": 3196,
      "methyl": 3197,
      "experienced": 3198,
      "assign": 3199,
      "european": 3200,
      "traditional": 3201,
      "parameter": 3202,
      "tee": 3203,
      "constit": 3204,
      "quantitative": 3205,
      "recombin": 3206,
      "olar": 3207,
      "aspects": 3208,
      "lla": 3209,
      "spati": 3210,
      "abnormal": 3211,
      "addres": 3212,
      "adult": 3213,
      "toxicity": 3214,
      "nutri": 3215,
      "lesions": 3216,
      "skill": 3217,
      "deep": 3218,
      "mutation": 3219,
      "articles": 3220,
      "guid": 3221,
      "buffer": 3222,
      "diarr": 3223,
      "perpet": 3224,
      "hospitalized": 3225,
      "communities": 3226,
      "trig": 3227,
      "fraction": 3228,
      "uration": 3229,
      "unknown": 3230,
      "mechanical": 3231,
      "original": 3232,
      "recommendations": 3233,
      "tc": 3234,
      "middle": 3235,
      "proli": 3236,
      "gc": 3237,
      "colon": 3238,
      "nucleoti": 3239,
      "illu": 3240,
      "war": 3241,
      "76": 3242,
      "demographic": 3243,
      "applications": 3244,
      "seven": 3245,
      "provin": 3246,
      "phone": 3247,
      "alter": 3248,
      "modified": 3249,
      "possibility": 3250,
      "obes": 3251,
      "illustr": 3252,
      "dynamic": 3253,
      "symptom": 3254,
      "acting": 3255,
      "instance": 3256,
      "costs": 3257,
      "camp": 3258,
      "explain": 3259,
      "max": 3260,
      "terminal": 3261,
      "isa": 3262,
      "extent": 3263,
      "genomic": 3264,
      "user": 3265,
      "tb": 3266,
      "capture": 3267,
      "ighted": 3268,
      "counts": 3269,
      "targeting": 3270,
      "behaviour": 3271,
      "ka": 3272,
      "hypothesis": 3273,
      "platform": 3274,
      "hes": 3275,
      "alve": 3276,
      "treatments": 3277,
      "supply": 3278,
      "toxic": 3279,
      "sil": 3280,
      "employed": 3281,
      "correlated": 3282,
      "socio": 3283,
      "informed": 3284,
      "bidity": 3285,
      "outside": 3286,
      "complement": 3287,
      "extensive": 3288,
      "department": 3289,
      "list": 3290,
      "prolifer": 3291,
      "acade": 3292,
      "facilities": 3293,
      "progression": 3294,
      "hospitalization": 3295,
      "link": 3296,
      "screen": 3297,
      "accum": 3298,
      "investigate": 3299,
      "strongly": 3300,
      "shap": 3301,
      "cript": 3302,
      "significance": 3303,
      "wuhan": 3304,
      "quarantine": 3305,
      "cluster": 3306,
      "investigation": 3307,
      "interestingly": 3308,
      "85": 3309,
      "issue": 3310,
      "instead": 3311,
      "thy": 3312,
      "prepar": 3313,
      "fluid": 3314,
      "domains": 3315,
      "comput": 3316,
      "generate": 3317,
      "von": 3318,
      "rab": 3319,
      "examination": 3320,
      "subsequently": 3321,
      "business": 3322,
      "consumption": 3323,
      "season": 3324,
      "etc": 3325,
      "variation": 3326,
      "mito": 3327,
      "coronaviruses": 3328,
      "component": 3329,
      "fall": 3330,
      "ners": 3331,
      "lipid": 3332,
      "admitted": 3333,
      "white": 3334,
      "little": 3335,
      "asthma": 3336,
      "sized": 3337,
      "layer": 3338,
      "reflect": 3339,
      "variants": 3340,
      "rin": 3341,
      "sts": 3342,
      "families": 3343,
      "bidi": 3344,
      "variety": 3345,
      "detailed": 3346,
      "robust": 3347,
      "trust": 3348,
      "promis": 3349,
      "supported": 3350,
      "posted": 3351,
      "pbs": 3352,
      "bac": 3353,
      "recombinant": 3354,
      "ada": 3355,
      "extracted": 3356,
      "equipment": 3357,
      "divid": 3358,
      "osis": 3359,
      "assemb": 3360,
      "gd": 3361,
      "typically": 3362,
      "political": 3363,
      "suspected": 3364,
      "targeted": 3365,
      "alpha": 3366,
      "geno": 3367,
      "appen": 3368,
      "2002": 3369,
      "poll": 3370,
      "scopy": 3371,
      "bidities": 3372,
      "itable": 3373,
      "perpetuity": 3374,
      "occup": 3375,
      "h1": 3376,
      "constant": 3377,
      "fish": 3378,
      "nasal": 3379,
      "itig": 3380,
      "belie": 3381,
      "administered": 3382,
      "muco": 3383,
      "simple": 3384,
      "confidence": 3385,
      "abilities": 3386,
      "bm": 3387,
      "gam": 3388,
      "98": 3389,
      "asis": 3390,
      "reverse": 3391,
      "distinct": 3392,
      "wes": 3393,
      "ardi": 3394,
      "crucial": 3395,
      "masks": 3396,
      "ibility": 3397,
      "bov": 3398,
      "green": 3399,
      "background": 3400,
      "nn": 3401,
      "too": 3402,
      "lungs": 3403,
      "attemp": 3404,
      "compre": 3405,
      "sid": 3406,
      "2a": 3407,
      "respect": 3408,
      "pse": 3409,
      "coord": 3410,
      "coming": 3411,
      "bey": 3412,
      "ites": 3413,
      "threshold": 3414,
      "hab": 3415,
      "involvement": 3416,
      "reser": 3417,
      "adv": 3418,
      "cardiovascular": 3419,
      "achieve": 3420,
      "symptomatic": 3421,
      "langu": 3422,
      "contacts": 3423,
      "bronch": 3424,
      "excluded": 3425,
      "oing": 3426,
      "contains": 3427,
      "promote": 3428,
      "periph": 3429,
      "purpose": 3430,
      "tun": 3431,
      "meta": 3432,
      "ros": 3433,
      "stry": 3434,
      "reasons": 3435,
      "degrad": 3436,
      "recognition": 3437,
      "wave": 3438,
      "stability": 3439,
      "simulation": 3440,
      "jap": 3441,
      "1b": 3442,
      "conflic": 3443,
      "coli": 3444,
      "gent": 3445,
      "inclusion": 3446,
      "corti": 3447,
      "appears": 3448,
      "manifest": 3449,
      "fixed": 3450,
      "stages": 3451,
      "innov": 3452,
      "mitig": 3453,
      "persons": 3454,
      "methodo": 3455,
      "convention": 3456,
      "specimens": 3457,
      "iring": 3458,
      "centers": 3459,
      "theore": 3460,
      "hi": 3461,
      "progno": 3462,
      "residents": 3463,
      "ongoing": 3464,
      "start": 3465,
      "3d": 3466,
      "aug": 3467,
      "earlier": 3468,
      "febr": 3469,
      "mixed": 3470,
      "regional": 3471,
      "aft": 3472,
      "para": 3473,
      "steps": 3474,
      "acin": 3475,
      "ught": 3476,
      "500": 3477,
      "stimul": 3478,
      "aerosol": 3479,
      "angio": 3480,
      "box": 3481,
      "brief": 3482,
      "tified": 3483,
      "dimension": 3484,
      "heterogene": 3485,
      "comprehen": 3486,
      "wel": 3487,
      "subject": 3488,
      "technique": 3489,
      "inocul": 3490,
      "seems": 3491,
      "sens": 3492,
      "big": 3493,
      "invasive": 3494,
      "incubation": 3495,
      "hin": 3496,
      "sn": 3497,
      "successful": 3498,
      "stro": 3499,
      "aggreg": 3500,
      "lective": 3501,
      "interfer": 3502,
      "transfec": 3503,
      "reci": 3504,
      "february": 3505,
      "providers": 3506,
      "ressive": 3507,
      "dm": 3508,
      "nurses": 3509,
      "venous": 3510,
      "words": 3511,
      "iso": 3512,
      "true": 3513,
      "consult": 3514,
      "task": 3515,
      "continue": 3516,
      "slight": 3517,
      "chloro": 3518,
      "auf": 3519,
      "sustain": 3520,
      "thor": 3521,
      "equal": 3522,
      "adjusted": 3523,
      "diversity": 3524,
      "substr": 3525,
      "jour": 3526,
      "professionals": 3527,
      "always": 3528,
      "acer": 3529,
      "share": 3530,
      "regulatory": 3531,
      "resistant": 3532,
      "receiving": 3533,
      "protease": 3534,
      "diet": 3535,
      "udo": 3536,
      "lated": 3537,
      "polymerase": 3538,
      "physicians": 3539,
      "clearly": 3540,
      "emphas": 3541,
      "bone": 3542,
      "output": 3543,
      "italy": 3544,
      "thing": 3545,
      "devices": 3546,
      "endothelial": 3547,
      "parents": 3548,
      "innate": 3549,
      "experiences": 3550,
      "lich": 3551,
      "eco": 3552,
      "89": 3553,
      "hypertension": 3554,
      "manufacture": 3555,
      "web": 3556,
      "pu": 3557,
      "categories": 3558,
      "possi": 3559,
      "zy": 3560,
      "affinity": 3561,
      "professional": 3562,
      "avage": 3563,
      "valent": 3564,
      "consequences": 3565,
      "mh": 3566,
      "compare": 3567,
      "visits": 3568,
      "bene": 3569,
      "difficul": 3570,
      "nodes": 3571,
      "antigens": 3572,
      "phal": 3573,
      "intensity": 3574,
      "das": 3575,
      "showing": 3576,
      "building": 3577,
      "sleep": 3578,
      "elements": 3579,
      "introduced": 3580,
      "zes": 3581,
      "ema": 3582,
      "reactions": 3583,
      "prop": 3584,
      "gastro": 3585,
      "asked": 3586,
      "lab": 3587,
      "return": 3588,
      "beyond": 3589,
      "cognitive": 3590,
      "demonstrate": 3591,
      "breath": 3592,
      "ost": 3593,
      "pas": 3594,
      "vitamin": 3595,
      "presentation": 3596,
      "visit": 3597,
      "1000": 3598,
      "ray": 3599,
      "pc": 3600,
      "kers": 3601,
      "compris": 3602,
      "epidemiological": 3603,
      "objective": 3604,
      "invest": 3605,
      "currence": 3606,
      "scenario": 3607,
      "insig": 3608,
      "shared": 3609,
      "substit": 3610,
      "dysfunction": 3611,
      "keep": 3612,
      "created": 3613,
      "techn": 3614,
      "airway": 3615,
      "urine": 3616,
      "curve": 3617,
      "3a": 3618,
      "prolong": 3619,
      "black": 3620,
      "ki": 3621,
      "frequent": 3622,
      "offer": 3623,
      "drople": 3624,
      "omes": 3625,
      "quick": 3626,
      "toward": 3627,
      "leg": 3628,
      "regulated": 3629,
      "devi": 3630,
      "represented": 3631,
      "elimin": 3632,
      "cil": 3633,
      "neutralizing": 3634,
      "extern": 3635,
      "virtual": 3636,
      "assist": 3637,
      "classified": 3638,
      "error": 3639,
      "organisms": 3640,
      "maintain": 3641,
      "doses": 3642,
      "theory": 3643,
      "enro": 3644,
      "solutions": 3645,
      "institutions": 3646,
      "alveolar": 3647,
      "video": 3648,
      "plays": 3649,
      "june": 3650,
      "nk": 3651,
      "gel": 3652,
      "trend": 3653,
      "ppe": 3654,
      "initially": 3655,
      "fear": 3656,
      "induction": 3657,
      "rogen": 3658,
      "mol": 3659,
      "spatial": 3660,
      "africa": 3661,
      "student": 3662,
      "describe": 3663,
      "observation": 3664,
      "encies": 3665,
      "usive": 3666,
      "pseudo": 3667,
      "except": 3668,
      "strand": 3669,
      "india": 3670,
      "lands": 3671,
      "observations": 3672,
      "details": 3673,
      "mess": 3674,
      "tlr": 3675,
      "geal": 3676,
      "rac": 3677,
      "manus": 3678,
      "receive": 3679,
      "aria": 3680,
      "depending": 3681,
      "particle": 3682,
      "flex": 3683,
      "somes": 3684,
      "cx": 3685,
      "prescri": 3686,
      "resource": 3687,
      "job": 3688,
      "aryngeal": 3689,
      "restrictions": 3690,
      "poses": 3691,
      "track": 3692,
      "comorbidities": 3693,
      "operation": 3694,
      "encour": 3695,
      "resolution": 3696,
      "parts": 3697,
      "expand": 3698,
      "bic": 3699,
      "reactive": 3700,
      "wal": 3701,
      "belong": 3702,
      "isolates": 3703,
      "changed": 3704,
      "lihood": 3705,
      "continued": 3706,
      "industry": 3707,
      "quine": 3708,
      "holds": 3709,
      "2b": 3710,
      "elder": 3711,
      "exercise": 3712,
      "accurate": 3713,
      "participant": 3714,
      "smaller": 3715,
      "peripheral": 3716,
      "american": 3717,
      "acted": 3718,
      "shock": 3719,
      "bile": 3720,
      "ification": 3721,
      "western": 3722,
      "completed": 3723,
      "your": 3724,
      "tax": 3725,
      "luc": 3726,
      "gram": 3727,
      "selves": 3728,
      "draw": 3729,
      "jug": 3730,
      "muscle": 3731,
      "thal": 3732,
      "comprehensive": 3733,
      "going": 3734,
      "ples": 3735,
      "consequ": 3736,
      "recognized": 3737,
      "pay": 3738,
      "hcv": 3739,
      "crim": 3740,
      "seem": 3741,
      "committee": 3742,
      "behaviors": 3743,
      "create": 3744,
      "aimed": 3745,
      "apping": 3746,
      "conventional": 3747,
      "conce": 3748,
      "neigh": 3749,
      "eine": 3750,
      "memory": 3751,
      "120": 3752,
      "ptions": 3753,
      "explained": 3754,
      "glut": 3755,
      "measurement": 3756,
      "academic": 3757,
      "conduct": 3758,
      "near": 3759,
      "profile": 3760,
      "olig": 3761,
      "agon": 3762,
      "plant": 3763,
      "hepatitis": 3764,
      "elisa": 3765,
      "trained": 3766,
      "faces": 3767,
      "lac": 3768,
      "cities": 3769,
      "remote": 3770,
      "remaining": 3771,
      "fed": 3772,
      "facilitate": 3773,
      "chon": 3774,
      "rig": 3775,
      "agreement": 3776,
      "household": 3777,
      "strength": 3778,
      "eding": 3779,
      "bly": 3780,
      "balance": 3781,
      "tour": 3782,
      "offic": 3783,
      "fill": 3784,
      "transition": 3785,
      "eight": 3786,
      "commercial": 3787,
      "december": 3788,
      "wt": 3789,
      "sia": 3790,
      "primarily": 3791,
      "started": 3792,
      "modeling": 3793,
      "arent": 3794,
      "brid": 3795,
      "advantage": 3796,
      "germany": 3797,
      "evol": 3798,
      "2001": 3799,
      "removed": 3800,
      "colum": 3801,
      "era": 3802,
      "institutional": 3803,
      "ician": 3804,
      "member": 3805,
      "mostly": 3806,
      "false": 3807,
      "susceptibility": 3808,
      "decisions": 3809,
      "metry": 3810,
      "plus": 3811,
      "discussion": 3812,
      "divided": 3813,
      "deno": 3814,
      "external": 3815,
      "clonal": 3816,
      "nevertheless": 3817,
      "causing": 3818,
      "remained": 3819,
      "preci": 3820,
      "recovered": 3821,
      "plasmid": 3822,
      "code": 3823,
      "emotional": 3824,
      "minimum": 3825,
      "periods": 3826,
      "02": 3827,
      "caus": 3828,
      "antibiotics": 3829,
      "typical": 3830,
      "sepsis": 3831,
      "trum": 3832,
      "cts": 3833,
      "onto": 3834,
      "wall": 3835,
      "cultures": 3836,
      "birth": 3837,
      "effectively": 3838,
      "examine": 3839,
      "acquired": 3840,
      "lets": 3841,
      "anal": 3842,
      "sures": 3843,
      "explore": 3844,
      "tom": 3845,
      "manner": 3846,
      "300": 3847,
      "involving": 3848,
      "coverage": 3849,
      "sent": 3850,
      "cover": 3851,
      "summ": 3852,
      "recruit": 3853,
      "adequate": 3854,
      "mc": 3855,
      "mt": 3856,
      "elds": 3857,
      "beta": 3858,
      "indirect": 3859,
      "absor": 3860,
      "impacts": 3861,
      "itative": 3862,
      "asp": 3863,
      "substantial": 3864,
      "unding": 3865,
      "antibiotic": 3866,
      "minor": 3867,
      "diverse": 3868,
      "definition": 3869,
      "exacer": 3870,
      "pac": 3871,
      "etal": 3872,
      "umab": 3873,
      "bind": 3874,
      "manuscript": 3875,
      "clean": 3876,
      "dance": 3877,
      "probably": 3878,
      "meaning": 3879,
      "language": 3880,
      "choice": 3881,
      "chloroquine": 3882,
      "ranging": 3883,
      "measurements": 3884,
      "elderly": 3885,
      "stock": 3886,
      "omen": 3887,
      "extraction": 3888,
      "statistics": 3889,
      "gue": 3890,
      "cam": 3891,
      "cou": 3892,
      "protect": 3893,
      "exacerb": 3894,
      "actual": 3895,
      "compli": 3896,
      "cataly": 3897,
      "expect": 3898,
      "latter": 3899,
      "grade": 3900,
      "lysis": 3901,
      "cule": 3902,
      "antic": 3903,
      "sul": 3904,
      "validation": 3905,
      "connected": 3906,
      "eq": 3907,
      "nucleic": 3908,
      "dock": 3909,
      "150": 3910,
      "apoptosis": 3911,
      "itself": 3912,
      "formal": 3913,
      "advanced": 3914,
      "mart": 3915,
      "cli": 3916,
      "uncertainty": 3917,
      "double": 3918,
      "myocardi": 3919,
      "waste": 3920,
      "sector": 3921,
      "semin": 3922,
      "ali": 3923,
      "spectrum": 3924,
      "obesity": 3925,
      "paras": 3926,
      "private": 3927,
      "marked": 3928,
      "mobility": 3929,
      "clusters": 3930,
      "pathogenesis": 3931,
      "alco": 3932,
      "skills": 3933,
      "libr": 3934,
      "metric": 3935,
      "whose": 3936,
      "motiv": 3937,
      "repeated": 3938,
      "hl": 3939,
      "fri": 3940,
      "94": 3941,
      "cdc": 3942,
      "attit": 3943,
      "filter": 3944,
      "fast": 3945,
      "dele": 3946,
      "infil": 3947,
      "hemo": 3948,
      "molecule": 3949,
      "roles": 3950,
      "makes": 3951,
      "83": 3952,
      "attach": 3953,
      "give": 3954,
      "marker": 3955,
      "metabolic": 3956,
      "educational": 3957,
      "hn": 3958,
      "mous": 3959,
      "variant": 3960,
      "thereby": 3961,
      "segment": 3962,
      "documented": 3963,
      "device": 3964,
      "cryst": 3965,
      "enrich": 3966,
      "conjug": 3967,
      "clinically": 3968,
      "beginning": 3969,
      "hydroxy": 3970,
      "hydrogen": 3971,
      "ify": 3972,
      "discharge": 3973,
      "necro": 3974,
      "dimer": 3975,
      "extended": 3976,
      "rv": 3977,
      "cure": 3978,
      "cere": 3979,
      "exact": 3980,
      "cats": 3981,
      "goal": 3982,
      "requiring": 3983,
      "scope": 3984,
      "likelihood": 3985,
      "ana": 3986,
      "protocols": 3987,
      "dium": 3988,
      "participation": 3989,
      "zen": 3990,
      "physiological": 3991,
      "04": 3992,
      "ended": 3993,
      "udes": 3994,
      "distributed": 3995,
      "themselves": 3996,
      "suitable": 3997,
      "figures": 3998,
      "vised": 3999,
      "composition": 4000,
      "glucose": 4001,
      "purified": 4002,
      "hard": 4003,
      "bot": 4004,
      "photo": 4005,
      "easily": 4006,
      "tg": 4007,
      "ivir": 4008,
      "starting": 4009,
      "umin": 4010,
      "rights": 4011,
      "comparing": 4012,
      "abund": 4013,
      "vulnerable": 4014,
      "deriv": 4015,
      "leaders": 4016,
      "thought": 4017,
      "orts": 4018,
      "forward": 4019,
      "numerous": 4020,
      "sta": 4021,
      "prophy": 4022,
      "carbon": 4023,
      "pediatric": 4024,
      "125": 4025,
      "lives": 4026,
      "sat": 4027,
      "internet": 4028,
      "nursing": 4029,
      "introduction": 4030,
      "slow": 4031,
      "adaptive": 4032,
      "82": 4033,
      "loop": 4034,
      "engine": 4035,
      "84": 4036,
      "gan": 4037,
      "dilu": 4038,
      "titers": 4039,
      "classes": 4040,
      "ula": 4041,
      "breast": 4042,
      "otherap": 4043,
      "prefer": 4044,
      "constrain": 4045,
      "deficiency": 4046,
      "qualitative": 4047,
      "doiorg": 4048,
      "radio": 4049,
      "requirements": 4050,
      "chondri": 4051,
      "clim": 4052,
      "planning": 4053,
      "ado": 4054,
      "expressing": 4055,
      "clinic": 4056,
      "lps": 4057,
      "mn": 4058,
      "ches": 4059,
      "81": 4060,
      "randomized": 4061,
      "check": 4062,
      "therapies": 4063,
      "adeno": 4064,
      "supporting": 4065,
      "industri": 4066,
      "ethical": 4067,
      "var": 4068,
      "topes": 4069,
      "law": 4070,
      "promising": 4071,
      "acces": 4072,
      "conserved": 4073,
      "emis": 4074,
      "toler": 4075,
      "infect": 4076,
      "nucleotide": 4077,
      "nation": 4078,
      "aligned": 4079,
      "morbidity": 4080,
      "inser": 4081,
      "completely": 4082,
      "partial": 4083,
      "dogs": 4084,
      "infants": 4085,
      "why": 4086,
      "perspective": 4087,
      "mel": 4088,
      "austr": 4089,
      "equi": 4090,
      "je": 4091,
      "intracellular": 4092,
      "empir": 4093,
      "identifying": 4094,
      "profil": 4095,
      "attack": 4096,
      "neumo": 4097,
      "ices": 4098,
      "cycl": 4099,
      "overl": 4100,
      "simult": 4101,
      "izes": 4102,
      "disci": 4103,
      "vation": 4104,
      "ata": 4105,
      "news": 4106,
      "phenomen": 4107,
      "examples": 4108,
      "httpsdoiorg": 4109,
      "equation": 4110,
      "mac": 4111,
      "mitochondri": 4112,
      "opathy": 4113,
      "aims": 4114,
      "movement": 4115,
      "operative": 4116,
      "blu": 4117,
      "discipl": 4118,
      "resili": 4119,
      "cov2": 4120,
      "amplification": 4121,
      "diarrhea": 4122,
      "86": 4123,
      "teaching": 4124,
      "ral": 4125,
      "asets": 4126,
      "lipo": 4127,
      "swab": 4128,
      "borne": 4129,
      "somal": 4130,
      "genomes": 4131,
      "proliferation": 4132,
      "datasets": 4133,
      "simultaneous": 4134,
      "schools": 4135,
      "vaccinated": 4136,
      "bank": 4137,
      "lymphocytes": 4138,
      "critically": 4139,
      "ligand": 4140,
      "door": 4141,
      "adopted": 4142,
      "engagement": 4143,
      "largely": 4144,
      "tub": 4145,
      "attenu": 4146,
      "rad": 4147,
      "integrated": 4148,
      "phylo": 4149,
      "disas": 4150,
      "versi": 4151,
      "uish": 4152,
      "shed": 4153,
      "epitopes": 4154,
      "select": 4155,
      "ret": 4156,
      "mann": 4157,
      "ende": 4158,
      "pathogenic": 4159,
      "differential": 4160,
      "ham": 4161,
      "certified": 4162,
      "beneficial": 4163,
      "ave": 4164,
      "enough": 4165,
      "impair": 4166,
      "category": 4167,
      "allowing": 4168,
      "bing": 4169,
      "satisf": 4170,
      "feas": 4171,
      "ulin": 4172,
      "employment": 4173,
      "tinguish": 4174,
      "node": 4175,
      "atg": 4176,
      "translation": 4177,
      "chi": 4178,
      "mobile": 4179,
      "pf": 4180,
      "dil": 4181,
      "move": 4182,
      "resol": 4183,
      "domes": 4184,
      "nuclear": 4185,
      "separate": 4186,
      "organizations": 4187,
      "dix": 4188,
      "lam": 4189,
      "orient": 4190,
      "board": 4191,
      "cleavage": 4192,
      "rural": 4193,
      "technical": 4194,
      "independ": 4195,
      "climate": 4196,
      "array": 4197,
      "contamination": 4198,
      "ulative": 4199,
      "employe": 4200,
      "ends": 4201,
      "austral": 4202,
      "aid": 4203,
      "pregnancy": 4204,
      "hypox": 4205,
      "possibly": 4206,
      "wan": 4207,
      "cher": 4208,
      "reed": 4209,
      "cture": 4210,
      "driven": 4211,
      "speed": 4212,
      "p1": 4213,
      "closed": 4214,
      "hcov": 4215,
      "enzymes": 4216,
      "argu": 4217,
      "recipi": 4218,
      "gain": 4219,
      "appeared": 4220,
      "colleag": 4221,
      "distinguish": 4222,
      "surro": 4223,
      "tility": 4224,
      "lif": 4225,
      "comprom": 4226,
      "ram": 4227,
      "growing": 4228,
      "summary": 4229,
      "genous": 4230,
      "87": 4231,
      "successfully": 4232,
      "roo": 4233,
      "deal": 4234,
      "phosphory": 4235,
      "retrospective": 4236,
      "cultural": 4237,
      "avi": 4238,
      "consen": 4239,
      "construct": 4240,
      "antimicrobial": 4241,
      "degradation": 4242,
      "carry": 4243,
      "mother": 4244,
      "reached": 4245,
      "ucle": 4246,
      "tomy": 4247,
      "explan": 4248,
      "identity": 4249,
      "institute": 4250,
      "bt": 4251,
      "trim": 4252,
      "kine": 4253,
      "swit": 4254,
      "records": 4255,
      "closely": 4256,
      "tend": 4257,
      "tensin": 4258,
      "mv": 4259,
      "direction": 4260,
      "opharyngeal": 4261,
      "favor": 4262,
      "norm": 4263,
      "shift": 4264,
      "alcohol": 4265,
      "ateral": 4266,
      "sections": 4267,
      "respective": 4268,
      "domestic": 4269,
      "slightly": 4270,
      "injection": 4271,
      "comparable": 4272,
      "opportunity": 4273,
      "opportunities": 4274,
      "moti": 4275,
      "primers": 4276,
      "ethics": 4277,
      "hydr": 4278,
      "funding": 4279,
      "progress": 4280,
      "rise": 4281,
      "kore": 4282,
      "aut": 4283,
      "topic": 4284,
      "stroke": 4285,
      "consequently": 4286,
      "awareness": 4287,
      "coding": 4288,
      "sched": 4289,
      "dc": 4290,
      "clinicians": 4291,
      "--": 4292,
      "became": 4293,
      "immedi": 4294,
      "uting": 4295,
      "97": 4296,
      "92": 4297,
      "participate": 4298,
      "assumed": 4299,
      "heal": 4300,
      "trau": 4301,
      "viol": 4302,
      "loo": 4303,
      "tree": 4304,
      "gar": 4305,
      "referred": 4306,
      "nearly": 4307,
      "reliable": 4308,
      "occurrence": 4309,
      "improving": 4310,
      "representative": 4311,
      "associations": 4312,
      "ycin": 4313,
      "preg": 4314,
      "03": 4315,
      "pregnant": 4316,
      "circum": 4317,
      "arged": 4318,
      "blue": 4319,
      "went": 4320,
      "apo": 4321,
      "93": 4322,
      "0000": 4323,
      "compliance": 4324,
      "mone": 4325,
      "heat": 4326,
      "csf": 4327,
      "zi": 4328,
      "contributed": 4329,
      "''": 4330,
      "angiotensin": 4331,
      "serve": 4332,
      "modul": 4333,
      "machine": 4334,
      "coordin": 4335,
      "spir": 4336,
      "smart": 4337,
      "exhibited": 4338,
      "trop": 4339,
      "placement": 4340,
      "signals": 4341,
      "guidance": 4342,
      "plot": 4343,
      "consensus": 4344,
      "colleagues": 4345,
      "pigs": 4346,
      "atin": 4347,
      "prolonged": 4348,
      "minutes": 4349,
      "clar": 4350,
      "iden": 4351,
      "rank": 4352,
      "missing": 4353,
      "histor": 4354,
      "mature": 4355,
      "immediately": 4356,
      "suppression": 4357,
      "vig": 4358,
      "coagulation": 4359,
      "migration": 4360,
      "ship": 4361,
      "adheren": 4362,
      "www": 4363,
      "preparation": 4364,
      "vital": 4365,
      "intub": 4366,
      "discre": 4367,
      "liqu": 4368,
      "105": 4369,
      "igm": 4370,
      "situations": 4371,
      "feedback": 4372,
      "tam": 4373,
      "japan": 4374,
      "trauma": 4375,
      "appendix": 4376,
      "platforms": 4377,
      "colo": 4378,
      "ged": 4379,
      "largest": 4380,
      "ultr": 4381,
      "standards": 4382,
      "front": 4383,
      "define": 4384,
      "neon": 4385,
      "encephal": 4386,
      "arti": 4387,
      "potent": 4388,
      "trade": 4389,
      "medication": 4390,
      "h1n1": 4391,
      "july": 4392,
      "stimulation": 4393,
      "competi": 4394,
      "primer": 4395,
      "kinase": 4396,
      "north": 4397,
      "predictive": 4398,
      "pla": 4399,
      "apparent": 4400,
      "temporal": 4401,
      "predominant": 4402,
      "implications": 4403,
      "spo": 4404,
      "interferon": 4405,
      "coupl": 4406,
      "nes": 4407,
      "besides": 4408,
      "scenarios": 4409,
      "complexes": 4410,
      "contained": 4411,
      "lys": 4412,
      "african": 4413,
      "sar": 4414,
      "p2": 4415,
      "ient": 4416,
      "item": 4417,
      "upreg": 4418,
      "vor": 4419,
      "loy": 4420,
      "dar": 4421,
      "economy": 4422,
      "importantly": 4423,
      "explored": 4424,
      "staining": 4425,
      "consists": 4426,
      "uv": 4427,
      "aves": 4428,
      "discrim": 4429,
      "ching": 4430,
      "fluorescence": 4431,
      "hemat": 4432,
      "similarity": 4433,
      "decline": 4434,
      "membranes": 4435,
      "stop": 4436,
      "explor": 4437,
      "enable": 4438,
      "partners": 4439,
      "gli": 4440,
      "sharing": 4441,
      "utilized": 4442,
      "virul": 4443,
      "validated": 4444,
      "plates": 4445,
      "astic": 4446,
      "substrate": 4447,
      "consideration": 4448,
      "ungen": 4449,
      "preced": 4450,
      "construction": 4451,
      "1999": 4452,
      "penia": 4453,
      "train": 4454,
      "genic": 4455,
      "presenting": 4456,
      "sera": 4457,
      "extra": 4458,
      "tempor": 4459,
      "written": 4460,
      "assigned": 4461,
      "washed": 4462,
      "recruitment": 4463,
      "paralle": 4464,
      "gap": 4465,
      "coefficient": 4466,
      "gm": 4467,
      "companies": 4468,
      "ili": 4469,
      "locations": 4470,
      "dissemin": 4471,
      "pathology": 4472,
      "conclusions": 4473,
      "maintained": 4474,
      "sensor": 4475,
      "ubi": 4476,
      "91": 4477,
      "autophag": 4478,
      "surge": 4479,
      "analyze": 4480,
      "compart": 4481,
      "nan": 4482,
      "stored": 4483,
      "younger": 4484,
      "females": 4485,
      "barriers": 4486,
      "preven": 4487,
      "fc": 4488,
      "variance": 4489,
      "publication": 4490,
      "interpretation": 4491,
      "cumulative": 4492,
      "radiation": 4493,
      "electronic": 4494,
      "accoun": 4495,
      "psycho": 4496,
      "rnas": 4497,
      "thern": 4498,
      "cytoplas": 4499,
      "males": 4500,
      "algorithms": 4501,
      "supernat": 4502,
      "east": 4503,
      "sigma": 4504,
      "perception": 4505,
      "depends": 4506,
      "indicators": 4507,
      "satisfaction": 4508,
      "hla": 4509,
      "mand": 4510,
      "writing": 4511,
      "flo": 4512,
      "tice": 4513,
      "notably": 4514,
      "icht": 4515,
      "released": 4516,
      "corre": 4517,
      "ferences": 4518,
      "kr": 4519,
      "fications": 4520,
      "donor": 4521,
      "washing": 4522,
      "polar": 4523,
      "len": 4524,
      "capable": 4525,
      "immunization": 4526,
      "chosen": 4527,
      "ovirus": 4528,
      "unclear": 4529,
      "vero": 4530,
      "sche": 4531,
      "jus": 4532,
      "strict": 4533,
      "band": 4534,
      "oxide": 4535,
      "adoles": 4536,
      "contribution": 4537,
      "hygi": 4538,
      "uptake": 4539,
      "infras": 4540,
      "namely": 4541,
      "zero": 4542,
      "challenging": 4543,
      "differentiation": 4544,
      "personnel": 4545,
      "swabs": 4546,
      "thermo": 4547,
      "highlighted": 4548,
      "emergence": 4549,
      "jud": 4550,
      "logic": 4551,
      "trends": 4552,
      "approval": 4553,
      "sha": 4554,
      "pneumo": 4555,
      "kal": 4556,
      "positively": 4557,
      "cit": 4558,
      "regim": 4559,
      "becomes": 4560,
      "110": 4561,
      "interact": 4562,
      "adju": 4563,
      "directed": 4564,
      "dn": 4565,
      "chrom": 4566,
      "univers": 4567,
      "otherwise": 4568,
      "advantages": 4569,
      "sl": 4570,
      "restricted": 4571,
      "bola": 4572,
      "computed": 4573,
      "zer": 4574,
      "yield": 4575,
      "kill": 4576,
      "harm": 4577,
      "assembly": 4578,
      "2d": 4579,
      "oh": 4580,
      "101101": 4581,
      "infrastru": 4582,
      "effort": 4583,
      "capital": 4584,
      "neutrophils": 4585,
      "bb": 4586,
      "ubiqu": 4587,
      "preser": 4588,
      "lytic": 4589,
      "inhibitory": 4590,
      "solute": 4591,
      "barrier": 4592,
      "span": 4593,
      "word": 4594,
      "ultim": 4595,
      "ises": 4596,
      "crp": 4597,
      "sac": 4598,
      "simulations": 4599,
      "windo": 4600,
      "file": 4601,
      "tag": 4602,
      "tuber": 4603,
      "onco": 4604,
      "ert": 4605,
      "collect": 4606,
      "differ": 4607,
      "vectors": 4608,
      "ebola": 4609,
      "o2": 4610,
      "vity": 4611,
      "candidate": 4612,
      "quickly": 4613,
      "ek": 4614,
      "transi": 4615,
      "wang": 4616,
      "options": 4617,
      "logistic": 4618,
      "stake": 4619,
      "cessive": 4620,
      "company": 4621,
      "nine": 4622,
      "mutant": 4623,
      "braz": 4624,
      "hic": 4625,
      "multiv": 4626,
      "usual": 4627,
      "preventing": 4628,
      "enab": 4629,
      "west": 4630,
      "involves": 4631,
      "dry": 4632,
      "takes": 4633,
      "integration": 4634,
      "3b": 4635,
      "standardi": 4636,
      "neurological": 4637,
      "province": 4638,
      "cape": 4639,
      "httpsdoiorg101101": 4640,
      "zik": 4641,
      "rats": 4642,
      "circulating": 4643,
      "extract": 4644,
      "elig": 4645,
      "platelet": 4646,
      "transplantation": 4647,
      "usage": 4648,
      "tai": 4649,
      "ford": 4650,
      "idi": 4651,
      "surfaces": 4652,
      "ley": 4653,
      "laborator": 4654,
      "lact": 4655,
      "nps": 4656,
      "constructed": 4657,
      "purch": 4658,
      "sect": 4659,
      "dl": 4660,
      "rm": 4661,
      "ads": 4662,
      "emerged": 4663,
      "mind": 4664,
      "fragment": 4665,
      "behavioral": 4666,
      "rium": 4667,
      "pathological": 4668,
      "multivari": 4669,
      "heterogeneity": 4670,
      "farm": 4671,
      "centrif": 4672,
      "cns": 4673,
      "cytosis": 4674,
      "labeled": 4675,
      "sf": 4676,
      "lax": 4677,
      "manifestations": 4678,
      "discovery": 4679,
      "acceler": 4680,
      "morpho": 4681,
      "experts": 4682,
      "stated": 4683,
      "ident": 4684,
      "cmv": 4685,
      "chap": 4686,
      "t1": 4687,
      "governments": 4688,
      "pedv": 4689,
      "ologists": 4690,
      "yes": 4691,
      "haz": 4692,
      "thelium": 4693,
      "atal": 4694,
      "preventive": 4695,
      "coster": 4696,
      "gut": 4697,
      "lowest": 4698,
      "donors": 4699,
      "probe": 4700,
      "computer": 4701,
      "06": 4702,
      "1c": 4703,
      "fibrosis": 4704,
      "n2": 4705,
      "electron": 4706,
      "methodology": 4707,
      "took": 4708,
      "trigger": 4709,
      "traff": 4710,
      "brazil": 4711,
      "gastrointestinal": 4712,
      "absolute": 4713,
      "fram": 4714,
      "correl": 4715,
      "crystal": 4716,
      "aceu": 4717,
      "drop": 4718,
      "interviews": 4719,
      "asia": 4720,
      "ched": 4721,
      "resilience": 4722,
      "iq": 4723,
      "attributed": 4724,
      "synthetic": 4725,
      "guide": 4726,
      "ogenic": 4727,
      "express": 4728,
      "round": 4729,
      "zh": 4730,
      "corticoster": 4731,
      "assume": 4732,
      "listed": 4733,
      "changing": 4734,
      "106": 4735,
      "displayed": 4736,
      "werden": 4737,
      "easy": 4738,
      "embed": 4739,
      "metr": 4740,
      "adherence": 4741,
      "oil": 4742,
      "ole": 4743,
      "stabil": 4744,
      "ires": 4745,
      "option": 4746,
      "adic": 4747,
      "infer": 4748,
      "traffic": 4749,
      "intervals": 4750,
      "otherapy": 4751,
      "chy": 4752,
      "kind": 4753,
      "hcws": 4754,
      "accumulation": 4755,
      "itec": 4756,
      "mgkg": 4757,
      "citi": 4758,
      "yle": 4759,
      "exchange": 4760,
      "fatal": 4761,
      "rem": 4762,
      "medications": 4763,
      "104": 4764,
      "sometimes": 4765,
      "deliver": 4766,
      "characteristic": 4767,
      "obvious": 4768,
      "metabolism": 4769,
      "hts": 4770,
      "positions": 4771,
      "tasks": 4772,
      "milk": 4773,
      "programm": 4774,
      "believe": 4775,
      "vac": 4776,
      "prognosis": 4777,
      "facility": 4778,
      "affecting": 4779,
      "operating": 4780,
      "malign": 4781,
      "wr": 4782,
      "plants": 4783,
      "dysp": 4784,
      "onin": 4785,
      "biop": 4786,
      "ribo": 4787,
      "practical": 4788,
      "column": 4789,
      "organs": 4790,
      "ico": 4791,
      "tope": 4792,
      "defec": 4793,
      "laboratories": 4794,
      "variability": 4795,
      "extremely": 4796,
      "addressed": 4797,
      "kets": 4798,
      "isch": 4799,
      "route": 4800,
      "producing": 4801,
      "mixture": 4802,
      "productive": 4803,
      "myco": 4804,
      "ron": 4805,
      "fewer": 4806,
      "concerning": 4807,
      "smoking": 4808,
      "cox": 4809,
      "consum": 4810,
      "affects": 4811,
      "une": 4812,
      "glob": 4813,
      "fp": 4814,
      "secretion": 4815,
      "sv": 4816,
      "dental": 4817,
      "tubercul": 4818,
      "independently": 4819,
      "occurring": 4820,
      "fying": 4821,
      "een": 4822,
      "architec": 4823,
      "cold": 4824,
      "malaria": 4825,
      "coagul": 4826,
      "transferred": 4827,
      "1998": 4828,
      "103": 4829,
      "4a": 4830,
      "idae": 4831,
      "pharmaceu": 4832,
      "limitation": 4833,
      "phenotype": 4834,
      "07": 4835,
      "mam": 4836,
      "opin": 4837,
      "glycoprotein": 4838,
      "m2": 4839,
      "spreading": 4840,
      "twice": 4841,
      "hf": 4842,
      "ech": 4843,
      "answer": 4844,
      "ilib": 4845,
      "vors": 4846,
      "complexity": 4847,
      "joint": 4848,
      "mobil": 4849,
      "pread": 4850,
      "p3": 4851,
      "urgent": 4852,
      "telemedicine": 4853,
      "gold": 4854,
      "wides": 4855,
      "deviation": 4856,
      "authorities": 4857,
      "parallel": 4858,
      "inhibited": 4859,
      "delayed": 4860,
      "ny": 4861,
      "fract": 4862,
      "estimation": 4863,
      "zone": 4864,
      "pit": 4865,
      "analysed": 4866,
      "reduces": 4867,
      "precise": 4868,
      "widespread": 4869,
      "hosts": 4870,
      "respond": 4871,
      "clearance": 4872,
      "matter": 4873,
      "varying": 4874,
      "_1": 4875,
      "ptive": 4876,
      "exec": 4877,
      "funda": 4878,
      "lan": 4879,
      "cdna": 4880,
      "places": 4881,
      "sich": 4882,
      "400": 4883,
      "droplets": 4884,
      "nac": 4885,
      "environments": 4886,
      "surpr": 4887,
      "intravenous": 4888,
      "influenced": 4889,
      "inhal": 4890,
      "tracing": 4891,
      "nanoparticles": 4892,
      "b1": 4893,
      "persistent": 4894,
      "liquid": 4895,
      "prospective": 4896,
      "employees": 4897,
      "apply": 4898,
      "hygiene": 4899,
      "placebo": 4900,
      "stood": 4901,
      "retr": 4902,
      "initiation": 4903,
      "nasopharyngeal": 4904,
      "lm": 4905,
      "channel": 4906,
      "ache": 4907,
      "eo": 4908,
      "neural": 4909,
      "negatively": 4910,
      "teachers": 4911,
      "adapted": 4912,
      "hg": 4913,
      "anger": 4914,
      "bats": 4915,
      "newly": 4916,
      "limits": 4917,
      "microbio": 4918,
      "came": 4919,
      "belief": 4920,
      "hour": 4921,
      "treating": 4922,
      "color": 4923,
      "conform": 4924,
      "cathe": 4925,
      "book": 4926,
      "quite": 4927,
      "tm": 4928,
      "ives": 4929,
      "ergic": 4930,
      "caregi": 4931,
      "trip": 4932,
      "altered": 4933,
      "legal": 4934,
      "odds": 4935,
      "increasingly": 4936,
      "sizes": 4937,
      "haps": 4938,
      "cultured": 4939,
      "sciences": 4940,
      "diame": 4941,
      "immediate": 4942,
      "amide": 4943,
      "expan": 4944,
      "ku": 4945,
      "globul": 4946,
      "amoun": 4947,
      "vast": 4948,
      "chic": 4949,
      "ever": 4950,
      "ago": 4951,
      "regardless": 4952,
      "_i": 4953,
      "centrifug": 4954,
      "decreases": 4955,
      "residue": 4956,
      "factory": 4957,
      "proven": 4958,
      "leuko": 4959,
      "saliv": 4960,
      "comparisons": 4961,
      "sensors": 4962,
      "nutrition": 4963,
      "removal": 4964,
      "papers": 4965,
      "vesic": 4966,
      "copd": 4967,
      "cade": 4968,
      "survivors": 4969,
      "journal": 4970,
      "progressive": 4971,
      "sou": 4972,
      "reviews": 4973,
      "ya": 4974,
      "empirical": 4975,
      "perhaps": 4976,
      "rn": 4977,
      "infrastructure": 4978,
      "vessel": 4979,
      "ji": 4980,
      "conflict": 4981,
      "composed": 4982,
      "entero": 4983,
      "considerable": 4984,
      "elic": 4985,
      "centre": 4986,
      "physician": 4987,
      "titer": 4988,
      "fati": 4989,
      "think": 4990,
      "spac": 4991,
      "plastic": 4992,
      "profiles": 4993,
      "lymph": 4994,
      "performing": 4995,
      "blin": 4996,
      "discuss": 4997,
      "summarized": 4998,
      "equilib": 4999,
      "coccus": 5000,
      "variations": 5001,
      "transmitted": 5002,
      "rules": 5003,
      "epidemics": 5004,
      "293": 5005,
      "theoretical": 5006,
      "ging": 5007,
      "graphical": 5008,
      "deng": 5009,
      "aki": 5010,
      "autom": 5011,
      "selective": 5012,
      "encoding": 5013,
      "goals": 5014,
      "maternal": 5015,
      "ophil": 5016,
      "worsen": 5017,
      "ibv": 5018,
      "copies": 5019,
      "eds": 5020,
      "insulin": 5021,
      "hz": 5022,
      "observe": 5023,
      "loaded": 5024,
      "loid": 5025,
      "equivalent": 5026,
      "morph": 5027,
      "ea": 5028,
      "collaboration": 5029,
      "arri": 5030,
      "docking": 5031,
      "lc": 5032,
      "monoclonal": 5033,
      "itin": 5034,
      "candidates": 5035,
      "globally": 5036,
      "thanol": 5037,
      "dom": 5038,
      "magnit": 5039,
      "manage": 5040,
      "poss": 5041,
      "oxidative": 5042,
      "representation": 5043,
      "tory": 5044,
      "varied": 5045,
      "willing": 5046,
      "processed": 5047,
      "http": 5048,
      "mathem": 5049,
      "depth": 5050,
      "aired": 5051,
      "maintaining": 5052,
      "nea": 5053,
      "offe": 5054,
      "understood": 5055,
      "fab": 5056,
      "lost": 5057,
      "neo": 5058,
      "ln": 5059,
      "closure": 5060,
      "fortun": 5061,
      "epitope": 5062,
      "exo": 5063,
      "dex": 5064,
      "ank": 5065,
      "storm": 5066,
      "detectable": 5067,
      "diluted": 5068,
      "remark": 5069,
      "resh": 5070,
      "ony": 5071,
      "valuable": 5072,
      "lymphocyte": 5073,
      "tmp": 5074,
      "exhibit": 5075,
      "1997": 5076,
      "promoting": 5077,
      "square": 5078,
      "pin": 5079,
      "circumst": 5080,
      "ske": 5081,
      "shape": 5082,
      "myocardial": 5083,
      "scopic": 5084,
      "identical": 5085,
      "aer": 5086,
      "rss": 5087,
      "intermediate": 5088,
      "assessing": 5089,
      "perme": 5090,
      "deploy": 5091,
      "embr": 5092,
      "forming": 5093,
      "rule": 5094,
      "4c": 5095,
      "exts": 5096,
      "orter": 5097,
      "spectro": 5098,
      "simultaneously": 5099,
      "glass": 5100,
      "vehic": 5101,
      "insights": 5102,
      "mell": 5103,
      "axis": 5104,
      "deple": 5105,
      "instructions": 5106,
      "transfected": 5107,
      "psin": 5108,
      "possess": 5109,
      "holders": 5110,
      "agric": 5111,
      "5a": 5112,
      "qpcr": 5113,
      "administr": 5114,
      "mainten": 5115,
      "chro": 5116,
      "activate": 5117,
      "eye": 5118,
      "expon": 5119,
      "bud": 5120,
      "france": 5121,
      "epis": 5122,
      "tuberculosis": 5123,
      "dimensional": 5124,
      "coron": 5125,
      "worth": 5126,
      "seasonal": 5127,
      "igen": 5128,
      "born": 5129,
      "neighbor": 5130,
      "contag": 5131,
      "library": 5132,
      "prelimin": 5133,
      "rr": 5134,
      "arab": 5135,
      "pairs": 5136,
      "strati": 5137,
      "controlling": 5138,
      "impaired": 5139,
      "subset": 5140,
      "laxis": 5141,
      "dilution": 5142,
      "109": 5143,
      "comfor": 5144,
      "fungal": 5145,
      "reads": 5146,
      "rever": 5147,
      "reliability": 5148,
      "amounts": 5149,
      "depres": 5150,
      "ento": 5151,
      "ell": 5152,
      "tube": 5153,
      "propag": 5154,
      "confo": 5155,
      "raw": 5156,
      "fatigue": 5157,
      "korea": 5158,
      "interface": 5159,
      "iga": 5160,
      "sodium": 5161,
      "subunit": 5162,
      "away": 5163,
      "idea": 5164,
      "glycan": 5165,
      "extracellular": 5166,
      "dd": 5167,
      "unte": 5168,
      "maintenance": 5169,
      "cg": 5170,
      "102": 5171,
      "asian": 5172,
      "element": 5173,
      "dram": 5174,
      "tember": 5175,
      "qi": 5176,
      "surveys": 5177,
      "fisher": 5178,
      "h2": 5179,
      "habit": 5180,
      "minimize": 5181,
      "phylogenetic": 5182,
      "promp": 5183,
      "investigations": 5184,
      "purposes": 5185,
      "protected": 5186,
      "works": 5187,
      "kon": 5188,
      "rat": 5189,
      "112": 5190,
      "cutaneous": 5191,
      "monocytes": 5192,
      "cine": 5193,
      "unable": 5194,
      "calves": 5195,
      "matched": 5196,
      "proof": 5197,
      "decreasing": 5198,
      "briefly": 5199,
      "compati": 5200,
      "impo": 5201,
      "h5": 5202,
      "build": 5203,
      "randomly": 5204,
      "fda": 5205,
      "america": 5206,
      "ested": 5207,
      "documents": 5208,
      "adapt": 5209,
      "obstru": 5210,
      "reading": 5211,
      "tables": 5212,
      "ultras": 5213,
      "orted": 5214,
      "sessions": 5215,
      "annot": 5216,
      "nach": 5217,
      "hemor": 5218,
      "ighting": 5219,
      "whom": 5220,
      "hp": 5221,
      "sem": 5222,
      "september": 5223,
      "shi": 5224,
      "price": 5225,
      "anticip": 5226,
      "custo": 5227,
      "nels": 5228,
      "rho": 5229,
      "college": 5230,
      "limiting": 5231,
      "delivered": 5232,
      "border": 5233,
      "nar": 5234,
      "induces": 5235,
      "mitochondrial": 5236,
      "outpatient": 5237,
      "plo": 5238,
      "cycles": 5239,
      "canada": 5240,
      "rus": 5241,
      "expansion": 5242,
      "accordance": 5243,
      "auch": 5244,
      "scales": 5245,
      "abnormalities": 5246,
      "recipients": 5247,
      "ultimately": 5248,
      "teams": 5249,
      "weekly": 5250,
      "errors": 5251,
      "exists": 5252,
      "pollution": 5253,
      "einer": 5254,
      "hier": 5255,
      "aspir": 5256,
      "hepat": 5257,
      "3c": 5258,
      "inside": 5259,
      "chains": 5260,
      "veter": 5261,
      "underwent": 5262,
      "objectives": 5263,
      "fv": 5264,
      "dengue": 5265,
      "mab": 5266,
      "makers": 5267,
      "volunte": 5268,
      "principles": 5269,
      "250": 5270,
      "phenomenon": 5271,
      "synthesized": 5272,
      "consequence": 5273,
      "preliminary": 5274,
      "representing": 5275,
      "magnitude": 5276,
      "nl": 5277,
      "declared": 5278,
      "phosphorylation": 5279,
      "bovine": 5280,
      "bran": 5281,
      "rely": 5282,
      "storage": 5283,
      "chron": 5284,
      "accep": 5285,
      "illin": 5286,
      "vice": 5287,
      "unter": 5288,
      "una": 5289,
      "alysis": 5290,
      "cia": 5291,
      "evaluating": 5292,
      "exclusion": 5293,
      "enrolled": 5294,
      "evident": 5295,
      "intubation": 5296,
      "doctors": 5297,
      "annual": 5298,
      "viridae": 5299,
      "107": 5300,
      "structured": 5301,
      "velope": 5302,
      "sustainable": 5303,
      "foreign": 5304,
      "sr": 5305,
      "zoono": 5306,
      "chol": 5307,
      "infectivity": 5308,
      "cers": 5309,
      "1990": 5310,
      "envelope": 5311,
      "iqr": 5312,
      "hemorrh": 5313,
      "difficulties": 5314,
      "coping": 5315,
      "spain": 5316,
      "itary": 5317,
      "fru": 5318,
      "retrie": 5319,
      "biomarkers": 5320,
      "scr": 5321,
      "depic": 5322,
      "priority": 5323,
      "wered": 5324,
      "cision": 5325,
      "accordingly": 5326,
      "isolate": 5327,
      "supplemental": 5328,
      "record": 5329,
      "submitted": 5330,
      "herpes": 5331,
      "soluble": 5332,
      "learn": 5333,
      "diameter": 5334,
      "rhe": 5335,
      "binds": 5336,
      "dest": 5337,
      "frac": 5338,
      "remdes": 5339,
      "operations": 5340,
      "sud": 5341,
      "hsv": 5342,
      "aden": 5343,
      "strepto": 5344,
      "feeding": 5345,
      "layers": 5346,
      "race": 5347,
      "disaster": 5348,
      "provision": 5349,
      "decades": 5350,
      "phosphate": 5351,
      "aver": 5352,
      "highlight": 5353,
      "fields": 5354,
      "observational": 5355,
      "monito": 5356,
      "gradu": 5357,
      "autophagy": 5358,
      "tmprss": 5359,
      "involve": 5360,
      "dramatic": 5361,
      "predictions": 5362,
      "distric": 5363,
      "australia": 5364,
      "neutralization": 5365,
      "lamp": 5366,
      "explic": 5367,
      "adhes": 5368,
      "wat": 5369,
      "rid": 5370,
      "remdesivir": 5371,
      "english": 5372,
      "built": 5373,
      "exception": 5374,
      "ante": 5375,
      "partially": 5376,
      "reproduction": 5377,
      "excell": 5378,
      "edema": 5379,
      "august": 5380,
      "monitored": 5381,
      "said": 5382,
      "hed": 5383,
      "preca": 5384,
      "urally": 5385,
      "felt": 5386,
      "dimensions": 5387,
      "ctive": 5388,
      "initiated": 5389,
      "modification": 5390,
      "circumstances": 5391,
      "conven": 5392,
      "carc": 5393,
      "determining": 5394,
      "mucosal": 5395,
      "metal": 5396,
      "forced": 5397,
      "pase": 5398,
      "fatality": 5399,
      "iar": 5400,
      "bis": 5401,
      "bond": 5402,
      "worse": 5403,
      "arterial": 5404,
      "2c": 5405,
      "hong": 5406,
      "abdomin": 5407,
      "gamma": 5408,
      "lv": 5409,
      "stimulated": 5410,
      "overcome": 5411,
      "clon": 5412,
      "transfusion": 5413,
      "chemis": 5414,
      "meeting": 5415,
      "surprising": 5416,
      "supports": 5417,
      "ranged": 5418,
      "practition": 5419,
      "hydroxychloroquine": 5420,
      "tures": 5421,
      "tourism": 5422,
      "avian": 5423,
      "umatic": 5424,
      "computational": 5425,
      "assumption": 5426,
      "reh": 5427,
      "ratios": 5428,
      "households": 5429,
      "trajec": 5430,
      "unlike": 5431,
      "mhc": 5432,
      "bmi": 5433,
      "terr": 5434,
      "excess": 5435,
      "ined": 5436,
      "fh": 5437,
      "validity": 5438,
      "108": 5439,
      "topics": 5440,
      "gfp": 5441,
      "pel": 5442,
      "s3": 5443,
      "mye": 5444,
      "scheme": 5445,
      "industrial": 5446,
      "lum": 5447,
      "acknow": 5448,
      "117": 5449,
      "pneumoniae": 5450,
      "gradi": 5451,
      "rein": 5452,
      "tumors": 5453,
      "secu": 5454,
      "fundamental": 5455,
      "vil": 5456,
      "universal": 5457,
      "markets": 5458,
      "recruited": 5459,
      "pancre": 5460,
      "optimization": 5461,
      "generating": 5462,
      "hydropho": 5463,
      "conversion": 5464,
      "fluor": 5465,
      "zens": 5466,
      "rhino": 5467,
      "1996": 5468,
      "wearing": 5469,
      "declin": 5470,
      "vance": 5471,
      "rdr": 5472,
      "mammal": 5473,
      "regulate": 5474,
      "covered": 5475,
      "t2": 5476,
      "abdominal": 5477,
      "dra": 5478,
      "popular": 5479,
      "look": 5480,
      "1995": 5481,
      "prioriti": 5482,
      "acet": 5483,
      "meter": 5484,
      "pus": 5485,
      "attitudes": 5486,
      "former": 5487,
      "downstream": 5488,
      "mri": 5489,
      "stained": 5490,
      "antagon": 5491,
      "conceptual": 5492,
      "fortunately": 5493,
      "preferred": 5494,
      "escent": 5495,
      "ventric": 5496,
      "relevance": 5497,
      "standardized": 5498,
      "entre": 5499,
      "microscopy": 5500,
      "necrosis": 5501,
      "else": 5502,
      "modern": 5503,
      "manag": 5504,
      "existence": 5505,
      "hepatic": 5506,
      "ov": 5507,
      "reasonable": 5508,
      "tile": 5509,
      "cents": 5510,
      "tac": 5511,
      "ow": 5512,
      "restriction": 5513,
      "apart": 5514,
      "1h": 5515,
      "innovation": 5516,
      "acquis": 5517,
      "page": 5518,
      "covari": 5519,
      "appearance": 5520,
      "publications": 5521,
      "fair": 5522,
      "sexual": 5523,
      "longit": 5524,
      "rp": 5525,
      "comparative": 5526,
      "correlations": 5527,
      "durch": 5528,
      "advance": 5529,
      "unced": 5530,
      "indicator": 5531,
      "fresh": 5532,
      "plans": 5533,
      "jac": 5534,
      "abstr": 5535,
      "applying": 5536,
      "autoimmune": 5537,
      "phases": 5538,
      "mhv": 5539,
      "arth": 5540,
      "circulation": 5541,
      "fetal": 5542,
      "concluded": 5543,
      "dos": 5544,
      "shedding": 5545,
      "kb": 5546,
      "alb": 5547,
      "reactivity": 5548,
      "static": 5549,
      "122": 5550,
      "format": 5551,
      "projects": 5552,
      "metast": 5553,
      "actually": 5554,
      "manufacturer": 5555,
      "eded": 5556,
      "intended": 5557,
      "instrument": 5558,
      "neurons": 5559,
      "began": 5560,
      "130": 5561,
      "stakeholders": 5562,
      "viro": 5563,
      "name": 5564,
      "intake": 5565,
      "adding": 5566,
      "anesthe": 5567,
      "automatic": 5568,
      "thrombosis": 5569,
      "bilateral": 5570,
      "complicated": 5571,
      "retain": 5572,
      "ule": 5573,
      "echo": 5574,
      "glycosy": 5575,
      "rooms": 5576,
      "soft": 5577,
      "pandemics": 5578,
      "explicit": 5579,
      "rational": 5580,
      "cast": 5581,
      "screened": 5582,
      "databases": 5583,
      "native": 5584,
      "failed": 5585,
      "pharmaceutical": 5586,
      "description": 5587,
      "curves": 5588,
      "aspect": 5589,
      "station": 5590,
      "compromised": 5591,
      "clustering": 5592,
      "calculate": 5593,
      "bring": 5594,
      "hope": 5595,
      "phi": 5596,
      "apse": 5597,
      "insur": 5598,
      "speak": 5599,
      "berg": 5600,
      "predictors": 5601,
      "gy": 5602,
      "ished": 5603,
      "raised": 5604,
      "nove": 5605,
      "knock": 5606,
      "rehabil": 5607,
      "dered": 5608,
      "f1": 5609,
      "blocking": 5610,
      "ou": 5611,
      "template": 5612,
      "interests": 5613,
      "diffusion": 5614,
      "modifications": 5615,
      "adily": 5616,
      "engage": 5617,
      "odes": 5618,
      "propose": 5619,
      "consisten": 5620,
      "bay": 5621,
      "pb": 5622,
      "posing": 5623,
      "compens": 5624,
      "requirement": 5625,
      "excessive": 5626,
      "4b": 5627,
      "recognize": 5628,
      "lag": 5629,
      "endemic": 5630,
      "registered": 5631,
      "entially": 5632,
      "coronary": 5633,
      "apped": 5634,
      "sea": 5635,
      "ration": 5636,
      "prophylaxis": 5637,
      "disciplinary": 5638,
      "connection": 5639,
      "privacy": 5640,
      "creating": 5641,
      "adaptation": 5642,
      "mim": 5643,
      "accessible": 5644,
      "immunosuppres": 5645,
      "simply": 5646,
      "ritis": 5647,
      "udi": 5648,
      "boost": 5649,
      "bel": 5650,
      "difficulty": 5651,
      "kong": 5652,
      "investment": 5653,
      "ork": 5654,
      "lects": 5655,
      "bral": 5656,
      "suic": 5657,
      "expert": 5658,
      "140": 5659,
      "adolescents": 5660,
      "rf": 5661,
      "octo": 5662,
      "chemistry": 5663,
      "disruption": 5664,
      "impairment": 5665,
      "noise": 5666,
      "stranded": 5667,
      "quad": 5668,
      "123": 5669,
      "dead": 5670,
      "offered": 5671,
      "breathing": 5672,
      "dt": 5673,
      "psychiatric": 5674,
      "motor": 5675,
      "coupled": 5676,
      "blot": 5677,
      "distributions": 5678,
      "helpful": 5679,
      "tmprss2": 5680,
      "transportation": 5681,
      "uniform": 5682,
      "voir": 5683,
      "chemotherapy": 5684,
      "epidemiology": 5685,
      "classical": 5686,
      "scar": 5687,
      "named": 5688,
      "sectional": 5689,
      "hbv": 5690,
      "principle": 5691,
      "substantially": 5692,
      "disper": 5693,
      "ligands": 5694,
      "neither": 5695,
      "codon": 5696,
      "oflu": 5697,
      "alignment": 5698,
      "prevalent": 5699,
      "fourth": 5700,
      "dend": 5701,
      "graphs": 5702,
      "_2": 5703,
      "timely": 5704,
      "label": 5705,
      "m1": 5706,
      "codes": 5707,
      "november": 5708,
      "netic": 5709,
      "infusion": 5710,
      "conval": 5711,
      "surrounding": 5712,
      "sirna": 5713,
      "session": 5714,
      "assessments": 5715,
      "acquisition": 5716,
      "measuring": 5717,
      "efficiently": 5718,
      "resis": 5719,
      "sie": 5720,
      "held": 5721,
      "ifit": 5722,
      "inhibits": 5723,
      "k1": 5724,
      "consecu": 5725,
      "terol": 5726,
      "longitud": 5727,
      "superi": 5728,
      "frames": 5729,
      "ecmo": 5730,
      "october": 5731,
      "charge": 5732,
      "llig": 5733,
      "aids": 5734,
      "pooled": 5735,
      "promin": 5736,
      "epithelium": 5737,
      "choles": 5738,
      "115": 5739,
      "fragments": 5740,
      "opening": 5741,
      "eventually": 5742,
      "detecting": 5743,
      "positivity": 5744,
      "regulations": 5745,
      "motif": 5746,
      "inhibiting": 5747,
      "frequencies": 5748,
      "rated": 5749,
      "window": 5750,
      "discovered": 5751,
      "telehealth": 5752,
      "contributing": 5753,
      "dated": 5754,
      "insufficient": 5755,
      "deterior": 5756,
      "h3": 5757,
      "county": 5758,
      "lyso": 5759,
      "intention": 5760,
      "insurance": 5761,
      "ky": 5762,
      "carcino": 5763,
      "hybrid": 5764,
      "retur": 5765,
      "murine": 5766,
      "diver": 5767,
      "virulence": 5768,
      "subjected": 5769,
      "inactivated": 5770,
      "hcq": 5771,
      "infiltr": 5772,
      "undergo": 5773,
      "office": 5774,
      "channels": 5775,
      "relig": 5776,
      "hyth": 5777,
      "localization": 5778,
      "het": 5779,
      "oder": 5780,
      "endogenous": 5781,
      "normally": 5782,
      "citizens": 5783,
      "vr": 5784,
      "timing": 5785,
      "soon": 5786,
      "acceptable": 5787,
      "conjun": 5788,
      "ison": 5789,
      "separated": 5790,
      "mammalian": 5791,
      "consultation": 5792,
      "agencies": 5793,
      "rdrp": 5794,
      "hind": 5795,
      "sectors": 5796,
      "nicht": 5797,
      "genotype": 5798,
      "izumab": 5799,
      "serological": 5800,
      "seq": 5801,
      "biology": 5802,
      "poster": 5803,
      "deb": 5804,
      "geographic": 5805,
      "remove": 5806,
      "pene": 5807,
      "eosin": 5808,
      "cred": 5809,
      "pon": 5810,
      "202": 5811,
      "aure": 5812,
      "consolid": 5813,
      "transformation": 5814,
      "kept": 5815,
      "weighted": 5816,
      "sick": 5817,
      "greatly": 5818,
      "quin": 5819,
      "consisting": 5820,
      "temporary": 5821,
      "phospho": 5822,
      "229": 5823,
      "111": 5824,
      "hap": 5825,
      "severely": 5826,
      "perceptions": 5827,
      "rehabilitation": 5828,
      "agency": 5829,
      "consistently": 5830,
      "ask": 5831,
      "transl": 5832,
      "descriptive": 5833,
      "specified": 5834,
      "vp": 5835,
      "sli": 5836,
      "transcript": 5837,
      "wers": 5838,
      "discharged": 5839,
      "efficients": 5840,
      "carbo": 5841,
      "predominantly": 5842,
      "wil": 5843,
      "coefficients": 5844,
      "acety": 5845,
      "ngml": 5846,
      "fif": 5847,
      "sca": 5848,
      "analytical": 5849,
      "resus": 5850,
      "drom": 5851,
      "overe": 5852,
      "feasible": 5853,
      "c1": 5854,
      "globulin": 5855,
      "planned": 5856,
      "calib": 5857,
      "offers": 5858,
      "consisted": 5859,
      "suspen": 5860,
      "thermal": 5861,
      "expen": 5862,
      "yiel": 5863,
      "ester": 5864,
      "extreme": 5865,
      "illary": 5866,
      "broncho": 5867,
      "spor": 5868,
      "moment": 5869,
      "patho": 5870,
      "utility": 5871,
      "phago": 5872,
      "homes": 5873,
      "managed": 5874,
      "superior": 5875,
      "organic": 5876,
      "audi": 5877,
      "excellent": 5878,
      "icillin": 5879,
      "versely": 5880,
      "relax": 5881,
      "ale": 5882,
      "accepted": 5883,
      "believed": 5884,
      "scientists": 5885,
      "ulo": 5886,
      "applicable": 5887,
      "catalytic": 5888,
      "pended": 5889,
      "hepato": 5890,
      "onucle": 5891,
      "145": 5892,
      "covs": 5893,
      "resid": 5894,
      "aphy": 5895,
      "icated": 5896,
      "say": 5897,
      "adjuvant": 5898,
      "dule": 5899,
      "nia": 5900,
      "constraints": 5901,
      "carcinoma": 5902,
      "eligible": 5903,
      "spaces": 5904,
      "restim": 5905,
      "cord": 5906,
      "cytic": 5907,
      "explanation": 5908,
      "toxin": 5909,
      "prone": 5910,
      "adenovirus": 5911,
      "reservoir": 5912,
      "occas": 5913,
      "aving": 5914,
      "contributes": 5915,
      "seeking": 5916,
      "agreed": 5917,
      "inoculated": 5918,
      "york": 5919,
      "lucid": 5920,
      "hydrophobic": 5921,
      "hepar": 5922,
      "silic": 5923,
      "asts": 5924,
      "concepts": 5925,
      "allo": 5926,
      "herent": 5927,
      "ranges": 5928,
      "yp": 5929,
      "decid": 5930,
      "shar": 5931,
      "italian": 5932,
      "saturation": 5933,
      "shorter": 5934,
      "conjugated": 5935,
      "bilities": 5936,
      "responsibility": 5937,
      "attenuated": 5938,
      "panic": 5939,
      "gather": 5940,
      "saliva": 5941,
      "iss": 5942,
      "pad": 5943,
      "refers": 5944,
      "leadership": 5945,
      "volution": 5946,
      "zhang": 5947,
      "alities": 5948,
      "sput": 5949,
      "evolutionary": 5950,
      "forecas": 5951,
      "idal": 5952,
      "slo": 5953,
      "aureus": 5954,
      "throat": 5955,
      "firms": 5956,
      "normalized": 5957,
      "beds": 5958,
      "pping": 5959,
      "emissions": 5960,
      "architecture": 5961,
      "probes": 5962,
      "116": 5963,
      "nose": 5964,
      "ideal": 5965,
      "ulum": 5966,
      "equilibrium": 5967,
      "calls": 5968,
      "cohorts": 5969,
      "kt": 5970,
      "serial": 5971,
      "crow": 5972,
      "proved": 5973,
      "aign": 5974,
      "ull": 5975,
      "intellig": 5976,
      "37c": 5977,
      "tomo": 5978,
      "moi": 5979,
      "gives": 5980,
      "clinics": 5981,
      "lacking": 5982,
      "dispar": 5983,
      "sind": 5984,
      "adoption": 5985,
      "contributions": 5986,
      "ng": 5987,
      "wear": 5988,
      "embol": 5989,
      "amy": 5990,
      "exclusive": 5991,
      "contaminated": 5992,
      "iger": 5993,
      "elucid": 5994,
      "dual": 5995,
      "longitudinal": 5996,
      "114": 5997,
      "envelop": 5998,
      "dcs": 5999,
      "fluorescent": 6000,
      "campaign": 6001,
      "geographical": 6002,
      "stronger": 6003,
      "semi": 6004,
      "focusing": 6005,
      "artery": 6006,
      "promoter": 6007,
      "socioeconomic": 6008,
      "atical": 6009,
      "l1": 6010,
      "econom": 6011,
      "intersti": 6012,
      "intensi": 6013,
      "separately": 6014,
      "diagnos": 6015,
      "extension": 6016,
      "dv": 6017,
      "participating": 6018,
      "paired": 6019,
      "ifer": 6020,
      "genus": 6021,
      "neonatal": 6022,
      "becoming": 6023,
      "tise": 6024,
      "predictor": 6025,
      "unlikely": 6026,
      "aca": 6027,
      "dency": 6028,
      "bleeding": 6029,
      "litis": 6030,
      "macrophage": 6031,
      "athe": 6032,
      "gence": 6033,
      "consistency": 6034,
      "mening": 6035,
      "fier": 6036,
      "a1": 6037,
      "insight": 6038,
      "spont": 6039,
      "mptions": 6040,
      "recombination": 6041,
      "overex": 6042,
      "improvements": 6043,
      "kd": 6044,
      "vaso": 6045,
      "ulty": 6046,
      "leuk": 6047,
      "fecal": 6048,
      "corticosteroids": 6049,
      "property": 6050,
      "gol": 6051,
      "suffering": 6052,
      "giving": 6053,
      "tan": 6054,
      "precision": 6055,
      "cholesterol": 6056,
      "ncov": 6057,
      "predicting": 6058,
      "amplified": 6059,
      "spp": 6060,
      "polymorph": 6061,
      "mapping": 6062,
      "technological": 6063,
      "wie": 6064,
      "defense": 6065,
      "want": 6066,
      "iron": 6067,
      "sustained": 6068,
      "arrange": 6069,
      "declare": 6070,
      "fre": 6071,
      "supplemented": 6072,
      "ories": 6073,
      "proteases": 6074,
      "128": 6075,
      "absorption": 6076,
      "proinflammatory": 6077,
      "dates": 6078,
      "cn": 6079,
      "diabe": 6080,
      "anno": 6081,
      "clero": 6082,
      "determination": 6083,
      "metrics": 6084,
      "113": 6085,
      "spring": 6086,
      "nerv": 6087,
      "ij": 6088,
      "specimen": 6089,
      "caregivers": 6090,
      "avy": 6091,
      "augment": 6092,
      "gradient": 6093,
      "edge": 6094,
      "violence": 6095,
      "themes": 6096,
      "convalescent": 6097,
      "abundance": 6098,
      "kar": 6099,
      "itions": 6100,
      "smoo": 6101,
      "resolved": 6102,
      "actors": 6103,
      "tem": 6104,
      "attachment": 6105,
      "illustrated": 6106,
      "multivariate": 6107,
      "ctu": 6108,
      "courses": 6109,
      "moving": 6110,
      "warr": 6111,
      "organiz": 6112,
      "automated": 6113,
      "manufacturing": 6114,
      "ethnic": 6115,
      "supernatant": 6116,
      "inducing": 6117,
      "organism": 6118,
      "hex": 6119,
      "mitigate": 6120,
      "thick": 6121,
      "nations": 6122,
      "transfection": 6123,
      "engineering": 6124,
      "za": 6125,
      "kda": 6126,
      "ira": 6127,
      "necessarily": 6128,
      "designated": 6129,
      "anced": 6130,
      "birds": 6131,
      "artificial": 6132,
      "myel": 6133,
      "attempt": 6134,
      "goog": 6135,
      "equations": 6136,
      "unfortunately": 6137,
      "diagnostics": 6138,
      "zoonotic": 6139,
      "deficient": 6140,
      "collec": 6141,
      "assumptions": 6142,
      "dan": 6143,
      "antioxid": 6144,
      "ressed": 6145,
      "umes": 6146,
      "hit": 6147,
      "recover": 6148,
      "organis": 6149,
      "doing": 6150,
      "commission": 6151,
      "keeping": 6152,
      "interpreted": 6153,
      "incorporated": 6154,
      "rarely": 6155,
      "rejec": 6156,
      "demonstrates": 6157,
      "inement": 6158,
      "00001": 6159,
      "uding": 6160,
      "residual": 6161,
      "1994": 6162,
      "derivatives": 6163,
      "bonds": 6164,
      "oste": 6165,
      "hands": 6166,
      "road": 6167,
      "agar": 6168,
      "leukin": 6169,
      "sple": 6170,
      "programme": 6171,
      "drawn": 6172,
      "ocap": 6173,
      "assistance": 6174,
      "tumo": 6175,
      "uries": 6176,
      "experiencing": 6177,
      "accompan": 6178,
      "dimin": 6179,
      "mutants": 6180,
      "homolog": 6181,
      "repeat": 6182,
      "nh": 6183,
      "liness": 6184,
      "departments": 6185,
      "interleukin": 6186,
      "binary": 6187,
      "alterations": 6188,
      "portions": 6189,
      "mathematical": 6190,
      "config": 6191,
      "faster": 6192,
      "tobac": 6193,
      "marrow": 6194,
      "llen": 6195,
      "bf": 6196,
      "federal": 6197,
      "tou": 6198,
      "highlights": 6199,
      "utilization": 6200,
      "coated": 6201,
      "chromo": 6202,
      "hou": 6203,
      "phe": 6204,
      "tel": 6205,
      "citation": 6206,
      "zikv": 6207,
      "gest": 6208,
      "discrimin": 6209,
      "links": 6210,
      "pun": 6211,
      "scor": 6212,
      "rabbit": 6213,
      "auc": 6214,
      "physiology": 6215,
      "happ": 6216,
      "ischen": 6217,
      "micr": 6218,
      "sputum": 6219,
      "preparedness": 6220,
      "favorable": 6221,
      "historical": 6222,
      "statement": 6223,
      "insic": 6224,
      "helps": 6225,
      "mps": 6226,
      "lie": 6227,
      "secure": 6228,
      "ping": 6229,
      "module": 6230,
      "lactic": 6231,
      "spontaneous": 6232,
      "transduc": 6233,
      "consecutive": 6234,
      "expanded": 6235,
      "calci": 6236,
      "latent": 6237,
      "mouth": 6238,
      "enriched": 6239,
      "readily": 6240,
      "drin": 6241,
      "compos": 6242,
      "cen": 6243,
      "faculty": 6244,
      "inade": 6245,
      "accompanied": 6246,
      "emotions": 6247,
      "lia": 6248,
      "allocation": 6249,
      "ultrasound": 6250,
      "describes": 6251,
      "selec": 6252,
      "today": 6253,
      "dh": 6254,
      "heavy": 6255,
      "egg": 6256,
      "acceptance": 6257,
      "600": 6258,
      "cytotoxic": 6259,
      "idity": 6260,
      "immunogen": 6261,
      "encoun": 6262,
      "assis": 6263,
      "quo": 6264,
      "illo": 6265,
      "albumin": 6266,
      "repair": 6267,
      "parent": 6268,
      "132": 6269,
      "transcripts": 6270,
      "housing": 6271,
      "encoded": 6272,
      "180": 6273,
      "hund": 6274,
      "principal": 6275,
      "nlr": 6276,
      "nervous": 6277,
      "inoculation": 6278,
      "118": 6279,
      "quer": 6280,
      "119": 6281,
      "otic": 6282,
      "mscs": 6283,
      "pg": 6284,
      "denv": 6285,
      "cyclo": 6286,
      "ventilator": 6287,
      "massive": 6288,
      "google": 6289,
      "roid": 6290,
      "quantified": 6291,
      "enteric": 6292,
      "pure": 6293,
      "ontal": 6294,
      "enty": 6295,
      "ami": 6296,
      "fare": 6297,
      "biopsy": 6298,
      "lesion": 6299,
      "provider": 6300,
      "captured": 6301,
      "ethn": 6302,
      "combinations": 6303,
      "actively": 6304,
      "flexibility": 6305,
      "ministry": 6306,
      "ils": 6307,
      "replacement": 6308,
      "weights": 6309,
      "lined": 6310,
      "hundred": 6311,
      "grown": 6312,
      "__": 6313,
      "immunological": 6314,
      "nurse": 6315,
      "concerned": 6316,
      "ambi": 6317,
      "exha": 6318,
      "teen": 6319,
      "dietary": 6320,
      "subgroup": 6321,
      "undergoing": 6322,
      "cation": 6323,
      "ols": 6324,
      "sole": 6325,
      "governance": 6326,
      "segments": 6327,
      "dedicated": 6328,
      "implies": 6329,
      "nucleocap": 6330,
      "sampled": 6331,
      "infiltration": 6332,
      "converting": 6333,
      "airborne": 6334,
      "erk": 6335,
      "encephalitis": 6336,
      "magnetic": 6337,
      "simulated": 6338,
      "ented": 6339,
      "manip": 6340,
      "century": 6341,
      "orous": 6342,
      "lifest": 6343,
      "virions": 6344,
      "official": 6345,
      "pox": 6346,
      "updated": 6347,
      "deletion": 6348,
      "causal": 6349,
      "practitioners": 6350,
      "chromato": 6351,
      "root": 6352,
      "contexts": 6353,
      "creation": 6354,
      "calcium": 6355,
      "liber": 6356,
      "reflected": 6357,
      "gave": 6358,
      "replaced": 6359,
      "uled": 6360,
      "ets": 6361,
      "foundation": 6362,
      "equally": 6363,
      "fla": 6364,
      "zinc": 6365,
      "piv": 6366,
      "implementing": 6367,
      "ries": 6368,
      "atp": 6369,
      "responsi": 6370,
      "addressing": 6371,
      "prominent": 6372,
      "resident": 6373,
      "demonstrating": 6374,
      "rota": 6375,
      "omer": 6376,
      "posterior": 6377,
      "prev": 6378,
      "spinal": 6379,
      "foot": 6380,
      "ctt": 6381,
      "fitting": 6382,
      "focal": 6383,
      "electric": 6384,
      "5b": 6385,
      "helic": 6386,
      "lon": 6387,
      "gered": 6388,
      "capsid": 6389,
      "telephone": 6390,
      "managing": 6391,
      "calculation": 6392,
      "mothers": 6393,
      "129": 6394,
      "guar": 6395,
      "lipids": 6396,
      "permission": 6397,
      "sec": 6398,
      "broader": 6399,
      "rating": 6400,
      "roy": 6401,
      "transmit": 6402,
      "functioning": 6403,
      "ja": 6404,
      "imposed": 6405,
      "co2": 6406,
      "lp": 6407,
      "124": 6408,
      "hrv": 6409,
      "characterization": 6410,
      "globin": 6411,
      "diges": 6412,
      "categorical": 6413,
      "continues": 6414,
      "hypothesized": 6415,
      "posto": 6416,
      "bad": 6417,
      "billion": 6418,
      "admissions": 6419,
      "hat": 6420,
      "proxim": 6421,
      "moll": 6422,
      "mitigation": 6423,
      "separation": 6424,
      "conformation": 6425,
      "antigenic": 6426,
      "boo": 6427,
      "behind": 6428,
      "opinion": 6429,
      "overnight": 6430,
      "tex": 6431,
      "els": 6432,
      "vsv": 6433,
      "lone": 6434,
      "opac": 6435,
      "arities": 6436,
      "sought": 6437,
      "gradually": 6438,
      "vulnerability": 6439,
      "diffuse": 6440,
      "adhesion": 6441,
      "spss": 6442,
      "maps": 6443,
      "blast": 6444,
      "determinants": 6445,
      "phage": 6446,
      "advoc": 6447,
      "solved": 6448,
      "dass": 6449,
      "tid": 6450,
      "flexible": 6451,
      "curric": 6452,
      "viability": 6453,
      "s4": 6454,
      "pk": 6455,
      "hif": 6456,
      "126": 6457,
      "swine": 6458,
      "arian": 6459,
      "supportive": 6460,
      "england": 6461,
      "suming": 6462,
      "perfusion": 6463,
      "integrity": 6464,
      "twee": 6465,
      "choose": 6466,
      "recall": 6467,
      "atics": 6468,
      "tn": 6469,
      "lateral": 6470,
      "inner": 6471,
      "transform": 6472,
      "septic": 6473,
      "ige": 6474,
      "questionnaires": 6475,
      "160": 6476,
      "advis": 6477,
      "loads": 6478,
      "suring": 6479,
      "pbm": 6480,
      "poorly": 6481,
      "headache": 6482,
      "seek": 6483,
      "chip": 6484,
      "diabetic": 6485,
      "reflects": 6486,
      "traumatic": 6487,
      "ventricular": 6488,
      "optimized": 6489,
      "multiplex": 6490,
      "ccl": 6491,
      "scoring": 6492,
      "forces": 6493,
      "reproductive": 6494,
      "aerosols": 6495,
      "atom": 6496,
      "interstitial": 6497,
      "horiz": 6498,
      "modelling": 6499,
      "135": 6500,
      "transmis": 6501,
      "saline": 6502,
      "cially": 6503,
      "itant": 6504,
      "formula": 6505,
      "liu": 6506,
      "wit": 6507,
      "zur": 6508,
      "121": 6509,
      "analyzing": 6510,
      "gate": 6511,
      "orth": 6512,
      "fluctu": 6513,
      "ensuring": 6514,
      "topo": 6515,
      "hh": 6516,
      "benz": 6517,
      "subjective": 6518,
      "inactivation": 6519,
      "cos": 6520,
      "1993": 6521,
      "enhancing": 6522,
      "illus": 6523,
      "effector": 6524,
      "plaque": 6525,
      "azi": 6526,
      "reaching": 6527,
      "ethnicity": 6528,
      "droplet": 6529,
      "northern": 6530,
      "pdb": 6531,
      "kines": 6532,
      "anony": 6533,
      "133": 6534,
      "reserved": 6535,
      "prrsv": 6536,
      "stein": 6537,
      "faced": 6538,
      "recurrent": 6539,
      "aur": 6540,
      "nucleo": 6541,
      "sarscov2": 6542,
      "abundant": 6543,
      "cattle": 6544,
      "thous": 6545,
      "127": 6546,
      "quantification": 6547,
      "analog": 6548,
      "constructs": 6549,
      "irf": 6550,
      "thromycin": 6551,
      "enables": 6552,
      "lineage": 6553,
      "fine": 6554,
      "visible": 6555,
      "eosinophil": 6556,
      "recommendation": 6557,
      "organized": 6558,
      "promotes": 6559,
      "tracking": 6560,
      "matching": 6561,
      "graphics": 6562,
      "mad": 6563,
      "hall": 6564,
      "containment": 6565,
      "absent": 6566,
      "occupational": 6567,
      "implicated": 6568,
      "dpi": 6569,
      "postoper": 6570,
      "ash": 6571,
      "considerations": 6572,
      "webs": 6573,
      "ethanol": 6574,
      "paid": 6575,
      "transmembrane": 6576,
      "fro": 6577,
      "sir": 6578,
      "nucleocapsid": 6579,
      "assuming": 6580,
      "medicines": 6581,
      "angle": 6582,
      "carriers": 6583,
      "messages": 6584,
      "bottom": 6585,
      "pover": 6586,
      "immunized": 6587,
      "aud": 6588,
      "consumers": 6589,
      "tracheal": 6590,
      "aga": 6591,
      "prognostic": 6592,
      "hierarch": 6593,
      "accurately": 6594,
      "anova": 6595,
      "cq": 6596,
      "triggered": 6597,
      "actin": 6598,
      "yel": 6599,
      "request": 6600,
      "operational": 6601,
      "chance": 6602,
      "heterogeneous": 6603,
      "wen": 6604,
      "graft": 6605,
      "mgml": 6606,
      "aller": 6607,
      "extracts": 6608,
      "varies": 6609,
      "fibrin": 6610,
      "instruments": 6611,
      "invasion": 6612,
      "appoint": 6613,
      "manual": 6614,
      "gri": 6615,
      "greatest": 6616,
      "purification": 6617,
      "parti": 6618,
      "impacted": 6619,
      "r0": 6620,
      "poverty": 6621,
      "unde": 6622,
      "nct": 6623,
      "attr": 6624,
      "imper": 6625,
      "002": 6626,
      "patienten": 6627,
      "episodes": 6628,
      "microorganisms": 6629,
      "narr": 6630,
      "reality": 6631,
      "transcriptional": 6632,
      "generalized": 6633,
      "amongst": 6634,
      "ofor": 6635,
      "viable": 6636,
      "things": 6637,
      "orders": 6638,
      "infar": 6639,
      "sudden": 6640,
      "fing": 6641,
      "spleen": 6642,
      "drive": 6643,
      "embedded": 6644,
      "emission": 6645,
      "lap": 6646,
      "twenty": 6647,
      "heparin": 6648,
      "adjustment": 6649,
      "organizational": 6650,
      "leak": 6651,
      "formulation": 6652,
      "motivation": 6653,
      "nmr": 6654,
      "kary": 6655,
      "agt": 6656,
      "constitu": 6657,
      "investigators": 6658,
      "ened": 6659,
      "sian": 6660,
      "schol": 6661,
      "tos": 6662,
      "occasion": 6663,
      "friends": 6664,
      "brought": 6665,
      "olfactory": 6666,
      "1992": 6667,
      "enhancement": 6668,
      "string": 6669,
      "facing": 6670,
      "enveloped": 6671,
      "precur": 6672,
      "regulating": 6673,
      "loading": 6674,
      "biochemical": 6675,
      "blocks": 6676,
      "exponential": 6677,
      "expensive": 6678,
      "eties": 6679,
      "strengthen": 6680,
      "corresponds": 6681,
      "thinking": 6682,
      "sds": 6683,
      "conclude": 6684,
      "belonging": 6685,
      "sun": 6686,
      "flav": 6687,
      "unless": 6688,
      "vessels": 6689,
      "147": 6690,
      "dehy": 6691,
      "localized": 6692,
      "sound": 6693,
      "comfort": 6694,
      "ita": 6695,
      "rb": 6696,
      "game": 6697,
      "tl": 6698,
      "mosqu": 6699,
      "shel": 6700,
      "mucosa": 6701,
      "website": 6702,
      "wound": 6703,
      "wellbeing": 6704,
      "munic": 6705,
      "naturally": 6706,
      "elective": 6707,
      "complementary": 6708,
      "getting": 6709,
      "tention": 6710,
      "arthritis": 6711,
      "likewise": 6712,
      "gtt": 6713,
      "examining": 6714,
      "grav": 6715,
      "6a": 6716,
      "nucleus": 6717,
      "itter": 6718,
      "haem": 6719,
      "interacting": 6720,
      "tolerance": 6721,
      "passive": 6722,
      "split": 6723,
      "pilot": 6724,
      "rot": 6725,
      "docum": 6726,
      "standing": 6727,
      "threatening": 6728,
      "capability": 6729,
      "municip": 6730,
      "analo": 6731,
      "looking": 6732,
      "cerebral": 6733,
      "poul": 6734,
      "threats": 6735,
      "advice": 6736,
      "e6": 6737,
      "combining": 6738,
      "piec": 6739,
      "_0": 6740,
      "allergic": 6741,
      "bab": 6742,
      "demands": 6743,
      "aque": 6744,
      "mosquito": 6745,
      "duci": 6746,
      "nout": 6747,
      "httpsdoiorg1011012020": 6748,
      "hypoxia": 6749,
      "beliefs": 6750,
      "desired": 6751,
      "mabs": 6752,
      "terti": 6753,
      "pharmacological": 6754,
      "mente": 6755,
      "dependence": 6756,
      "cann": 6757,
      "niv": 6758,
      "pleural": 6759,
      "server": 6760,
      "cytoplasm": 6761,
      "postoperative": 6762,
      "hot": 6763,
      "volumes": 6764,
      "powerful": 6765,
      "ische": 6766,
      "humoral": 6767,
      "humidity": 6768,
      "transient": 6769,
      "figs": 6770,
      "routes": 6771,
      "familiar": 6772,
      "gb": 6773,
      "temperatures": 6774,
      "km": 6775,
      "views": 6776,
      "gh": 6777,
      "leave": 6778,
      "cac": 6779,
      "whil": 6780,
      "overlap": 6781,
      "correspond": 6782,
      "h5n1": 6783,
      "3cl": 6784,
      "yellow": 6785,
      "substitution": 6786,
      "hubei": 6787,
      "enrichment": 6788,
      "discussions": 6789,
      "dyspnea": 6790,
      "inherent": 6791,
      "correctly": 6792,
      "criterion": 6793,
      "gdp": 6794,
      "diagnoses": 6795,
      "thorac": 6796,
      "adjac": 6797,
      "hpv": 6798,
      "cyste": 6799,
      "delta": 6800,
      "sensing": 6801,
      "inpatient": 6802,
      "whilst": 6803,
      "accounts": 6804,
      "cxcl": 6805,
      "rough": 6806,
      "wider": 6807,
      "mimic": 6808,
      "fabric": 6809,
      "activating": 6810,
      "editing": 6811,
      "volunteers": 6812,
      "depos": 6813,
      "injuries": 6814,
      "firm": 6815,
      "azole": 6816,
      "waiting": 6817,
      "transformed": 6818,
      "attempts": 6819,
      "worked": 6820,
      "microbiota": 6821,
      "homeost": 6822,
      "illnesses": 6823,
      "omis": 6824,
      "orientation": 6825,
      "translated": 6826,
      "variate": 6827,
      "adsor": 6828,
      "plots": 6829,
      "danger": 6830,
      "iav": 6831,
      "regimen": 6832,
      "ritic": 6833,
      "caps": 6834,
      "vill": 6835,
      "df": 6836,
      "uro": 6837,
      "depletion": 6838,
      "precautions": 6839,
      "verified": 6840,
      "proce": 6841,
      "interpret": 6842,
      "tracted": 6843,
      "yeast": 6844,
      "characterize": 6845,
      "spent": 6846,
      "versities": 6847,
      "cytoplasmic": 6848,
      "completion": 6849,
      "collective": 6850,
      "lop": 6851,
      "h7": 6852,
      "retic": 6853,
      "thi": 6854,
      "childhood": 6855,
      "meaningful": 6856,
      "ogenous": 6857,
      "tach": 6858,
      "entities": 6859,
      "mathcal": 6860,
      "beit": 6861,
      "gaps": 6862,
      "presum": 6863,
      "e2": 6864,
      "fox": 6865,
      "proximity": 6866,
      "prove": 6867,
      "dot": 6868,
      "peaks": 6869,
      "eating": 6870,
      "omas": 6871,
      "picture": 6872,
      "infant": 6873,
      "agic": 6874,
      "proteo": 6875,
      "nonetheless": 6876,
      "cleaning": 6877,
      "alo": 6878,
      "inferen": 6879,
      "invit": 6880,
      "quantity": 6881,
      "dans": 6882,
      "studying": 6883,
      "cancers": 6884,
      "fect": 6885,
      "aggregation": 6886,
      "typing": 6887,
      "inadequate": 6888,
      "embry": 6889,
      "expertise": 6890,
      "hair": 6891,
      "incident": 6892,
      "pacient": 6893,
      "decided": 6894,
      "dissemination": 6895,
      "losses": 6896,
      "ani": 6897,
      "cooperation": 6898,
      "gev": 6899,
      "meetings": 6900,
      "spher": 6901,
      "arrest": 6902,
      "cad": 6903,
      "collaborative": 6904,
      "prime": 6905,
      "unpreced": 6906,
      "attitude": 6907,
      "enabled": 6908,
      "gon": 6909,
      "instances": 6910,
      "ultural": 6911,
      "ecological": 6912,
      "inavir": 6913,
      "tweets": 6914,
      "degre": 6915,
      "putative": 6916,
      "schem": 6917,
      "passeng": 6918,
      "mamm": 6919,
      "commod": 6920,
      "lethal": 6921,
      "asome": 6922,
      "probable": 6923,
      "disability": 6924,
      "worsening": 6925,
      "capabilities": 6926,
      "chapter": 6927,
      "object": 6928,
      "served": 6929,
      "hb": 6930,
      "feeling": 6931,
      "welfare": 6932,
      "fies": 6933,
      "fren": 6934,
      "comment": 6935,
      "antioxidant": 6936,
      "syncy": 6937,
      "hing": 6938,
      "escape": 6939,
      "elsewhere": 6940,
      "filtration": 6941,
      "depressive": 6942,
      "fibr": 6943,
      "centres": 6944,
      "porcine": 6945,
      "unprecedented": 6946,
      "basal": 6947,
      "ares": 6948,
      "numerical": 6949,
      "degrees": 6950,
      "tertiary": 6951,
      "142": 6952,
      "coccal": 6953,
      "dp": 6954,
      "therapeutics": 6955,
      "mex": 6956,
      "balanced": 6957,
      "wur": 6958,
      "mediators": 6959,
      "partner": 6960,
      "tte": 6961,
      "prices": 6962,
      "quantify": 6963,
      "forest": 6964,
      "serine": 6965,
      "manufacturers": 6966,
      "pour": 6967,
      "vehicle": 6968,
      "138": 6969,
      "wells": 6970,
      "helped": 6971,
      "prox": 6972,
      "carefully": 6973,
      "eden": 6974,
      "lifestyle": 6975,
      "1991": 6976,
      "sulf": 6977,
      "tocil": 6978,
      "handling": 6979,
      "owing": 6980,
      "burnout": 6981,
      "winter": 6982,
      "anese": 6983,
      "ee": 6984,
      "extensively": 6985,
      "aro": 6986,
      "nucleotides": 6987,
      "nod": 6988,
      "connections": 6989,
      "143": 6990,
      "coordination": 6991,
      "advances": 6992,
      "innovative": 6993,
      "conversely": 6994,
      "lived": 6995,
      "tocilizumab": 6996,
      "atitis": 6997,
      "cope": 6998,
      "owners": 6999,
      "ica": 7000,
      "taiwan": 7001,
      "apps": 7002,
      "vesicles": 7003,
      "licen": 7004,
      "initiatives": 7005,
      "compatible": 7006,
      "racial": 7007,
      "alt": 7008,
      "chim": 7009,
      "intrinsic": 7010,
      "angi": 7011,
      "onomy": 7012,
      "sant": 7013,
      "persistence": 7014,
      "learned": 7015,
      "lee": 7016,
      "perspec": 7017,
      "rectal": 7018,
      "graduate": 7019,
      "contrary": 7020,
      "objects": 7021,
      "running": 7022,
      "influences": 7023,
      "1d": 7024,
      "comprised": 7025,
      "interfe": 7026,
      "sphere": 7027,
      "ubiquitin": 7028,
      "alling": 7029,
      "iran": 7030,
      "converted": 7031,
      "optical": 7032,
      "gag": 7033,
      "tight": 7034,
      "happen": 7035,
      "compartment": 7036,
      "southern": 7037,
      "purchased": 7038,
      "tp": 7039,
      "itus": 7040,
      "introduce": 7041,
      "verify": 7042,
      "competing": 7043,
      "measles": 7044,
      "provinces": 7045,
      "twitter": 7046,
      "triage": 7047,
      "adopt": 7048,
      "carrying": 7049,
      "bh": 7050,
      "dox": 7051,
      "apoptotic": 7052,
      "subtypes": 7053,
      "100000": 7054,
      "entia": 7055,
      "cket": 7056,
      "oring": 7057,
      "injected": 7058,
      "dendritic": 7059,
      "overlapping": 7060,
      "robo": 7061,
      "youth": 7062,
      "reductions": 7063,
      "2020a": 7064,
      "thrombotic": 7065,
      "press": 7066,
      "cham": 7067,
      "radical": 7068,
      "conformational": 7069,
      "modes": 7070,
      "conservation": 7071,
      "fip": 7072,
      "administrative": 7073,
      "definitions": 7074,
      "party": 7075,
      "nerve": 7076,
      "percentages": 7077,
      "permeability": 7078,
      "pra": 7079,
      "comb": 7080,
      "investigating": 7081,
      "throughput": 7082,
      "144": 7083,
      "feasibility": 7084,
      "master": 7085,
      "vascul": 7086,
      "jing": 7087,
      "suspension": 7088,
      "correction": 7089,
      "appreci": 7090,
      "sustainability": 7091,
      "lucifer": 7092,
      "broadly": 7093,
      "fatty": 7094,
      "n95": 7095,
      "accounted": 7096,
      "fitness": 7097,
      "cytotoxicity": 7098,
      "proportions": 7099,
      "pol": 7100,
      "perspectives": 7101,
      "aux": 7102,
      "kingdom": 7103,
      "modulation": 7104,
      "unexpected": 7105,
      "caspase": 7106,
      "dehyde": 7107,
      "urg": 7108,
      "elimination": 7109,
      "ido": 7110,
      "tgf": 7111,
      "kits": 7112,
      "produces": 7113,
      "supplementation": 7114,
      "nr": 7115,
      "filled": 7116,
      "moral": 7117,
      "intestine": 7118,
      "encourage": 7119,
      "fined": 7120,
      "trypsin": 7121,
      "answers": 7122,
      "immunoglobulin": 7123,
      "interrup": 7124,
      "alk": 7125,
      "avoiding": 7126,
      "concom": 7127,
      "ologies": 7128,
      "geome": 7129,
      "nee": 7130,
      "marginal": 7131,
      "pursu": 7132,
      "authority": 7133,
      "fel": 7134,
      "tetr": 7135,
      "cavity": 7136,
      "ogenesis": 7137,
      "issued": 7138,
      "reuse": 7139,
      "volunt": 7140,
      "compl": 7141,
      "categorized": 7142,
      "cloud": 7143,
      "universities": 7144,
      "ofil": 7145,
      "competition": 7146,
      "bia": 7147,
      "clone": 7148,
      "platelets": 7149,
      "feelings": 7150,
      "hid": 7151,
      "minute": 7152,
      "134": 7153,
      "transferase": 7154,
      "bayes": 7155,
      "sequenced": 7156,
      "solve": 7157,
      "gv": 7158,
      "preference": 7159,
      "aved": 7160,
      "ala": 7161,
      "composite": 7162,
      "subsets": 7163,
      "accessibility": 7164,
      "returned": 7165,
      "duplic": 7166,
      "declar": 7167,
      "correlate": 7168,
      "creative": 7169,
      "obacter": 7170,
      "genotypes": 7171,
      "upregulated": 7172,
      "gov": 7173,
      "overview": 7174,
      "obtaining": 7175,
      "omics": 7176,
      "din": 7177,
      "interested": 7178,
      "genital": 7179,
      "zhou": 7180,
      "mics": 7181,
      "haemo": 7182,
      "height": 7183,
      "reporter": 7184,
      "saudi": 7185,
      "scans": 7186,
      "bott": 7187,
      "parental": 7188,
      "urinary": 7189,
      "singapo": 7190,
      "consumer": 7191,
      "district": 7192,
      "tx": 7193,
      "icin": 7194,
      "minority": 7195,
      "saving": 7196,
      "bench": 7197,
      "driving": 7198,
      "arity": 7199,
      "roc": 7200,
      "dings": 7201,
      "discrimination": 7202,
      "perman": 7203,
      "disinfection": 7204,
      "harves": 7205,
      "ebv": 7206,
      "demographics": 7207,
      "dementia": 7208,
      "th1": 7209,
      "ket": 7210,
      "monthly": 7211,
      "enzymatic": 7212,
      "smooth": 7213,
      "heli": 7214,
      "gle": 7215,
      "indication": 7216,
      "motion": 7217,
      "ura": 7218,
      "itone": 7219,
      "ologist": 7220,
      "ller": 7221,
      "iled": 7222,
      "scored": 7223,
      "played": 7224,
      "concomitant": 7225,
      "tris": 7226,
      "yielded": 7227,
      "izer": 7228,
      "accounting": 7229,
      "homogene": 7230,
      "131": 7231,
      "velocity": 7232,
      "cryo": 7233,
      "react": 7234,
      "wir": 7235,
      "phenyl": 7236,
      "strategic": 7237,
      "lopinavir": 7238,
      "virion": 7239,
      "nhs": 7240,
      "friend": 7241,
      "chik": 7242,
      "metabolites": 7243,
      "spanish": 7244,
      "mpv": 7245,
      "agged": 7246,
      "luciferase": 7247,
      "voc": 7248,
      "decade": 7249,
      "137": 7250,
      "vap": 7251,
      "join": 7252,
      "extend": 7253,
      "ordered": 7254,
      "afford": 7255,
      "moun": 7256,
      "phic": 7257,
      "passed": 7258,
      "predis": 7259,
      "somewhat": 7260,
      "agricultural": 7261,
      "immunosuppressive": 7262,
      "glycosylation": 7263,
      "chemokines": 7264,
      "him": 7265,
      "cysteine": 7266,
      "whit": 7267,
      "ideas": 7268,
      "emotion": 7269,
      "anter": 7270,
      "spectively": 7271,
      "letal": 7272,
      "hai": 7273,
      "cnn": 7274,
      "nutritional": 7275,
      "pollut": 7276,
      "replicate": 7277,
      "acto": 7278,
      "plex": 7279,
      "singapore": 7280,
      "wind": 7281,
      "tab": 7282,
      "workplace": 7283,
      "herd": 7284,
      "reson": 7285,
      "tification": 7286,
      "movements": 7287,
      "attributes": 7288,
      "dut": 7289,
      "immunogenicity": 7290,
      "ix": 7291,
      "reagent": 7292,
      "kl": 7293,
      "nih": 7294,
      "conserv": 7295,
      "blocked": 7296,
      "confirmation": 7297,
      "tau": 7298,
      "ather": 7299,
      "visualization": 7300,
      "idine": 7301,
      "meanwhile": 7302,
      "dispos": 7303,
      "loneliness": 7304,
      "concentrated": 7305,
      "veterinary": 7306,
      "achieving": 7307,
      "erythro": 7308,
      "wid": 7309,
      "prepare": 7310,
      "substance": 7311,
      "mgl": 7312,
      "indices": 7313,
      "expectations": 7314,
      "c3": 7315,
      "tropic": 7316,
      "thorough": 7317,
      "consci": 7318,
      "untreated": 7319,
      "yang": 7320,
      "invitrogen": 7321,
      "folding": 7322,
      "utilizing": 7323,
      "adjacent": 7324,
      "inspec": 7325,
      "maturation": 7326,
      "ineff": 7327,
      "notice": 7328,
      "huge": 7329,
      "imag": 7330,
      "covering": 7331,
      "opi": 7332,
      "microgli": 7333,
      "challenged": 7334,
      "136": 7335,
      "uml": 7336,
      "undertaken": 7337,
      "religious": 7338,
      "rms": 7339,
      "veget": 7340,
      "conflicts": 7341,
      "bronchial": 7342,
      "pipe": 7343,
      "describing": 7344,
      "catheter": 7345,
      "nitrogen": 7346,
      "crypto": 7347,
      "vag": 7348,
      "gct": 7349,
      "sinus": 7350,
      "bach": 7351,
      "cytopenia": 7352,
      "coded": 7353,
      "sides": 7354,
      "trees": 7355,
      "evolved": 7356,
      "workforce": 7357,
      "elle": 7358,
      "1980": 7359,
      "hybri": 7360,
      "vomit": 7361,
      "ados": 7362,
      "uclear": 7363,
      "155": 7364,
      "simpli": 7365,
      "cited": 7366,
      "union": 7367,
      "olin": 7368,
      "worker": 7369,
      "a2": 7370,
      "biased": 7371,
      "conducting": 7372,
      "prescribed": 7373,
      "wastewater": 7374,
      "hors": 7375,
      "complication": 7376,
      "genetically": 7377,
      "trache": 7378,
      "stig": 7379,
      "iver": 7380,
      "counties": 7381,
      "conscious": 7382,
      "stimulate": 7383,
      "139": 7384,
      "tubes": 7385,
      "engaged": 7386,
      "hazard": 7387,
      "229e": 7388,
      "v1": 7389,
      "considerably": 7390,
      "remia": 7391,
      "ulture": 7392,
      "intelligence": 7393,
      "placent": 7394,
      "dialysis": 7395,
      "clerosis": 7396,
      "emed": 7397,
      "aper": 7398,
      "deposition": 7399,
      "arise": 7400,
      "continuously": 7401,
      "focuses": 7402,
      "consultations": 7403,
      "foods": 7404,
      "rotavirus": 7405,
      "meat": 7406,
      "sper": 7407,
      "hybridi": 7408,
      "prompt": 7409,
      "societies": 7410,
      "itt": 7411,
      "participated": 7412,
      "proportional": 7413,
      "syndrom": 7414,
      "harvested": 7415,
      "publicly": 7416,
      "dog": 7417,
      "stra": 7418,
      "cb": 7419,
      "wird": 7420,
      "fis": 7421,
      "utr": 7422,
      "treg": 7423,
      "routinely": 7424,
      "ischemic": 7425,
      "incid": 7426,
      "tomography": 7427,
      "regarded": 7428,
      "overwhe": 7429,
      "anine": 7430,
      "peg": 7431,
      "establishing": 7432,
      "competent": 7433,
      "keit": 7434,
      "suffer": 7435,
      "flows": 7436,
      "democr": 7437,
      "genbank": 7438,
      "remarkable": 7439,
      "mandatory": 7440,
      "ancies": 7441,
      "evs": 7442,
      "consolidation": 7443,
      "fault": 7444,
      "vv": 7445,
      "airways": 7446,
      "notable": 7447,
      "lists": 7448,
      "limb": 7449,
      "steroid": 7450,
      "entered": 7451,
      "bacterium": 7452,
      "managers": 7453,
      "arrival": 7454,
      "onavir": 7455,
      "blasts": 7456,
      "sensiti": 7457,
      "message": 7458,
      "stoch": 7459,
      "worthy": 7460,
      "xia": 7461,
      "glyce": 7462,
      "computing": 7463,
      "noso": 7464,
      "promotion": 7465,
      "uge": 7466,
      "ccr": 7467,
      "retention": 7468,
      "plasmids": 7469,
      "beads": 7470,
      "anticipated": 7471,
      "behaviours": 7472,
      "regularly": 7473,
      "util": 7474,
      "clones": 7475,
      "bance": 7476,
      "aor": 7477,
      "immunomodul": 7478,
      "intense": 7479,
      "oblig": 7480,
      "sufficiently": 7481,
      "outer": 7482,
      "mrnas": 7483,
      "virin": 7484,
      "rheum": 7485,
      "neph": 7486,
      "homology": 7487,
      "reagents": 7488,
      "supplies": 7489,
      "exam": 7490,
      "025": 7491,
      "scat": 7492,
      "grant": 7493,
      "phenol": 7494,
      "attt": 7495,
      "allevi": 7496,
      "locally": 7497,
      "cytometry": 7498,
      "acor": 7499,
      "tgev": 7500,
      "surgeons": 7501,
      "atyp": 7502,
      "riba": 7503,
      "pointed": 7504,
      "allele": 7505,
      "council": 7506,
      "partnership": 7507,
      "dark": 7508,
      "generative": 7509,
      "atmo": 7510,
      "ritonavir": 7511,
      "charged": 7512,
      "bn": 7513,
      "industries": 7514,
      "firstly": 7515,
      "specialized": 7516,
      "deci": 7517,
      "exercis": 7518,
      "wis": 7519,
      "terminus": 7520,
      "oc43": 7521,
      "mirnas": 7522,
      "typic": 7523,
      "rnase": 7524,
      "dg": 7525,
      "ider": 7526,
      "latin": 7527,
      "something": 7528,
      "152": 7529,
      "sterile": 7530,
      "suicide": 7531,
      "checked": 7532,
      "mmhg": 7533,
      "phenotypes": 7534,
      "a5": 7535,
      "profit": 7536,
      "john": 7537,
      "guided": 7538,
      "10000": 7539,
      "ias": 7540,
      "laun": 7541,
      "propagation": 7542,
      "etiology": 7543,
      "ured": 7544,
      "programmes": 7545,
      "infecting": 7546,
      "supervised": 7547,
      "ethyl": 7548,
      "pharmacy": 7549,
      "prophylactic": 7550,
      "evolving": 7551,
      "commen": 7552,
      "r2": 7553,
      "oppos": 7554,
      "parasite": 7555,
      "genesis": 7556,
      "nacl": 7557,
      "neuronal": 7558,
      "oxidation": 7559,
      "chicken": 7560,
      "kinetics": 7561,
      "acetyl": 7562,
      "seman": 7563,
      "bert": 7564,
      "verte": 7565,
      "prevented": 7566,
      "bang": 7567,
      "claim": 7568,
      "oxygenation": 7569,
      "nether": 7570,
      "willingness": 7571,
      "bere": 7572,
      "senti": 7573,
      "faec": 7574,
      "incomplete": 7575,
      "polysac": 7576,
      "weakness": 7577,
      "validate": 7578,
      "ungs": 7579,
      "adequ": 7580,
      "stratified": 7581,
      "kim": 7582,
      "comments": 7583,
      "homeostasis": 7584,
      "enabling": 7585,
      "staphy": 7586,
      "predn": 7587,
      "frail": 7588,
      "hek": 7589,
      "grid": 7590,
      "french": 7591,
      "encouraged": 7592,
      "zz": 7593,
      "reveals": 7594,
      "003": 7595,
      "bell": 7596,
      "doctor": 7597,
      "oriented": 7598,
      "anos": 7599,
      "163": 7600,
      "morphology": 7601,
      "tell": 7602,
      "poultry": 7603,
      "randomis": 7604,
      "httpswww": 7605,
      "underestim": 7606,
      "rhinovirus": 7607,
      "toll": 7608,
      "translational": 7609,
      "radiological": 7610,
      "rescu": 7611,
      "choices": 7612,
      "p0001": 7613,
      "monkey": 7614,
      "vomiting": 7615,
      "dense": 7616,
      "ease": 7617,
      "idad": 7618,
      "excluding": 7619,
      "opposite": 7620,
      "narrow": 7621,
      "isg": 7622,
      "ida": 7623,
      "atro": 7624,
      "accession": 7625,
      "staphylo": 7626,
      "suppress": 7627,
      "pulse": 7628,
      "scholars": 7629,
      "xx": 7630,
      "oma": 7631,
      "1989": 7632,
      "discrepan": 7633,
      "148": 7634,
      "substrates": 7635,
      "supernatants": 7636,
      "stochastic": 7637,
      "ribavirin": 7638,
      "farms": 7639,
      "deterioration": 7640,
      "exemp": 7641,
      "attain": 7642,
      "1111": 7643,
      "differentiate": 7644,
      "differentiated": 7645,
      "similarities": 7646,
      "markedly": 7647,
      "yields": 7648,
      "dots": 7649,
      "stimuli": 7650,
      "incen": 7651,
      "immunodeficiency": 7652,
      "kle": 7653,
      "seiz": 7654,
      "neck": 7655,
      "wildlife": 7656,
      "lions": 7657,
      "statements": 7658,
      "argue": 7659,
      "republic": 7660,
      "subgroups": 7661,
      "ferrit": 7662,
      "trace": 7663,
      "ests": 7664,
      "netherlands": 7665,
      "spectra": 7666,
      "tobacco": 7667,
      "falls": 7668,
      "establishment": 7669,
      "secreted": 7670,
      "tendency": 7671,
      "450": 7672,
      "microscope": 7673,
      "caution": 7674,
      "contagious": 7675,
      "vertical": 7676,
      "centrifugation": 7677,
      "query": 7678,
      "competitive": 7679,
      "brown": 7680,
      "night": 7681,
      "confer": 7682,
      "2020b": 7683,
      "responded": 7684,
      "migrants": 7685,
      "oli": 7686,
      "fused": 7687,
      "oxidase": 7688,
      "sharp": 7689,
      "ming": 7690,
      "maximal": 7691,
      "filtered": 7692,
      "gib": 7693,
      "cultiv": 7694,
      "pocket": 7695,
      "mock": 7696,
      "initiative": 7697,
      "upregulation": 7698,
      "impos": 7699,
      "alternatively": 7700,
      "indications": 7701,
      "ocular": 7702,
      "tz": 7703,
      "c2": 7704,
      "conference": 7705,
      "depicted": 7706,
      "prono": 7707,
      "insertion": 7708,
      "properly": 7709,
      "tumour": 7710,
      "parasites": 7711,
      "ys": 7712,
      "infek": 7713,
      "immunosuppression": 7714,
      "publish": 7715,
      "indian": 7716,
      "summer": 7717,
      "trun": 7718,
      "qui": 7719,
      "weigh": 7720,
      "card": 7721,
      "mini": 7722,
      "waves": 7723,
      "accommod": 7724,
      "imported": 7725,
      "157": 7726,
      "exclusively": 7727,
      "files": 7728,
      "dramatically": 7729,
      "ried": 7730,
      "legis": 7731,
      "circu": 7732,
      "bridge": 7733,
      "chick": 7734,
      "productivity": 7735,
      "chromatography": 7736,
      "attached": 7737,
      "tering": 7738,
      "immunocompromised": 7739,
      "kcal": 7740,
      "146": 7741,
      "shut": 7742,
      "tot": 7743,
      "indoor": 7744,
      "acknowled": 7745,
      "compass": 7746,
      "165": 7747,
      "substances": 7748,
      "bij": 7749,
      "shifts": 7750,
      "hsp": 7751,
      "dmem": 7752,
      "nosocom": 7753,
      "deemed": 7754,
      "cti": 7755,
      "multic": 7756,
      "segmentation": 7757,
      "eliminate": 7758,
      "preferences": 7759,
      "jak": 7760,
      "lf": 7761,
      "entr": 7762,
      "hypotheses": 7763,
      "bits": 7764,
      "pix": 7765,
      "retrieved": 7766,
      "reflecting": 7767,
      "calculations": 7768,
      "fractions": 7769,
      "sort": 7770,
      "spar": 7771,
      "cortico": 7772,
      "mixing": 7773,
      "transcripto": 7774,
      "aggressive": 7775,
      "lasting": 7776,
      "glycans": 7777,
      "stain": 7778,
      "serves": 7779,
      "knn": 7780,
      "trajectory": 7781,
      "filters": 7782,
      "cag": 7783,
      "soil": 7784,
      "abuse": 7785,
      "psi": 7786,
      "293t": 7787,
      "elevation": 7788,
      "fluids": 7789,
      "delays": 7790,
      "ports": 7791,
      "azithromycin": 7792,
      "freed": 7793,
      "ranking": 7794,
      "coma": 7795,
      "claims": 7796,
      "attending": 7797,
      "gastric": 7798,
      "nosocomial": 7799,
      "emphasis": 7800,
      "helix": 7801,
      "rheumat": 7802,
      "fight": 7803,
      "curriculum": 7804,
      "lox": 7805,
      "convolution": 7806,
      "disparities": 7807,
      "seroprevalence": 7808,
      "earth": 7809,
      "theories": 7810,
      "synerg": 7811,
      "leaving": 7812,
      "afore": 7813,
      "confinement": 7814,
      "glycoproteins": 7815,
      "progen": 7816,
      "indirectly": 7817,
      "journ": 7818,
      "intact": 7819,
      "expend": 7820,
      "antibacterial": 7821,
      "ofluores": 7822,
      "persis": 7823,
      "170": 7824,
      "ferritin": 7825,
      "141": 7826,
      "thyroid": 7827,
      "inosa": 7828,
      "m3": 7829,
      "distances": 7830,
      "passage": 7831,
      "profound": 7832,
      "covariates": 7833,
      "revised": 7834,
      "166": 7835,
      "volati": 7836,
      "kan": 7837,
      "enroll": 7838,
      "convers": 7839,
      "ere": 7840,
      "arrhyth": 7841,
      "paradig": 7842,
      "ptsd": 7843,
      "thoracic": 7844,
      "scaff": 7845,
      "pil": 7846,
      "tcr": 7847,
      "collagen": 7848,
      "sam": 7849,
      "notion": 7850,
      "improves": 7851,
      "respirator": 7852,
      "ware": 7853,
      "ifi": 7854,
      "crises": 7855,
      "closer": 7856,
      "attacks": 7857,
      "referral": 7858,
      "lastly": 7859,
      "atypical": 7860,
      "atus": 7861,
      "bands": 7862,
      "mood": 7863,
      "theorem": 7864,
      "cali": 7865,
      "shaped": 7866,
      "careful": 7867,
      "german": 7868,
      "ortex": 7869,
      "notic": 7870,
      "originally": 7871,
      "mega": 7872,
      "missed": 7873,
      "plaus": 7874,
      "aforementioned": 7875,
      "tol": 7876,
      "atgg": 7877,
      "creatin": 7878,
      "qualities": 7879,
      "anth": 7880,
      "golgi": 7881,
      "renew": 7882,
      "lamb": 7883,
      "interacts": 7884,
      "conservative": 7885,
      "hmpv": 7886,
      "exclude": 7887,
      "qol": 7888,
      "api": 7889,
      "continuing": 7890,
      "sg": 7891,
      "repro": 7892,
      "oncology": 7893,
      "influencing": 7894,
      "fbs": 7895,
      "mos": 7896,
      "intran": 7897,
      "blind": 7898,
      "exogenous": 7899,
      "wean": 7900,
      "chloride": 7901,
      "156": 7902,
      "cel": 7903,
      "libraries": 7904,
      "journals": 7905,
      "kann": 7906,
      "preclinical": 7907,
      "defic": 7908,
      "disasters": 7909,
      "illustrates": 7910,
      "splic": 7911,
      "kert": 7912,
      "mur": 7913,
      "irable": 7914,
      "kom": 7915,
      "declaration": 7916,
      "salt": 7917,
      "eastern": 7918,
      "modulate": 7919,
      "electropho": 7920,
      "illustrate": 7921,
      "facial": 7922,
      "quartile": 7923,
      "mgdl": 7924,
      "thickness": 7925,
      "chari": 7926,
      "175": 7927,
      "defining": 7928,
      "asi": 7929,
      "ebov": 7930,
      "distur": 7931,
      "wood": 7932,
      "emergencies": 7933,
      "expendit": 7934,
      "ambul": 7935,
      "154": 7936,
      "embolism": 7937,
      "reader": 7938,
      "mellitus": 7939,
      "biomarker": 7940,
      "partly": 7941,
      "sequential": 7942,
      "stool": 7943,
      "withdraw": 7944,
      "facts": 7945,
      "parenchy": 7946,
      "horses": 7947,
      "comprising": 7948,
      "gained": 7949,
      "1988": 7950,
      "tap": 7951,
      "acr": 7952,
      "precipit": 7953,
      "ime": 7954,
      "registry": 7955,
      "tv": 7956,
      "creatinine": 7957,
      "assisted": 7958,
      "ying": 7959,
      "town": 7960,
      "edges": 7961,
      "encompass": 7962,
      "businesses": 7963,
      "accomp": 7964,
      "jn": 7965,
      "attend": 7966,
      "examinations": 7967,
      "jk": 7968,
      "mirna": 7969,
      "neighborhood": 7970,
      "solvent": 7971,
      "cloned": 7972,
      "favour": 7973,
      "immobil": 7974,
      "biomedical": 7975,
      "pacientes": 7976,
      "chose": 7977,
      "entity": 7978,
      "fet": 7979,
      "spin": 7980,
      "thropo": 7981,
      "explicitly": 7982,
      "discrete": 7983,
      "nave": 7984,
      "167": 7985,
      "bcg": 7986,
      "programming": 7987,
      "videos": 7988,
      "military": 7989,
      "hion": 7990,
      "instruction": 7991,
      "protecting": 7992,
      "exposures": 7993,
      "removing": 7994,
      "contents": 7995,
      "charide": 7996,
      "activates": 7997,
      "akt": 7998,
      "probabilities": 7999,
      "outlined": 8000,
      "solving": 8001,
      "ama": 8002,
      "signalling": 8003,
      "steady": 8004,
      "promoted": 8005,
      "developmental": 8006,
      "conditional": 8007,
      "labour": 8008,
      "resto": 8009,
      "japanese": 8010,
      "certainly": 8011,
      "surprisingly": 8012,
      "automatically": 8013,
      "rim": 8014,
      "derivative": 8015,
      "800": 8016,
      "turkey": 8017,
      "ordinary": 8018,
      "frontline": 8019,
      "istan": 8020,
      "vein": 8021,
      "d1": 8022,
      "steroids": 8023,
      "conges": 8024,
      "bag": 8025,
      "ball": 8026,
      "mediates": 8027,
      "laser": 8028,
      "potency": 8029,
      "compartments": 8030,
      "constitute": 8031,
      "termed": 8032,
      "mrsa": 8033,
      "dealing": 8034,
      "esthe": 8035,
      "cascade": 8036,
      "heavi": 8037,
      "width": 8038,
      "ora": 8039,
      "asone": 8040,
      "flavi": 8041,
      "hku": 8042,
      "arms": 8043,
      "ience": 8044,
      "151": 8045,
      "returns": 8046,
      "placing": 8047,
      "gross": 8048,
      "replicates": 8049,
      "utilize": 8050,
      "got": 8051,
      "lactate": 8052,
      "atoms": 8053,
      "149": 8054,
      "finger": 8055,
      "mith": 8056,
      "facilitated": 8057,
      "motifs": 8058,
      "operate": 8059,
      "frozen": 8060,
      "causative": 8061,
      "153": 8062,
      "overexpression": 8063,
      "malignant": 8064,
      "schedule": 8065,
      "kap": 8066,
      "cutoff": 8067,
      "effusion": 8068,
      "soph": 8069,
      "comorbidity": 8070,
      "shortage": 8071,
      "heim": 8072,
      "ameth": 8073,
      "prescription": 8074,
      "tcid": 8075,
      "cerv": 8076,
      "analyse": 8077,
      "vacu": 8078,
      "s5": 8079,
      "metro": 8080,
      "grouped": 8081,
      "onucleoti": 8082,
      "closures": 8083,
      "carrier": 8084,
      "vie": 8085,
      "literacy": 8086,
      "individually": 8087,
      "spot": 8088,
      "woman": 8089,
      "incorporate": 8090,
      "pronounced": 8091,
      "ylated": 8092,
      "spr": 8093,
      "uginosa": 8094,
      "hsct": 8095,
      "ortho": 8096,
      "perfect": 8097,
      "ulating": 8098,
      "glomer": 8099,
      "quant": 8100,
      "configuration": 8101,
      "commercially": 8102,
      "lem": 8103,
      "weather": 8104,
      "combat": 8105,
      "obese": 8106,
      "piglets": 8107,
      "senior": 8108,
      "proximal": 8109,
      "career": 8110,
      "niger": 8111,
      "responsive": 8112,
      "pak": 8113,
      "boundary": 8114,
      "harmful": 8115,
      "fungi": 8116,
      "confounding": 8117,
      "pers": 8118,
      "salmone": 8119,
      "reproduci": 8120,
      "sial": 8121,
      "easier": 8122,
      "pitation": 8123,
      "uninfected": 8124,
      "linking": 8125,
      "cervical": 8126,
      "supervision": 8127,
      "sports": 8128,
      "obstructive": 8129,
      "adver": 8130,
      "mpro": 8131,
      "escal": 8132,
      "disproportion": 8133,
      "pears": 8134,
      "suspended": 8135,
      "phones": 8136,
      "rabies": 8137,
      "coating": 8138,
      "aeruginosa": 8139,
      "psychosocial": 8140,
      "pore": 8141,
      "money": 8142,
      "eif": 8143,
      "exhaus": 8144,
      "fron": 8145,
      "norms": 8146,
      "likert": 8147,
      "cig": 8148,
      "regulates": 8149,
      "rub": 8150,
      "reversible": 8151,
      "marks": 8152,
      "sand": 8153,
      "clinician": 8154,
      "funds": 8155,
      "eradic": 8156,
      "kel": 8157,
      "chickens": 8158,
      "chemicals": 8159,
      "interference": 8160,
      "depri": 8161,
      "beijing": 8162,
      "designs": 8163,
      "hydrox": 8164,
      "email": 8165,
      "hoc": 8166,
      "transgenic": 8167,
      "tent": 8168,
      "societal": 8169,
      "gang": 8170,
      "yu": 8171,
      "subtype": 8172,
      "facilitating": 8173,
      "diarrho": 8174,
      "references": 8175,
      "ups": 8176,
      "corrected": 8177,
      "venue": 8178,
      "highlighting": 8179,
      "bearing": 8180,
      "fornia": 8181,
      "feline": 8182,
      "argued": 8183,
      "msc": 8184,
      "immunofluores": 8185,
      "swe": 8186,
      "neal": 8187,
      "lio": 8188,
      "dpp": 8189,
      "hm": 8190,
      "cleaved": 8191,
      "aldr": 8192,
      "essentially": 8193,
      "cycling": 8194,
      "palli": 8195,
      "clients": 8196,
      "machin": 8197,
      "beginaligned": 8198,
      "fiable": 8199,
      "162": 8200,
      "parametric": 8201,
      "defects": 8202,
      "158": 8203,
      "smokers": 8204,
      "004": 8205,
      "mammals": 8206,
      "scanning": 8207,
      "emerge": 8208,
      "enteritis": 8209,
      "relies": 8210,
      "avoided": 8211,
      "traits": 8212,
      "ayer": 8213,
      "aptam": 8214,
      "endaligned": 8215,
      "presentations": 8216,
      "commitment": 8217,
      "subunits": 8218,
      "denti": 8219,
      "db": 8220,
      "614": 8221,
      "mitochondria": 8222,
      "denote": 8223,
      "unemployment": 8224,
      "warning": 8225,
      "fiber": 8226,
      "debate": 8227,
      "v2": 8228,
      "really": 8229,
      "th2": 8230,
      "nen": 8231,
      "compute": 8232,
      "guideline": 8233,
      "names": 8234,
      "null": 8235,
      "custom": 8236,
      "dre": 8237,
      "jobs": 8238,
      "fitted": 8239,
      "philic": 8240,
      "zones": 8241,
      "experimentally": 8242,
      "tf": 8243,
      "anterior": 8244,
      "satur": 8245,
      "ao": 8246,
      "exacerbation": 8247,
      "relating": 8248,
      "civil": 8249,
      "cool": 8250,
      "clade": 8251,
      "tat": 8252,
      "centrifuged": 8253,
      "ingly": 8254,
      "virulent": 8255,
      "eukary": 8256,
      "logis": 8257,
      "definite": 8258,
      "diagnose": 8259,
      "oligonucleoti": 8260,
      "teacher": 8261,
      "drinking": 8262,
      "entirely": 8263,
      "ux": 8264,
      "stopped": 8265,
      "aldrich": 8266,
      "lessons": 8267,
      "entering": 8268,
      "impossible": 8269,
      "canine": 8270,
      "equity": 8271,
      "tish": 8272,
      "fire": 8273,
      "precipitation": 8274,
      "uis": 8275,
      "crispr": 8276,
      "asto": 8277,
      "goods": 8278,
      "saw": 8279,
      "exploring": 8280,
      "inequality": 8281,
      "organisation": 8282,
      "update": 8283,
      "dsrna": 8284,
      "ading": 8285,
      "designing": 8286,
      "hispanic": 8287,
      "customers": 8288,
      "zw": 8289,
      "aire": 8290,
      "incorporation": 8291,
      "propos": 8292,
      "multidisciplinary": 8293,
      "tus": 8294,
      "computation": 8295,
      "ptic": 8296,
      "controversi": 8297,
      "scheduled": 8298,
      "acs": 8299,
      "optimize": 8300,
      "inin": 8301,
      "anom": 8302,
      "hemato": 8303,
      "alkal": 8304,
      "prevents": 8305,
      "x1": 8306,
      "potenti": 8307,
      "uris": 8308,
      "roche": 8309,
      "dried": 8310,
      "foster": 8311,
      "adjusting": 8312,
      "detri": 8313,
      "ultra": 8314,
      "peptid": 8315,
      "huang": 8316,
      "thrombin": 8317,
      "zie": 8318,
      "sensory": 8319,
      "lineages": 8320,
      "carbohydr": 8321,
      "infarction": 8322,
      "ibd": 8323,
      "upstream": 8324,
      "7a": 8325,
      "phr": 8326,
      "strug": 8327,
      "univariate": 8328,
      "cd3": 8329,
      "worst": 8330,
      "marketing": 8331,
      "lichen": 8332,
      "anesthesia": 8333,
      "attractive": 8334,
      "counsel": 8335,
      "sheet": 8336,
      "surfact": 8337,
      "oo": 8338,
      "raise": 8339,
      "asal": 8340,
      "voluntary": 8341,
      "covers": 8342,
      "declined": 8343,
      "differentially": 8344,
      "eigen": 8345,
      "terror": 8346,
      "occl": 8347,
      "leaves": 8348,
      "ien": 8349,
      "hemorrhage": 8350,
      "viewed": 8351,
      "forecast": 8352,
      "facilitates": 8353,
      "tock": 8354,
      "centered": 8355,
      "gloves": 8356,
      "operator": 8357,
      "visualized": 8358,
      "default": 8359,
      "atri": 8360,
      "ario": 8361,
      "conve": 8362,
      "penicillin": 8363,
      "division": 8364,
      "aggregate": 8365,
      "hub": 8366,
      "microbiome": 8367,
      "ylation": 8368,
      "nad": 8369,
      "ift": 8370,
      "2h": 8371,
      "qiagen": 8372,
      "abstract": 8373,
      "168": 8374,
      "latest": 8375,
      "ic50": 8376,
      "myelo": 8377,
      "alleles": 8378,
      "tries": 8379,
      "regimens": 8380,
      "differed": 8381,
      "suffered": 8382,
      "inability": 8383,
      "amethasone": 8384,
      "evaluations": 8385,
      "editor": 8386,
      "retained": 8387,
      "qrt": 8388,
      "justice": 8389,
      "mapped": 8390,
      "athle": 8391,
      "habits": 8392,
      "goat": 8393,
      "gir": 8394,
      "correlates": 8395,
      "rising": 8396,
      "inputs": 8397,
      "190": 8398,
      "fellow": 8399,
      "stigma": 8400,
      "164": 8401,
      "viet": 8402,
      "kinds": 8403,
      "dosing": 8404,
      "egy": 8405,
      "agriculture": 8406,
      "entrepre": 8407,
      "pancreatic": 8408,
      "zika": 8409,
      "arabia": 8410,
      "ih": 8411,
      "classifier": 8412,
      "premature": 8413,
      "cct": 8414,
      "export": 8415,
      "uria": 8416,
      "subcutaneous": 8417,
      "wait": 8418,
      "cerebro": 8419,
      "paed": 8420,
      "transcriptase": 8421,
      "discover": 8422,
      "nationally": 8423,
      "ascertain": 8424,
      "initiate": 8425,
      "mda": 8426,
      "informatics": 8427,
      "substitutions": 8428,
      "dosage": 8429,
      "multip": 8430,
      "fruit": 8431,
      "worksho": 8432,
      "whitney": 8433,
      "rep": 8434,
      "distal": 8435,
      "forecasting": 8436,
      "responding": 8437,
      "aten": 8438,
      "strengths": 8439,
      "engaging": 8440,
      "trigg": 8441,
      "answered": 8442,
      "encountered": 8443,
      "ldh": 8444,
      "ees": 8445,
      "inhalation": 8446,
      "acorona": 8447,
      "logists": 8448,
      "california": 8449,
      "switch": 8450,
      "reper": 8451,
      "disseminated": 8452,
      "adder": 8453,
      "endpoint": 8454,
      "exploration": 8455,
      "hospitalizations": 8456,
      "itarian": 8457,
      "fiers": 8458,
      "realistic": 8459,
      "p005": 8460,
      "biofil": 8461,
      "homologous": 8462,
      "anticoagulation": 8463,
      "bayesian": 8464,
      "hemorrhagic": 8465,
      "dilutions": 8466,
      "capillary": 8467,
      "draft": 8468,
      "contract": 8469,
      "interfere": 8470,
      "replace": 8471,
      "clarify": 8472,
      "sas": 8473,
      "bsa": 8474,
      "leukemia": 8475,
      "b2": 8476,
      "notes": 8477,
      "tet": 8478,
      "asper": 8479,
      "cys": 8480,
      "chamber": 8481,
      "adesh": 8482,
      "biom": 8483,
      "triggers": 8484,
      "argument": 8485,
      "syncytial": 8486,
      "visions": 8487,
      "interactive": 8488,
      "inference": 8489,
      "burg": 8490,
      "denotes": 8491,
      "welling": 8492,
      "natal": 8493,
      "cvd": 8494,
      "equipped": 8495,
      "taste": 8496,
      "hur": 8497,
      "bour": 8498,
      "genetics": 8499,
      "signature": 8500,
      "185": 8501,
      "assembled": 8502,
      "_j": 8503,
      "cfr": 8504,
      "itory": 8505,
      "avoidance": 8506,
      "dor": 8507,
      "thic": 8508,
      "suppressed": 8509,
      "fashion": 8510,
      "echocardio": 8511,
      "nl63": 8512,
      "secretions": 8513,
      "precursor": 8514,
      "159": 8515,
      "australian": 8516,
      "esoph": 8517,
      "oration": 8518,
      "haplo": 8519,
      "pyl": 8520,
      "lockdowns": 8521,
      "retail": 8522,
      "turing": 8523,
      "peo": 8524,
      "crude": 8525,
      "secondly": 8526,
      "bund": 8527,
      "recipient": 8528,
      "quarter": 8529,
      "inserted": 8530,
      "informal": 8531,
      "tropical": 8532,
      "positioning": 8533,
      "ini": 8534,
      "systematically": 8535,
      "collectively": 8536,
      "173": 8537,
      "wanted": 8538,
      "tie": 8539,
      "algia": 8540,
      "bling": 8541,
      "permanent": 8542,
      "monol": 8543,
      "organisations": 8544,
      "coupling": 8545,
      "destru": 8546,
      "brile": 8547,
      "169": 8548,
      "eyes": 8549,
      "monocyte": 8550,
      "satisfied": 8551,
      "estimating": 8552,
      "ifns": 8553,
      "como": 8554,
      "accessed": 8555,
      "ranked": 8556,
      "alex": 8557,
      "modules": 8558,
      "counted": 8559,
      "tories": 8560,
      "encodes": 8561,
      "looked": 8562,
      "bases": 8563,
      "keywords": 8564,
      "brand": 8565,
      "presi": 8566,
      "dexamethasone": 8567,
      "hev": 8568,
      "encouraging": 8569,
      "procal": 8570,
      "hemoglobin": 8571,
      "complain": 8572,
      "liche": 8573,
      "disinfect": 8574,
      "pip": 8575,
      "ferre": 8576,
      "connectivity": 8577,
      "oct": 8578,
      "fifth": 8579,
      "enterpr": 8580,
      "febrile": 8581,
      "decay": 8582,
      "hpi": 8583,
      "myelin": 8584,
      "ighten": 8585,
      "multivariable": 8586,
      "muc": 8587,
      "molar": 8588,
      "amps": 8589,
      "developments": 8590,
      "survive": 8591,
      "bowel": 8592,
      "ambig": 8593,
      "confirming": 8594,
      "asc": 8595,
      "exosomes": 8596,
      "economies": 8597,
      "entro": 8598,
      "rum": 8599,
      "mining": 8600,
      "pathogenicity": 8601,
      "governmental": 8602,
      "r1": 8603,
      "enhances": 8604,
      "thousands": 8605,
      "collecting": 8606,
      "migrant": 8607,
      "feces": 8608,
      "nony": 8609,
      "utable": 8610,
      "campus": 8611,
      "calibration": 8612,
      "appropriately": 8613,
      "diction": 8614,
      "census": 8615,
      "adam": 8616,
      "lymphoid": 8617,
      "panels": 8618,
      "flux": 8619,
      "l2": 8620,
      "resonance": 8621,
      "esia": 8622,
      "wealth": 8623,
      "worry": 8624,
      "tage": 8625,
      "wro": 8626,
      "stimulating": 8627,
      "1986": 8628,
      "1987": 8629,
      "immunomodulatory": 8630,
      "heavily": 8631,
      "wed": 8632,
      "synony": 8633,
      "onuclear": 8634,
      "liers": 8635,
      "drivers": 8636,
      "opacities": 8637,
      "globe": 8638,
      "afts": 8639,
      "till": 8640,
      "cellul": 8641,
      "credit": 8642,
      "opho": 8643,
      "labels": 8644,
      "warm": 8645,
      "lus": 8646,
      "inverse": 8647,
      "hcw": 8648,
      "serology": 8649,
      "freedom": 8650,
      "robot": 8651,
      "172": 8652,
      "coal": 8653,
      "pertur": 8654,
      "recurrence": 8655,
      "indigenous": 8656,
      "chart": 8657,
      "a549": 8658,
      "facebook": 8659,
      "ensity": 8660,
      "exacerbations": 8661,
      "ola": 8662,
      "avas": 8663,
      "seed": 8664,
      "bangl": 8665,
      "hon": 8666,
      "deviations": 8667,
      "trajectories": 8668,
      "straight": 8669,
      "wet": 8670,
      "colonization": 8671,
      "modeled": 8672,
      "communications": 8673,
      "lymphopenia": 8674,
      "thio": 8675,
      "methylation": 8676,
      "atcc": 8677,
      "concurrent": 8678,
      "speech": 8679,
      "store": 8680,
      "consuming": 8681,
      "contracting": 8682,
      "sweden": 8683,
      "obstruction": 8684,
      "dissoci": 8685,
      "myocarditis": 8686,
      "thrombocytopenia": 8687,
      "solely": 8688,
      "unrelated": 8689,
      "attempted": 8690,
      "metap": 8691,
      "differently": 8692,
      "icious": 8693,
      "mathrm": 8694,
      "noticed": 8695,
      "trave": 8696,
      "stressors": 8697,
      "encounter": 8698,
      "propensity": 8699,
      "crine": 8700,
      "immunohisto": 8701,
      "matric": 8702,
      "bronchio": 8703,
      "lymphoma": 8704,
      "branch": 8705,
      "specialist": 8706,
      "repur": 8707,
      "comprises": 8708,
      "contagion": 8709,
      "dmso": 8710,
      "inspi": 8711,
      "rows": 8712,
      "anc": 8713,
      "registration": 8714,
      "dous": 8715,
      "announced": 8716,
      "clustered": 8717,
      "relapse": 8718,
      "igno": 8719,
      "poc": 8720,
      "resses": 8721,
      "prostate": 8722,
      "residence": 8723,
      "pcv": 8724,
      "zzy": 8725,
      "opposed": 8726,
      "alert": 8727,
      "dop": 8728,
      "lambda": 8729,
      "isra": 8730,
      "agtt": 8731,
      "hybridization": 8732,
      "silver": 8733,
      "manually": 8734,
      "park": 8735,
      "orb": 8736,
      "leader": 8737,
      "g1": 8738,
      "gps": 8739,
      "destruction": 8740,
      "coordinated": 8741,
      "sten": 8742,
      "machinery": 8743,
      "melano": 8744,
      "pharmacists": 8745,
      "colony": 8746,
      "generates": 8747,
      "tok": 8748,
      "funded": 8749,
      "excre": 8750,
      "precisely": 8751,
      "livestock": 8752,
      "canadi": 8753,
      "asym": 8754,
      "salmonella": 8755,
      "aggregated": 8756,
      "192": 8757,
      "tracts": 8758,
      "pathy": 8759,
      "forcement": 8760,
      "solic": 8761,
      "boot": 8762,
      "batch": 8763,
      "intu": 8764,
      "congenital": 8765,
      "denoted": 8766,
      "aqu": 8767,
      "problematic": 8768,
      "itoneal": 8769,
      "style": 8770,
      "hun": 8771,
      "positives": 8772,
      "researcher": 8773,
      "reconstruction": 8774,
      "contextual": 8775,
      "flag": 8776,
      "scarce": 8777,
      "acknowledge": 8778,
      "offering": 8779,
      "etary": 8780,
      "serotypes": 8781,
      "210": 8782,
      "ague": 8783,
      "isher": 8784,
      "aemia": 8785,
      "snps": 8786,
      "frameshif": 8787,
      "bronchi": 8788,
      "belongs": 8789,
      "therapie": 8790,
      "iton": 8791,
      "emphasized": 8792,
      "drain": 8793,
      "police": 8794,
      "incorporating": 8795,
      "intel": 8796,
      "grand": 8797,
      "sided": 8798,
      "hosph": 8799,
      "integral": 8800,
      "detrimental": 8801,
      "pearson": 8802,
      "glycer": 8803,
      "ambient": 8804,
      "peoples": 8805,
      "calf": 8806,
      "strictly": 8807,
      "myeloid": 8808,
      "nationwide": 8809,
      "161": 8810,
      "attract": 8811,
      "enrollment": 8812,
      "deployed": 8813,
      "anemia": 8814,
      "alternatives": 8815,
      "fibroblasts": 8816,
      "landscape": 8817,
      "specialists": 8818,
      "220": 8819,
      "walking": 8820,
      "selecting": 8821,
      "ischem": 8822,
      "homogeneous": 8823,
      "pressures": 8824,
      "95ci": 8825,
      "plausible": 8826,
      "t3": 8827,
      "mexico": 8828,
      "sugar": 8829,
      "smell": 8830,
      "definitive": 8831,
      "carb": 8832,
      "anted": 8833,
      "roughly": 8834,
      "aqueous": 8835,
      "thorax": 8836,
      "n9": 8837,
      "preferen": 8838,
      "whee": 8839,
      "exhibits": 8840,
      "hidden": 8841,
      "plane": 8842,
      "amplic": 8843,
      "walk": 8844,
      "stret": 8845,
      "ensu": 8846,
      "fuzzy": 8847,
      "probio": 8848,
      "cron": 8849,
      "classic": 8850,
      "laws": 8851,
      "adequately": 8852,
      "caring": 8853,
      "zt": 8854,
      "island": 8855,
      "fuel": 8856,
      "addi": 8857,
      "reo": 8858,
      "immunofluorescence": 8859,
      "shortness": 8860,
      "itors": 8861,
      "insecurity": 8862,
      "pollutants": 8863,
      "tack": 8864,
      "tier": 8865,
      "portal": 8866,
      "synchron": 8867,
      "misinformation": 8868,
      "cigare": 8869,
      "cab": 8870,
      "directions": 8871,
      "biotin": 8872,
      "epig": 8873,
      "malay": 8874,
      "tended": 8875,
      "nuclei": 8876,
      "paediatric": 8877,
      "lesser": 8878,
      "confusion": 8879,
      "toxins": 8880,
      "connect": 8881,
      "abdo": 8882,
      "asperg": 8883,
      "mmp": 8884,
      "convenience": 8885,
      "canon": 8886,
      "film": 8887,
      "ventilated": 8888,
      "wage": 8889,
      "ulmonary": 8890,
      "americans": 8891,
      "handle": 8892,
      "someone": 8893,
      "integrate": 8894,
      "disp": 8895,
      "anticoagul": 8896,
      "icus": 8897,
      "chemokine": 8898,
      "repos": 8899,
      "homogen": 8900,
      "5c": 8901,
      "onder": 8902,
      "disagree": 8903,
      "ode": 8904,
      "amid": 8905,
      "ltd": 8906,
      "striking": 8907,
      "modalities": 8908,
      "crs": 8909,
      "statistic": 8910,
      "eper": 8911,
      "continuation": 8912,
      "ofib": 8913,
      "s6": 8914,
      "learners": 8915,
      "aat": 8916,
      "ecg": 8917,
      "warranted": 8918,
      "wrote": 8919,
      "quantities": 8920,
      "ede": 8921,
      "penetration": 8922,
      "microarray": 8923,
      "runs": 8924,
      "tude": 8925,
      "bru": 8926,
      "install": 8927,
      "customer": 8928,
      "spirit": 8929,
      "modest": 8930,
      "defen": 8931,
      "ressing": 8932,
      "matrices": 8933,
      "eta": 8934,
      "engineered": 8935,
      "diarrhoea": 8936,
      "narrative": 8937,
      "helping": 8938,
      "kcalmol": 8939,
      "hil": 8940,
      "labeling": 8941,
      "transcribed": 8942,
      "electrophoresis": 8943,
      "okine": 8944,
      "seemed": 8945,
      "spending": 8946,
      "e1": 8947,
      "nause": 8948,
      "ect": 8949,
      "inhaled": 8950,
      "smartphone": 8951,
      "robustness": 8952,
      "lity": 8953,
      "rc": 8954,
      "episo": 8955,
      "pathophysiology": 8956,
      "f2": 8957,
      "182": 8958,
      "240": 8959,
      "arbit": 8960,
      "este": 8961,
      "ills": 8962,
      "empo": 8963,
      "aine": 8964,
      "grams": 8965,
      "residential": 8966,
      "opinions": 8967,
      "glucocortico": 8968,
      "tang": 8969,
      "hydration": 8970,
      "prism": 8971,
      "zeit": 8972,
      "egfr": 8973,
      "illum": 8974,
      "pn": 8975,
      "truth": 8976,
      "restaur": 8977,
      "affili": 8978,
      "controversial": 8979,
      "edta": 8980,
      "orna": 8981,
      "slic": 8982,
      "backbone": 8983,
      "attributable": 8984,
      "p00": 8985,
      "prot": 8986,
      "behavioural": 8987,
      "rigorous": 8988,
      "jack": 8989,
      "rejection": 8990,
      "microbes": 8991,
      "smith": 8992,
      "cocci": 8993,
      "tium": 8994,
      "navig": 8995,
      "eb": 8996,
      "searched": 8997,
      "deployment": 8998,
      "mf": 8999,
      "uling": 9000,
      "alanine": 9001,
      "alongside": 9002,
      "healing": 9003,
      "functionality": 9004,
      "elicited": 9005,
      "sport": 9006,
      "offici": 9007,
      "aed": 9008,
      "manifestation": 9009,
      "windows": 9010,
      "microglia": 9011,
      "camera": 9012,
      "epile": 9013,
      "neonates": 9014,
      "vlps": 9015,
      "deceased": 9016,
      "mble": 9017,
      "nephro": 9018,
      "expir": 9019,
      "hierarchical": 9020,
      "workflow": 9021,
      "exert": 9022,
      "translocation": 9023,
      "allergen": 9024,
      "budget": 9025,
      "hormone": 9026,
      "coughing": 9027,
      "cttt": 9028,
      "everyone": 9029,
      "tropism": 9030,
      "1ab": 9031,
      "leukocyte": 9032,
      "inflammasome": 9033,
      "authen": 9034,
      "resemb": 9035,
      "anch": 9036,
      "licensed": 9037,
      "suggestive": 9038,
      "tailed": 9039,
      "suspic": 9040,
      "permit": 9041,
      "invent": 9042,
      "approximation": 9043,
      "mentation": 9044,
      "credi": 9045,
      "adsorption": 9046,
      "phenomena": 9047,
      "empty": 9048,
      "methodological": 9049,
      "conditioning": 9050,
      "territor": 9051,
      "nlrp3": 9052,
      "dehydrogen": 9053,
      "ensemble": 9054,
      "iert": 9055,
      "performs": 9056,
      "dye": 9057,
      "priorities": 9058,
      "nsp1": 9059,
      "cronbach": 9060,
      "174": 9061,
      "starts": 9062,
      "rech": 9063,
      "begindocumentbeginaligned": 9064,
      "contribut": 9065,
      "formulated": 9066,
      "188": 9067,
      "regards": 9068,
      "regulator": 9069,
      "furin": 9070,
      "communicate": 9071,
      "relatives": 9072,
      "transduction": 9073,
      "officials": 9074,
      "biases": 9075,
      "elicit": 9076,
      "psychiat": 9077,
      "189": 9078,
      "moved": 9079,
      "introducing": 9080,
      "distant": 9081,
      "tlr4": 9082,
      "pubmed": 9083,
      "please": 9084,
      "stack": 9085,
      "speaking": 9086,
      "rer": 9087,
      "unusual": 9088,
      "centi": 9089,
      "amus": 9090,
      "employing": 9091,
      "1985": 9092,
      "apparently": 9093,
      "logically": 9094,
      "oce": 9095,
      "isofor": 9096,
[...]
