{
  "version": "1.0",
  "truncation": null,
  "padding": null,
  "added_tokens": [
    {
      "id": 0,
      "content": "[UNK]",
      "single_word": false,
      "lstrip": false,
      "rstrip": false,
      "normalized": false,
      "special": true
    },
    {
      "id": 1,
      "content": "[CLS]",
      "single_word": false,
      "lstrip": false,
      "rstrip": false,
      "normalized": false,
      "special": true
    },
    {
      "id": 2,
      "content": "[SEP]",
      "single_word": false,
      "lstrip": false,
      "rstrip": false,
      "normalized": false,
      "special": true
    },
    {
      "id": 3,
      "content": "[PAD]",
      "single_word": false,
      "lstrip": false,
      "rstrip": false,
      "normalized": false,
      "special": true
    },
    {
      "id": 4,
      "content": "[MASK]",
      "single_word": false,
      "lstrip": false,
      "rstrip": false,
      "normalized": false,
      "special": true
    }
  ],
  "normalizer": null,
  "pre_tokenizer": {
    "type": "Whitespace"
  },
  "post_processor": null,
  "decoder": null,
  "model": {
    "type": "BPE",
    "dropout": null,
    "unk_token": "[UNK]",
    "continuing_subword_prefix": null,
    "end_of_word_suffix": null,
    "fuse_unk": false,
    "vocab": {
      "[UNK]": 0,
      "[CLS]": 1,
      "[SEP]": 2,
      "[PAD]": 3,
      "[MASK]": 4,
      "!": 5,
      "\"": 6,
      "#": 7,
      "$": 8,
      "%": 9,
      "&": 10,
      "'": 11,
      "(": 12,
      ")": 13,
      "*": 14,
      "+": 15,
      ",": 16,
      "-": 17,
      ".": 18,
      "/": 19,
      "0": 20,
      "1": 21,
      "2": 22,
      "3": 23,
      "4": 24,
      "5": 25,
      "6": 26,
      "7": 27,
      "8": 28,
      "9": 29,
      ":": 30,
      ";": 31,
      "<": 32,
      "=": 33,
      ">": 34,
      "?": 35,
      "@": 36,
      "A": 37,
      "B": 38,
      "C": 39,
      "D": 40,
      "E": 41,
      "F": 42,
      "G": 43,
      "H": 44,
      "I": 45,
      "J": 46,
      "K": 47,
      "L": 48,
      "M": 49,
      "N": 50,
      "O": 51,
      "P": 52,
      "Q": 53,
      "R": 54,
      "S": 55,
      "T": 56,
      "U": 57,
      "V": 58,
      "W": 59,
      "X": 60,
      "Y": 61,
      "Z": 62,
      "[": 63,
      "\\": 64,
      "]": 65,
      "^": 66,
      "_": 67,
      "`": 68,
      "a": 69,
      "b": 70,
      "c": 71,
      "d": 72,
      "e": 73,
      "f": 74,
      "g": 75,
      "h": 76,
      "i": 77,
      "j": 78,
      "k": 79,
      "l": 80,
      "m": 81,
      "n": 82,
      "o": 83,
      "p": 84,
      "q": 85,
      "r": 86,
      "s": 87,
      "t": 88,
      "u": 89,
      "v": 90,
      "w": 91,
      "x": 92,
      "y": 93,
      "z": 94,
      "{": 95,
      "|": 96,
      "}": 97,
      "~": 98,
      "": 99,
      "¡": 100,
      "¢": 101,
      "£": 102,
      "¤": 103,
      "¥": 104,
      "¦": 105,
      "§": 106,
      "¨": 107,
      "©": 108,
      "ª": 109,
      "«": 110,
      "¬": 111,
      "­": 112,
      "®": 113,
      "¯": 114,
      "°": 115,
      "±": 116,
      "²": 117,
      "³": 118,
      "´": 119,
      "µ": 120,
      "¶": 121,
      "·": 122,
      "¸": 123,
      "¹": 124,
      "º": 125,
      "»": 126,
      "¼": 127,
      "½": 128,
      "¾": 129,
      "¿": 130,
      "À": 131,
      "Á": 132,
      "Â": 133,
      "Ã": 134,
      "Ä": 135,
      "Å": 136,
      "Æ": 137,
      "Ç": 138,
      "È": 139,
      "É": 140,
      "Ê": 141,
      "Ë": 142,
      "Ì": 143,
      "Í": 144,
      "Î": 145,
      "Ï": 146,
      "Ð": 147,
      "Ñ": 148,
      "Ò": 149,
      "Ó": 150,
      "Ô": 151,
      "Õ": 152,
      "Ö": 153,
      "×": 154,
      "Ø": 155,
      "Ù": 156,
      "Ú": 157,
      "Û": 158,
      "Ü": 159,
      "Ý": 160,
      "Þ": 161,
      "ß": 162,
      "à": 163,
      "á": 164,
      "â": 165,
      "ã": 166,
      "ä": 167,
      "å": 168,
      "æ": 169,
      "ç": 170,
      "è": 171,
      "é": 172,
      "ê": 173,
      "ë": 174,
      "ì": 175,
      "í": 176,
      "î": 177,
      "ï": 178,
      "ð": 179,
      "ñ": 180,
      "ò": 181,
      "ó": 182,
      "ô": 183,
      "õ": 184,
      "ö": 185,
      "÷": 186,
      "ø": 187,
      "ù": 188,
      "ú": 189,
      "û": 190,
      "ü": 191,
      "ý": 192,
      "þ": 193,
      "ÿ": 194,
      "Ā": 195,
      "ā": 196,
      "Ă": 197,
      "ă": 198,
      "Ą": 199,
      "ą": 200,
      "Ć": 201,
      "ć": 202,
      "Ĉ": 203,
      "ĉ": 204,
      "Ċ": 205,
      "ċ": 206,
      "Č": 207,
      "č": 208,
      "Ď": 209,
      "ď": 210,
      "Đ": 211,
      "đ": 212,
      "Ē": 213,
      "ē": 214,
      "Ĕ": 215,
      "ĕ": 216,
      "Ė": 217,
      "ė": 218,
      "Ę": 219,
      "ę": 220,
      "Ě": 221,
      "ě": 222,
      "Ĝ": 223,
      "ĝ": 224,
      "Ğ": 225,
      "ğ": 226,
      "Ġ": 227,
      "ġ": 228,
      "Ĥ": 229,
      "ĥ": 230,
      "Ħ": 231,
      "ħ": 232,
      "Ĩ": 233,
      "ĩ": 234,
      "Ī": 235,
      "ī": 236,
      "Ĭ": 237,
      "ĭ": 238,
      "Į": 239,
      "į": 240,
      "İ": 241,
      "ı": 242,
      "Ĳ": 243,
      "ĳ": 244,
      "Ĵ": 245,
      "ĵ": 246,
      "Ķ": 247,
      "ķ": 248,
      "ĸ": 249,
      "Ĺ": 250,
      "ĺ": 251,
      "ļ": 252,
      "Ľ": 253,
      "ľ": 254,
      "Ł": 255,
      "ł": 256,
      "Ń": 257,
      "ń": 258,
      "Ņ": 259,
      "ņ": 260,
      "Ň": 261,
      "ň": 262,
      "ŉ": 263,
      "ŋ": 264,
      "Ō": 265,
      "ō": 266,
      "Ŏ": 267,
      "ŏ": 268,
      "Ő": 269,
      "ő": 270,
      "Œ": 271,
      "œ": 272,
      "Ŕ": 273,
      "ŕ": 274,
      "Ŗ": 275,
      "ŗ": 276,
      "Ř": 277,
      "ř": 278,
      "Ś": 279,
      "ś": 280,
      "Ŝ": 281,
      "ŝ": 282,
      "Ş": 283,
      "ş": 284,
      "Š": 285,
      "š": 286,
      "Ţ": 287,
      "ţ": 288,
      "Ť": 289,
      "ť": 290,
      "Ŧ": 291,
      "ŧ": 292,
      "Ũ": 293,
      "ũ": 294,
      "Ū": 295,
      "ū": 296,
      "Ŭ": 297,
      "ŭ": 298,
      "Ů": 299,
      "ů": 300,
      "Ű": 301,
      "ű": 302,
      "ų": 303,
      "Ŵ": 304,
      "ŵ": 305,
      "Ŷ": 306,
      "ŷ": 307,
      "Ÿ": 308,
      "Ź": 309,
      "ź": 310,
      "Ż": 311,
      "ż": 312,
      "Ž": 313,
      "ž": 314,
      "ſ": 315,
      "Ɓ": 316,
      "ƃ": 317,
      "Ɖ": 318,
      "Ƌ": 319,
      "ƌ": 320,
      "ƍ": 321,
      "Ɛ": 322,
      "Ƒ": 323,
      "ƒ": 324,
      "Ɣ": 325,
      "Ɨ": 326,
      "Ƙ": 327,
      "ƙ": 328,
      "ƚ": 329,
      "ƛ": 330,
      "Ɯ": 331,
      "Ɲ": 332,
      "ƞ": 333,
      "Ɵ": 334,
      "ơ": 335,
      "ƣ": 336,
      "Ʀ": 337,
      "Ʃ": 338,
      "ƪ": 339,
      "ƫ": 340,
      "Ƭ": 341,
      "Ʈ": 342,
      "ư": 343,
      "Ƴ": 344,
      "ƴ": 345,
      "Ƶ": 346,
      "Ʒ": 347,
      "Ƹ": 348,
      "ƹ": 349,
      "ƺ": 350,
      "ǀ": 351,
      "ǁ": 352,
      "ǂ": 353,
      "ǃ": 354,
      "ǆ": 355,
      "Ǉ": 356,
      "ǌ": 357,
      "Ǎ": 358,
      "ǎ": 359,
      "Ǐ": 360,
      "ǐ": 361,
      "Ǒ": 362,
      "ǒ": 363,
      "ǔ": 364,
      "ǖ": 365,
      "ǚ": 366,
      "ǝ": 367,
      "Ǟ": 368,
      "ǡ": 369,
      "ǣ": 370,
      "ǥ": 371,
      "Ǧ": 372,
      "ǧ": 373,
      "Ǩ": 374,
      "ǩ": 375,
      "Ǫ": 376,
      "ǫ": 377,
      "ǭ": 378,
      "ǲ": 379,
      "Ǵ": 380,
      "ǵ": 381,
      "ǹ": 382,
      "Ǻ": 383,
      "ǻ": 384,
      "ǽ": 385,
      "Ǿ": 386,
      "ǿ": 387,
      "ȁ": 388,
      "Ȃ": 389,
      "ȃ": 390,
      "Ȅ": 391,
      "ȅ": 392,
      "Ȇ": 393,
      "ȇ": 394,
      "ȉ": 395,
      "Ȋ": 396,
      "ȋ": 397,
      "ȍ": 398,
      "ȏ": 399,
      "Ȑ": 400,
      "ȑ": 401,
      "Ȓ": 402,
      "ȓ": 403,
      "ȕ": 404,
      "Ȗ": 405,
      "ȗ": 406,
      "Ș": 407,
      "ș": 408,
      "Ț": 409,
      "ț": 410,
      "Ȝ": 411,
      "ȝ": 412,
      "Ȟ": 413,
      "ȟ": 414,
      "Ƞ": 415,
      "ȣ": 416,
      "Ȥ": 417,
      "Ȧ": 418,
      "ȧ": 419,
      "ȩ": 420,
      "Ȫ": 421,
      "Ȯ": 422,
      "ȯ": 423,
      "Ȳ": 424,
      "ȳ": 425,
      "ȷ": 426,
      "ȹ": 427,
      "Ȼ": 428,
      "ɀ": 429,
      "Ʌ": 430,
      "Ɇ": 431,
      "ɑ": 432,
      "ɒ": 433,
      "ɔ": 434,
      "ɗ": 435,
      "ə": 436,
      "ɛ": 437,
      "ɜ": 438,
      "ɝ": 439,
      "ɡ": 440,
      "ɣ": 441,
      "ɤ": 442,
      "ɥ": 443,
      "ɦ": 444,
      "ɨ": 445,
      "ɩ": 446,
      "ɪ": 447,
      "ɫ": 448,
      "ɬ": 449,
      "ɱ": 450,
      "ɳ": 451,
      "ɴ": 452,
      "ɵ": 453,
      "ɷ": 454,
      "ɸ": 455,
      "ɹ": 456,
      "ɽ": 457,
      "ɾ": 458,
      "ʀ": 459,
      "ʂ": 460,
      "ʃ": 461,
      "ʇ": 462,
      "ʈ": 463,
      "ʊ": 464,
      "ʋ": 465,
      "ʌ": 466,
      "ʎ": 467,
      "ʒ": 468,
      "ʘ": 469,
      "ʟ": 470,
      "ʦ": 471,
      "ʧ": 472,
      "ʰ": 473,
      "ʷ": 474,
      "ʹ": 475,
      "ʺ": 476,
      "ʻ": 477,
      "ʼ": 478,
      "ʽ": 479,
      "ʾ": 480,
      "ʿ": 481,
      "˂": 482,
      "˃": 483,
      "˄": 484,
      "˅": 485,
      "ˆ": 486,
      "ˇ": 487,
      "ˈ": 488,
      "ˉ": 489,
      "ˊ": 490,
      "ˋ": 491,
      "ː": 492,
      "ˑ": 493,
      "˖": 494,
      "˗": 495,
      "˘": 496,
      "˙": 497,
      "˚": 498,
      "˛": 499,
      "˜": 500,
      "˝": 501,
      "˟": 502,
      "ˠ": 503,
      "ˣ": 504,
      "˥": 505,
      "˧": 506,
      "˨": 507,
      "˩": 508,
      "ˮ": 509,
      "˳": 510,
      "˵": 511,
      "˶": 512,
      "˷": 513,
      "˸": 514,
      "̀": 515,
      "́": 516,
      "̂": 517,
      "̃": 518,
      "̄": 519,
      "̅": 520,
      "̆": 521,
      "̇": 522,
      "̈": 523,
      "̊": 524,
      "̋": 525,
      "̌": 526,
      "̍": 527,
      "̏": 528,
      "̓": 529,
      "̕": 530,
      "̟": 531,
      "̠": 532,
      "̣": 533,
      "̥": 534,
      "̧": 535,
      "̨": 536,
      "̩": 537,
      "̰": 538,
      "̱": 539,
      "̴": 540,
      "̵": 541,
      "̶": 542,
      "̸": 543,
      "̺": 544,
      "̿": 545,
      "́": 546,
      "͂": 547,
      "͉": 548,
      "͌": 549,
      "͏": 550,
      "͑": 551,
      "͒": 552,
      "͓": 553,
      "͔": 554,
      "͕": 555,
      "͗": 556,
      "͘": 557,
      "͚": 558,
      "͛": 559,
      "͞": 560,
      "͠": 561,
      "ͦ": 562,
      "ͩ": 563,
      "ͪ": 564,
      "ͫ": 565,
      "ͬ": 566,
      "Ͱ": 567,
      "ͱ": 568,
      "Ͳ": 569,
      "ʹ": 570,
      ";": 571,
      "Ϳ": 572,
      "΄": 573,
      "΅": 574,
      "Ά": 575,
      "·": 576,
      "Ή": 577,
      "Ί": 578,
      "Ό": 579,
      "Ύ": 580,
      "Ώ": 581,
      "ΐ": 582,
      "Α": 583,
      "Β": 584,
      "Γ": 585,
      "Δ": 586,
      "Ε": 587,
      "Ζ": 588,
      "Η": 589,
      "Θ": 590,
      "Ι": 591,
      "Κ": 592,
      "Λ": 593,
      "Μ": 594,
      "Ν": 595,
      "Ξ": 596,
      "Ο": 597,
      "Π": 598,
      "Ρ": 599,
      "Σ": 600,
      "Τ": 601,
      "Υ": 602,
      "Φ": 603,
      "Χ": 604,
      "Ψ": 605,
      "Ω": 606,
      "ά": 607,
      "έ": 608,
      "ή": 609,
      "ί": 610,
      "ΰ": 611,
      "α": 612,
      "β": 613,
      "γ": 614,
      "δ": 615,
      "ε": 616,
      "ζ": 617,
      "η": 618,
      "θ": 619,
      "ι": 620,
      "κ": 621,
      "λ": 622,
      "μ": 623,
      "ν": 624,
      "ξ": 625,
      "ο": 626,
      "π": 627,
      "ρ": 628,
      "ς": 629,
      "σ": 630,
      "τ": 631,
      "υ": 632,
      "φ": 633,
      "χ": 634,
      "ψ": 635,
      "ω": 636,
      "ϊ": 637,
      "ϋ": 638,
      "ό": 639,
      "ύ": 640,
      "ώ": 641,
      "ϐ": 642,
      "ϑ": 643,
      "ϒ": 644,
      "ϓ": 645,
      "ϕ": 646,
      "ϖ": 647,
      "ϗ": 648,
      "Ϙ": 649,
      "Ϛ": 650,
      "ϛ": 651,
      "Ϝ": 652,
      "ϝ": 653,
      "ϟ": 654,
      "ϡ": 655,
      "ϩ": 656,
      "Ϫ": 657,
      "ϫ": 658,
      "Ϭ": 659,
      "ϭ": 660,
      "Ϯ": 661,
      "ϯ": 662,
      "ϰ": 663,
      "ϱ": 664,
      "ϲ": 665,
      "ϳ": 666,
      "ϴ": 667,
      "ϵ": 668,
      "϶": 669,
      "Ϸ": 670,
      "Ϲ": 671,
      "Ϻ": 672,
      "ϻ": 673,
      "ϼ": 674,
      "Ͻ": 675,
      "Ͼ": 676,
      "Ѐ": 677,
      "Ѓ": 678,
      "Є": 679,
      "Ѕ": 680,
      "І": 681,
      "Ј": 682,
      "Љ": 683,
      "Њ": 684,
      "А": 685,
      "Б": 686,
      "В": 687,
      "Г": 688,
      "Д": 689,
      "Е": 690,
      "Ж": 691,
      "З": 692,
      "И": 693,
      "К": 694,
      "Л": 695,
      "М": 696,
      "Н": 697,
      "О": 698,
      "П": 699,
      "Р": 700,
      "С": 701,
      "Т": 702,
      "У": 703,
      "Ф": 704,
      "Х": 705,
      "Ц": 706,
      "Ч": 707,
      "Ш": 708,
      "Щ": 709,
      "Э": 710,
      "Ю": 711,
      "Я": 712,
      "а": 713,
      "б": 714,
      "в": 715,
      "г": 716,
      "д": 717,
      "е": 718,
      "ж": 719,
      "з": 720,
      "и": 721,
      "й": 722,
      "к": 723,
      "л": 724,
      "м": 725,
      "н": 726,
      "о": 727,
      "п": 728,
      "р": 729,
      "с": 730,
      "т": 731,
      "у": 732,
      "ф": 733,
      "х": 734,
      "ц": 735,
      "ч": 736,
      "ш": 737,
      "щ": 738,
      "ъ": 739,
      "ы": 740,
      "ь": 741,
      "э": 742,
      "ю": 743,
      "я": 744,
      "ѐ": 745,
      "ё": 746,
      "ђ": 747,
      "ѓ": 748,
      "є": 749,
      "ѕ": 750,
      "і": 751,
      "ї": 752,
      "љ": 753,
      "њ": 754,
      "ћ": 755,
      "ќ": 756,
      "ў": 757,
      "џ": 758,
      "Ѡ": 759,
      "ѡ": 760,
      "Ѣ": 761,
      "ѧ": 762,
      "Ѩ": 763,
      "Ѫ": 764,
      "Ѭ": 765,
      "Ѱ": 766,
      "ѱ": 767,
      "Ѳ": 768,
      "ѳ": 769,
      "Ѵ": 770,
      "ѵ": 771,
      "҂": 772,
      "҆": 773,
      "Ґ": 774,
      "ґ": 775,
      "Ғ": 776,
      "ғ": 777,
      "җ": 778,
      "Қ": 779,
      "қ": 780,
      "ҝ": 781,
      "ҟ": 782,
      "ҡ": 783,
      "ң": 784,
      "Ҫ": 785,
      "ҫ": 786,
      "ү": 787,
      "Ұ": 788,
      "ұ": 789,
      "Ӏ": 790,
      "Ӎ": 791,
      "ӑ": 792,
      "Ӓ": 793,
      "ӓ": 794,
      "Ӕ": 795,
      "ӗ": 796,
      "ә": 797,
      "Ӧ": 798,
      "ӧ": 799,
      "Ө": 800,
      "ө": 801,
      "Ԅ": 802,
      "Ԏ": 803,
      "Ԑ": 804,
      "ԑ": 805,
      "ԛ": 806,
      "Ԣ": 807,
      "Ԧ": 808,
      "Ԩ": 809,
      "Լ": 810,
      "Խ": 811,
      "Յ": 812,
      "Ն": 813,
      "Շ": 814,
      "Ո": 815,
      "Փ": 816,
      "՛": 817,
      "՜": 818,
      "՞": 819,
      "՟": 820,
      "հ": 821,
      "ղ": 822,
      "ս": 823,
      "տ": 824,
      "ր": 825,
      "ց": 826,
      "ւ": 827,
      "օ": 828,
      "։": 829,
      "֒": 830,
      "֯": 831,
      "ְ": 832,
      "ִ": 833,
      "ֵ": 834,
      "ֶ": 835,
      "ַ": 836,
      "ֹ": 837,
      "ּ": 838,
      "׀": 839,
      "ׁ": 840,
      "ׄ": 841,
      "א": 842,
      "ב": 843,
      "ג": 844,
      "ד": 845,
      "ה": 846,
      "ו": 847,
      "ז": 848,
      "ח": 849,
      "ט": 850,
      "י": 851,
      "כ": 852,
      "ל": 853,
      "ם": 854,
      "מ": 855,
      "ן": 856,
      "נ": 857,
      "ס": 858,
      "ע": 859,
      "פ": 860,
      "ק": 861,
      "ר": 862,
      "ש": 863,
      "ת": 864,
      "׳": 865,
      "״": 866,
      "؆": 867,
      "؇": 868,
      "؉": 869,
      "؊": 870,
      "؋": 871,
      "،": 872,
      "؍": 873,
      "؎": 874,
      "؛": 875,
      "؟": 876,
      "ؠ": 877,
      "ء": 878,
      "آ": 879,
      "أ": 880,
      "ؤ": 881,
      "إ": 882,
      "ئ": 883,
      "ا": 884,
      "ب": 885,
      "ة": 886,
      "ت": 887,
      "ث": 888,
      "ج": 889,
      "ح": 890,
      "خ": 891,
      "د": 892,
      "ذ": 893,
      "ر": 894,
      "ز": 895,
      "س": 896,
      "ش": 897,
      "ص": 898,
      "ض": 899,
      "ط": 900,
      "ظ": 901,
      "ع": 902,
      "غ": 903,
      "ـ": 904,
      "ف": 905,
      "ق": 906,
      "ك": 907,
      "ل": 908,
      "م": 909,
      "ن": 910,
      "ه": 911,
      "و": 912,
      "ى": 913,
      "ي": 914,
      "ً": 915,
      "ٌ": 916,
      "ٍ": 917,
      "َ": 918,
      "ُ": 919,
      "ِ": 920,
      "ّ": 921,
      "ْ": 922,
      "ٓ": 923,
      "ٖ": 924,
      "ٗ": 925,
      "٠": 926,
      "١": 927,
      "٢": 928,
      "٣": 929,
      "٤": 930,
      "٥": 931,
      "٦": 932,
      "٧": 933,
      "٨": 934,
      "٩": 935,
      "٪": 936,
      "٫": 937,
      "٭": 938,
      "ٴ": 939,
      "ٹ": 940,
      "پ": 941,
      "چ": 942,
      "ڑ": 943,
      "ژ": 944,
      "ڤ": 945,
      "ک": 946,
      "گ": 947,
      "ں": 948,
      "ڻ": 949,
      "ھ": 950,
      "ہ": 951,
      "ۇ": 952,
      "ۋ": 953,
      "ی": 954,
      "ے": 955,
      "ۓ": 956,
      "۔": 957,
      "ە": 958,
      "ۖ": 959,
      "ۥ": 960,
      "۰": 961,
      "۱": 962,
      "۳": 963,
      "۴": 964,
      "܁": 965,
      "܅": 966,
      "܈": 967,
      "܉": 968,
      "܊": 969,
      "܋": 970,
      "܍": 971,
      "ܓ": 972,
      "ܔ": 973,
      "ܕ": 974,
      "ܖ": 975,
      "ܘ": 976,
      "ܚ": 977,
      "ܜ": 978,
      "ܢ": 979,
      "ܣ": 980,
      "ܤ": 981,
      "ܥ": 982,
      "ܦ": 983,
      "ܧ": 984,
      "ܨ": 985,
      "ܩ": 986,
      "ܪ": 987,
      "ܫ": 988,
      "ܬ": 989,
      "ܭ": 990,
      "ܮ": 991,
      "ܯ": 992,
      "ܰ": 993,
      "ܱ": 994,
      "ܲ": 995,
      "ܳ": 996,
      "ܴ": 997,
      "ܵ": 998,
      "ܶ": 999,
      "ܷ": 1000,
      "ܸ": 1001,
      "ܹ": 1002,
      "ܺ": 1003,
      "ܻ": 1004,
      "ܼ": 1005,
      "ܽ": 1006,
      "ܾ": 1007,
      "ܿ": 1008,
      "݀": 1009,
      "݁": 1010,
      "݂": 1011,
      "݃": 1012,
      "݄": 1013,
      "݅": 1014,
      "݆": 1015,
      "݇": 1016,
      "݈": 1017,
      "݉": 1018,
      "݊": 1019,
      "ݍ": 1020,
      "ݎ": 1021,
      "ݏ": 1022,
      "ݐ": 1023,
      "ݑ": 1024,
      "ݒ": 1025,
      "ݓ": 1026,
      "ݔ": 1027,
      "ݕ": 1028,
      "ݖ": 1029,
      "߂": 1030,
      "߉": 1031,
      "ߓ": 1032,
      "ߔ": 1033,
      "ߙ": 1034,
      "ߚ": 1035,
      "ߛ": 1036,
      "ߜ": 1037,
      "ߝ": 1038,
      "ߟ": 1039,
      "ߠ": 1040,
      "ߢ": 1041,
      "ߣ": 1042,
      "ߤ": 1043,
      "ߥ": 1044,
      "ߦ": 1045,
      "ߨ": 1046,
      "ߩ": 1047,
      "ߪ": 1048,
      "߬": 1049,
      "߮": 1050,
      "߯": 1051,
      "߰": 1052,
      "߳": 1053,
      "߶": 1054,
      "߸": 1055,
      "ࡔ": 1056,
      "ࡗ": 1057,
      "ࢣ": 1058,
      "ࢨ": 1059,
      "ࢩ": 1060,
      "ࢻ": 1061,
      "ࢽ": 1062,
      "ࣔ": 1063,
      "ࣘ": 1064,
      "ࣙ": 1065,
      "࣠": 1066,
      "࣡": 1067,
      "ࣦ": 1068,
      "ࣨ": 1069,
      "࣪": 1070,
      "࣮": 1071,
      "ࣱ": 1072,
      "ࣲ": 1073,
      "ࣳ": 1074,
      "ࣴ": 1075,
      "ࣵ": 1076,
      "ࣶ": 1077,
      "ࣾ": 1078,
      "ं": 1079,
      "अ": 1080,
      "आ": 1081,
      "इ": 1082,
      "ई": 1083,
      "उ": 1084,
      "ऊ": 1085,
      "ऋ": 1086,
      "ऌ": 1087,
      "ए": 1088,
      "ऐ": 1089,
      "ओ": 1090,
      "औ": 1091,
      "क": 1092,
      "ख": 1093,
      "ग": 1094,
      "घ": 1095,
      "ङ": 1096,
      "च": 1097,
      "छ": 1098,
      "ज": 1099,
      "झ": 1100,
      "ञ": 1101,
      "ठ": 1102,
      "ड": 1103,
      "ढ": 1104,
      "ण": 1105,
      "त": 1106,
      "थ": 1107,
      "द": 1108,
      "ध": 1109,
      "न": 1110,
      "प": 1111,
      "फ": 1112,
      "भ": 1113,
      "म": 1114,
      "य": 1115,
      "र": 1116,
      "ऴ": 1117,
      "व": 1118,
      "ष": 1119,
      "स": 1120,
      "ह": 1121,
      "ा": 1122,
      "ि": 1123,
      "ी": 1124,
      "ु": 1125,
      "ू": 1126,
      "ृ": 1127,
      "े": 1128,
      "ै": 1129,
      "ो": 1130,
      "्": 1131,
      "ज़": 1132,
      "य़": 1133,
      "०": 1134,
      "१": 1135,
      "२": 1136,
      "९": 1137,
      "ং": 1138,
      "ই": 1139,
      "উ": 1140,
      "ক": 1141,
      "ঘ": 1142,
      "ট": 1143,
      "ড": 1144,
      "দ": 1145,
      "ন": 1146,
      "প": 1147,
      "ব": 1148,
      "ভ": 1149,
      "ম": 1150,
      "য": 1151,
      "র": 1152,
      "ল": 1153,
      "শ": 1154,
      "স": 1155,
      "া": 1156,
      "ি": 1157,
      "ে": 1158,
      "ো": 1159,
      "্": 1160,
      "১": 1161,
      "৯": 1162,
      "ં": 1163,
      "અ": 1164,
      "આ": 1165,
      "એ": 1166,
      "ક": 1167,
      "ચ": 1168,
      "ડ": 1169,
      "ઢ": 1170,
      "ણ": 1171,
      "ત": 1172,
      "થ": 1173,
      "ધ": 1174,
      "ન": 1175,
      "પ": 1176,
      "બ": 1177,
      "મ": 1178,
      "ર": 1179,
      "લ": 1180,
      "વ": 1181,
      "શ": 1182,
      "હ": 1183,
      "ઽ": 1184,
      "ા": 1185,
      "િ": 1186,
      "ી": 1187,
      "ુ": 1188,
      "ે": 1189,
      "ો": 1190,
      "ૡ": 1191,
      "ૢ": 1192,
      "૽": 1193,
      "ଙ": 1194,
      "ଝ": 1195,
      "ଵ": 1196,
      "ଶ": 1197,
      "ଷ": 1198,
      "ସ": 1199,
      "ହ": 1200,
      "଼": 1201,
      "ଽ": 1202,
      "ା": 1203,
      "ି": 1204,
      "ୀ": 1205,
      "େ": 1206,
      "ୟ": 1207,
      "ୠ": 1208,
      "ୡ": 1209,
      "ୢ": 1210,
      "ୣ": 1211,
      "୧": 1212,
      "୨": 1213,
      "୩": 1214,
      "୪": 1215,
      "୫": 1216,
      "୬": 1217,
      "୭": 1218,
      "୮": 1219,
      "୰": 1220,
      "ୱ": 1221,
      "୲": 1222,
      "୳": 1223,
      "୴": 1224,
      "୵": 1225,
      "୶": 1226,
      "୷": 1227,
      "ழ": 1228,
      "வ": 1229,
      "ஶ": 1230,
      "ஷ": 1231,
      "ஸ": 1232,
      "ா": 1233,
      "ி": 1234,
      "ீ": 1235,
      "ு": 1236,
      "ூ": 1237,
      "ெ": 1238,
      "ே": 1239,
      "ோ": 1240,
      "ௌ": 1241,
      "்": 1242,
      "ௐ": 1243,
      "ௗ": 1244,
      "௦": 1245,
      "௧": 1246,
      "௨": 1247,
      "௩": 1248,
      "௫": 1249,
      "௬": 1250,
      "௭": 1251,
      "ఉ": 1252,
      "ఊ": 1253,
      "ఏ": 1254,
      "ఔ": 1255,
      "ఙ": 1256,
      "ఛ": 1257,
      "ఝ": 1258,
      "ప": 1259,
      "బ": 1260,
      "భ": 1261,
      "మ": 1262,
      "య": 1263,
      "ర": 1264,
      "ఱ": 1265,
      "ಂ": 1266,
      "ಅ": 1267,
      "ಆ": 1268,
      "ಕ": 1269,
      "ತ": 1270,
      "ದ": 1271,
      "ನ": 1272,
      "ಮ": 1273,
      "ಯ": 1274,
      "ರ": 1275,
      "ವ": 1276,
      "ಹ": 1277,
      "ಾ": 1278,
      "ಿ": 1279,
      "ು": 1280,
      "ೆ": 1281,
      "ೊ": 1282,
      "ೌ": 1283,
      "್": 1284,
      "ೕ": 1285,
      "ೖ": 1286,
      "ೡ": 1287,
      "ഛ": 1288,
      "ജ": 1289,
      "ഠ": 1290,
      "ഡ": 1291,
      "ത": 1292,
      "ഥ": 1293,
      "ഫ": 1294,
      "ശ": 1295,
      "െ": 1296,
      "േ": 1297,
      "ൈ": 1298,
      "ൌ": 1299,
      "്": 1300,
      "ൎ": 1301,
      "൏": 1302,
      "൛": 1303,
      "ൟ": 1304,
      "൨": 1305,
      "൫": 1306,
      "൬": 1307,
      "൯": 1308,
      "൰": 1309,
      "ඈ": 1310,
      "ක": 1311,
      "ඥ": 1312,
      "ට": 1313,
      "ණ": 1314,
      "ද": 1315,
      "බ": 1316,
      "ය": 1317,
      "ර": 1318,
      "ල": 1319,
      "ව": 1320,
      "්": 1321,
      "ා": 1322,
      "ැ": 1323,
      "ො": 1324,
      "ෝ": 1325,
      "෩": 1326,
      "ก": 1327,
      "ข": 1328,
      "ค": 1329,
      "ง": 1330,
      "จ": 1331,
      "ฉ": 1332,
      "ช": 1333,
      "ซ": 1334,
      "ญ": 1335,
      "ฐ": 1336,
      "ณ": 1337,
      "ด": 1338,
      "ต": 1339,
      "ท": 1340,
      "ธ": 1341,
      "น": 1342,
      "บ": 1343,
      "ป": 1344,
      "ผ": 1345,
      "พ": 1346,
      "ม": 1347,
      "ย": 1348,
      "ร": 1349,
      "ล": 1350,
      "ว": 1351,
      "ศ": 1352,
      "ษ": 1353,
      "ส": 1354,
      "ห": 1355,
      "อ": 1356,
      "ะ": 1357,
      "ั": 1358,
      "า": 1359,
      "ำ": 1360,
      "ิ": 1361,
      "ี": 1362,
      "ึ": 1363,
      "ื": 1364,
      "ุ": 1365,
      "ู": 1366,
      "฿": 1367,
      "เ": 1368,
      "แ": 1369,
      "โ": 1370,
      "ใ": 1371,
      "ไ": 1372,
      "่": 1373,
      "้": 1374,
      "์": 1375,
      "ํ": 1376,
      "๐": 1377,
      "໿": 1378,
      "༅": 1379,
      "༈": 1380,
      "༊": 1381,
      "༌": 1382,
      "མ": 1383,
      "ཞ": 1384,
      "྾": 1385,
      "࿼": 1386,
      "ᄀ": 1387,
      "ᄂ": 1388,
      "ᄃ": 1389,
      "ᄅ": 1390,
      "ᄇ": 1391,
      "ᄉ": 1392,
      "ᄋ": 1393,
      "ᄌ": 1394,
      "ᅡ": 1395,
      "ᅥ": 1396,
      "ᅦ": 1397,
      "ᅧ": 1398,
      "ᅩ": 1399,
      "ᅭ": 1400,
      "ᅮ": 1401,
      "ᅳ": 1402,
      "ᅴ": 1403,
      "ᆫ": 1404,
      "ᆷ": 1405,
      "ᆼ": 1406,
      "ᇱ": 1407,
      "ᇲ": 1408,
      "መ": 1409,
      "ሬ": 1410,
      "ሶ": 1411,
      "ሺ": 1412,
      "ሻ": 1413,
      "ሼ": 1414,
      "ሽ": 1415,
      "ሾ": 1416,
      "ሿ": 1417,
      "ቀ": 1418,
      "ቁ": 1419,
      "ቄ": 1420,
      "ቅ": 1421,
      "ቊ": 1422,
      "ቐ": 1423,
      "ቢ": 1424,
      "ᎏ": 1425,
      "᎐": 1426,
      "᎑": 1427,
      "Ꭽ": 1428,
      "Ꭿ": 1429,
      "Ꮃ": 1430,
      "ᐉ": 1431,
      "ᐤ": 1432,
      "ᐧ": 1433,
      "ᑬ": 1434,
      "᭜": 1435,
      "᭝": 1436,
      "᭞": 1437,
      "᭡": 1438,
      "᭢": 1439,
      "᭣": 1440,
      "᭤": 1441,
      "᭧": 1442,
      "᭨": 1443,
      "᭹": 1444,
      "᭺": 1445,
      "ᮀ": 1446,
      "ᮣ": 1447,
      "ᴅ": 1448,
      "ᴋ": 1449,
      "ᴍ": 1450,
      "ᴦ": 1451,
      "ᴧ": 1452,
      "ᴨ": 1453,
      "ᴩ": 1454,
      "ᴪ": 1455,
      "ᴫ": 1456,
      "ᴹ": 1457,
      "ᴼ": 1458,
      "ᵀ": 1459,
      "ᵃ": 1460,
      "ᵄ": 1461,
      "ᵅ": 1462,
      "ᵆ": 1463,
      "ᵇ": 1464,
      "ᵈ": 1465,
      "ᵊ": 1466,
      "ᵋ": 1467,
      "ᵌ": 1468,
      "ᵍ": 1469,
      "ᵏ": 1470,
      "ᵐ": 1471,
      "ᵒ": 1472,
      "ᵓ": 1473,
      "ᵔ": 1474,
      "ᵖ": 1475,
      "ᵚ": 1476,
      "ᵛ": 1477,
      "ᵞ": 1478,
      "ᵠ": 1479,
      "ᵡ": 1480,
      "ᵢ": 1481,
      "ᵦ": 1482,
      "ᵧ": 1483,
      "ᵩ": 1484,
      "ᵫ": 1485,
      "ᵬ": 1486,
      "ᵰ": 1487,
      "ᵲ": 1488,
      "ᵳ": 1489,
      "ᵵ": 1490,
      "ᵶ": 1491,
      "ᵷ": 1492,
      "ᵸ": 1493,
      "ᵹ": 1494,
      "ᶞ": 1495,
      "ᶧ": 1496,
      "ᶲ": 1497,
      "Ḃ": 1498,
      "ḃ": 1499,
      "Ḉ": 1500,
      "ḉ": 1501,
      "Ḋ": 1502,
      "ḋ": 1503,
      "ḍ": 1504,
      "ḏ": 1505,
      "ḑ": 1506,
      "ḗ": 1507,
      "Ḟ": 1508,
      "ḟ": 1509,
      "Ḡ": 1510,
      "ḡ": 1511,
      "Ḣ": 1512,
      "ḣ": 1513,
      "Ḥ": 1514,
      "ḥ": 1515,
      "Ḧ": 1516,
      "ḧ": 1517,
      "ḱ": 1518,
      "ḵ": 1519,
      "Ḷ": 1520,
      "ḷ": 1521,
      "Ḽ": 1522,
      "Ḿ": 1523,
      "ḿ": 1524,
      "Ṁ": 1525,
      "ṁ": 1526,
      "ṃ": 1527,
      "Ṅ": 1528,
      "ṅ": 1529,
      "ṇ": 1530,
      "ṉ": 1531,
      "ṍ": 1532,
      "ṏ": 1533,
      "Ṕ": 1534,
      "ṕ": 1535,
      "Ṗ": 1536,
      "ṗ": 1537,
      "Ṙ": 1538,
      "ṙ": 1539,
      "Ṛ": 1540,
      "ṛ": 1541,
      "Ṟ": 1542,
      "Ṡ": 1543,
      "ṡ": 1544,
      "Ṣ": 1545,
      "ṣ": 1546,
      "ṧ": 1547,
      "Ṩ": 1548,
      "Ṫ": 1549,
      "ṫ": 1550,
      "Ṭ": 1551,
      "ṭ": 1552,
      "ṯ": 1553,
      "Ṽ": 1554,
      "ṽ": 1555,
      "Ẁ": 1556,
      "ẁ": 1557,
      "Ẃ": 1558,
      "ẃ": 1559,
      "Ẅ": 1560,
      "ẅ": 1561,
      "Ẇ": 1562,
      "ẇ": 1563,
      "Ẋ": 1564,
      "ẋ": 1565,
      "Ẍ": 1566,
      "ẍ": 1567,
      "Ẏ": 1568,
      "ẏ": 1569,
      "Ẑ": 1570,
      "ẑ": 1571,
      "ẓ": 1572,
      "ẗ": 1573,
      "ẘ": 1574,
      "ẙ": 1575,
      "ẚ": 1576,
      "ẞ": 1577,
      "ẟ": 1578,
      "ạ": 1579,
      "Ả": 1580,
      "ả": 1581,
      "ấ": 1582,
      "ầ": 1583,
      "ẩ": 1584,
      "Ẫ": 1585,
      "ậ": 1586,
      "ắ": 1587,
      "ằ": 1588,
      "ẵ": 1589,
      "ặ": 1590,
      "ẹ": 1591,
      "ẻ": 1592,
      "Ẽ": 1593,
      "ẽ": 1594,
      "Ế": 1595,
      "ế": 1596,
      "ề": 1597,
      "ể": 1598,
      "ễ": 1599,
      "ệ": 1600,
      "ỉ": 1601,
      "ị": 1602,
      "Ọ": 1603,
      "ọ": 1604,
      "ỏ": 1605,
      "ố": 1606,
      "ồ": 1607,
      "ổ": 1608,
      "ỗ": 1609,
      "ộ": 1610,
      "ớ": 1611,
      "ờ": 1612,
      "ở": 1613,
      "ợ": 1614,
      "ụ": 1615,
      "ủ": 1616,
      "ứ": 1617,
      "ừ": 1618,
      "ử": 1619,
      "ữ": 1620,
      "ự": 1621,
      "Ỳ": 1622,
      "ỳ": 1623,
      "ỷ": 1624,
      "Ỹ": 1625,
      "ỹ": 1626,
      "ἀ": 1627,
      "ἁ": 1628,
      "ἄ": 1629,
      "ἐ": 1630,
      "ἑ": 1631,
      "ἔ": 1632,
      "Ἐ": 1633,
      "ἡ": 1634,
      "ἢ": 1635,
      "ἦ": 1636,
      "Ἠ": 1637,
      "ἰ": 1638,
      "ἶ": 1639,
      "ἷ": 1640,
      "ὀ": 1641,
      "ὁ": 1642,
      "ὂ": 1643,
      "ὃ": 1644,
      "ὅ": 1645,
      "Ὁ": 1646,
      "ὐ": 1647,
      "ὠ": 1648,
      "ὰ": 1649,
      "ά": 1650,
      "ὲ": 1651,
      "έ": 1652,
      "ὴ": 1653,
      "ή": 1654,
      "ὶ": 1655,
      "ί": 1656,
      "ὸ": 1657,
      "ό": 1658,
      "ὺ": 1659,
      "ύ": 1660,
      "ὼ": 1661,
      "ώ": 1662,
      "ᾐ": 1663,
      "ᾰ": 1664,
      "ᾱ": 1665,
      "ᾳ": 1666,
      "ᾶ": 1667,
      "Ᾰ": 1668,
      "Ᾱ": 1669,
      "᾽": 1670,
      "᾿": 1671,
      "ῂ": 1672,
      "ῆ": 1673,
      "ῑ": 1674,
      "ῖ": 1675,
      "ῡ": 1676,
      "ῥ": 1677,
      "ῦ": 1678,
      "Ῡ": 1679,
      "ῳ": 1680,
      "ῶ": 1681,
      "ῷ": 1682,
      "´": 1683,
      "῾": 1684,
      "​": 1685,
      "‌": 1686,
      "‍": 1687,
      "‎": 1688,
      "‏": 1689,
      "‐": 1690,
      "‑": 1691,
      "‒": 1692,
      "–": 1693,
      "—": 1694,
      "―": 1695,
      "‖": 1696,
      "‗": 1697,
      "‘": 1698,
      "’": 1699,
      "‚": 1700,
      "‛": 1701,
      "“": 1702,
      "”": 1703,
      "„": 1704,
      "‟": 1705,
      "†": 1706,
      "‡": 1707,
      "•": 1708,
      "․": 1709,
      "‥": 1710,
      "…": 1711,
      "‧": 1712,
      "‪": 1713,
      "‫": 1714,
      "‬": 1715,
      "‰": 1716,
      "‱": 1717,
      "′": 1718,
      "″": 1719,
      "‴": 1720,
      "‵": 1721,
      "‶": 1722,
      "‹": 1723,
      "›": 1724,
      "※": 1725,
      "‽": 1726,
      "‾": 1727,
      "‿": 1728,
      "⁁": 1729,
      "⁃": 1730,
      "⁄": 1731,
      "⁅": 1732,
      "⁆": 1733,
      "⁋": 1734,
      "⁎": 1735,
      "⁑": 1736,
      "⁓": 1737,
      "⁗": 1738,
      "⁠": 1739,
      "⁡": 1740,
      "⁢": 1741,
      "⁣": 1742,
      "⁰": 1743,
      "⁴": 1744,
      "⁵": 1745,
      "⁶": 1746,
      "⁷": 1747,
      "⁸": 1748,
      "⁹": 1749,
      "⁺": 1750,
      "⁻": 1751,
      "ⁿ": 1752,
      "₀": 1753,
      "₁": 1754,
      "₂": 1755,
      "₃": 1756,
      "₄": 1757,
      "₅": 1758,
      "₆": 1759,
      "₇": 1760,
      "₈": 1761,
      "₉": 1762,
      "₊": 1763,
      "₋": 1764,
      "₌": 1765,
      "ₒ": 1766,
      "ₛ": 1767,
      "ₜ": 1768,
      "₤": 1769,
      "₦": 1770,
      "₩": 1771,
      "€": 1772,
      "₰": 1773,
      "₱": 1774,
      "₵": 1775,
      "₹": 1776,
      "₺": 1777,
      "₽": 1778,
      "₿": 1779,
      "⃑": 1780,
      "⃒": 1781,
      "⃖": 1782,
      "⃗": 1783,
      "⃘": 1784,
      "⃛": 1785,
      "⃝": 1786,
      "⃰": 1787,
      "ℂ": 1788,
      "℃": 1789,
      "ℇ": 1790,
      "℉": 1791,
      "ℊ": 1792,
      "ℋ": 1793,
      "ℌ": 1794,
      "ℍ": 1795,
      "ℎ": 1796,
      "ℏ": 1797,
      "ℐ": 1798,
      "ℑ": 1799,
      "ℒ": 1800,
      "ℓ": 1801,
      "ℕ": 1802,
      "№": 1803,
      "℘": 1804,
      "ℙ": 1805,
      "ℚ": 1806,
      "ℛ": 1807,
      "ℜ": 1808,
      "ℝ": 1809,
      "℠": 1810,
      "™": 1811,
      "ℤ": 1812,
      "Ω": 1813,
      "℧": 1814,
      "Å": 1815,
      "ℬ": 1816,
      "ℭ": 1817,
      "ℯ": 1818,
      "ℰ": 1819,
      "ℱ": 1820,
      "Ⅎ": 1821,
      "ℳ": 1822,
      "ℴ": 1823,
      "ℵ": 1824,
      "ℶ": 1825,
      "ℷ": 1826,
      "ℸ": 1827,
      "ℽ": 1828,
      "⅀": 1829,
      "⅁": 1830,
      "ⅆ": 1831,
      "ⅇ": 1832,
      "ⅈ": 1833,
      "ⅉ": 1834,
      "⅐": 1835,
      "⅓": 1836,
      "⅔": 1837,
      "⅕": 1838,
      "⅖": 1839,
      "⅗": 1840,
      "⅘": 1841,
      "⅙": 1842,
      "⅛": 1843,
      "⅜": 1844,
      "⅝": 1845,
      "⅞": 1846,
      "Ⅰ": 1847,
      "Ⅱ": 1848,
      "Ⅲ": 1849,
      "Ⅳ": 1850,
      "Ⅴ": 1851,
      "Ⅵ": 1852,
      "Ⅶ": 1853,
      "Ⅷ": 1854,
      "Ⅸ": 1855,
      "Ⅹ": 1856,
      "Ⅺ": 1857,
      "Ⅻ": 1858,
      "ⅰ": 1859,
      "ⅱ": 1860,
      "ⅲ": 1861,
      "ⅳ": 1862,
      "ⅴ": 1863,
      "ⅵ": 1864,
      "ⅶ": 1865,
      "ⅷ": 1866,
      "ⅸ": 1867,
      "ⅹ": 1868,
      "ⅻ": 1869,
      "ↆ": 1870,
      "←": 1871,
      "↑": 1872,
      "→": 1873,
      "↓": 1874,
      "↔": 1875,
      "↕": 1876,
      "↖": 1877,
      "↗": 1878,
      "↘": 1879,
      "↙": 1880,
      "↛": 1881,
      "↝": 1882,
      "↟": 1883,
      "↠": 1884,
      "↣": 1885,
      "↥": 1886,
      "↦": 1887,
      "↩": 1888,
      "↪": 1889,
      "↭": 1890,
      "↮": 1891,
      "↯": 1892,
      "↵": 1893,
      "↶": 1894,
      "↺": 1895,
      "↼": 1896,
      "↾": 1897,
      "⇀": 1898,
      "⇄": 1899,
      "⇆": 1900,
      "⇉": 1901,
      "⇋": 1902,
      "⇌": 1903,
      "⇏": 1904,
      "⇐": 1905,
      "⇑": 1906,
      "⇒": 1907,
      "⇓": 1908,
      "⇔": 1909,
      "⇕": 1910,
      "⇛": 1911,
      "⇜": 1912,
      "⇝": 1913,
      "⇠": 1914,
      "⇡": 1915,
      "⇢": 1916,
      "⇣": 1917,
      "⇤": 1918,
      "⇥": 1919,
      "⇧": 1920,
      "⇨": 1921,
      "⇩": 1922,
      "⇾": 1923,
      "∀": 1924,
      "∁": 1925,
      "∂": 1926,
      "∃": 1927,
      "∄": 1928,
      "∅": 1929,
      "∆": 1930,
      "∇": 1931,
      "∈": 1932,
      "∉": 1933,
      "∊": 1934,
      "∋": 1935,
      "∌": 1936,
      "∍": 1937,
      "∎": 1938,
      "∏": 1939,
      "∐": 1940,
      "∑": 1941,
      "−": 1942,
      "∓": 1943,
      "∕": 1944,
      "∖": 1945,
      "∗": 1946,
      "∘": 1947,
      "∙": 1948,
      "√": 1949,
      "∝": 1950,
      "∞": 1951,
      "∠": 1952,
      "∡": 1953,
      "∢": 1954,
      "∣": 1955,
      "∤": 1956,
      "∥": 1957,
      "∧": 1958,
      "∨": 1959,
      "∩": 1960,
      "∪": 1961,
      "∫": 1962,
      "∬": 1963,
      "∭": 1964,
      "∮": 1965,
      "∲": 1966,
      "∴": 1967,
      "∵": 1968,
      "∶": 1969,
      "∷": 1970,
      "∼": 1971,
      "∽": 1972,
      "∾": 1973,
      "≀": 1974,
      "≁": 1975,
      "≃": 1976,
      "≅": 1977,
      "≇": 1978,
      "≈": 1979,
      "≉": 1980,
      "≊": 1981,
      "≌": 1982,
      "≍": 1983,
      "≐": 1984,
      "≒": 1985,
      "≔": 1986,
      "≕": 1987,
      "≙": 1988,
      "≜": 1989,
      "≝": 1990,
      "≠": 1991,
      "≡": 1992,
      "≢": 1993,
      "≣": 1994,
      "≤": 1995,
      "≥": 1996,
      "≦": 1997,
      "≧": 1998,
      "≪": 1999,
      "≫": 2000,
      "≮": 2001,
      "≯": 2002,
      "≰": 2003,
      "≲": 2004,
      "≳": 2005,
      "≶": 2006,
      "≷": 2007,
      "≺": 2008,
      "≻": 2009,
      "≼": 2010,
      "≽": 2011,
      "≾": 2012,
      "≿": 2013,
      "⊀": 2014,
      "⊂": 2015,
      "⊃": 2016,
      "⊄": 2017,
      "⊆": 2018,
      "⊇": 2019,
      "⊈": 2020,
      "⊊": 2021,
      "⊋": 2022,
      "⊍": 2023,
      "⊎": 2024,
      "⊏": 2025,
      "⊐": 2026,
      "⊑": 2027,
      "⊒": 2028,
      "⊓": 2029,
      "⊔": 2030,
      "⊕": 2031,
      "⊖": 2032,
      "⊗": 2033,
      "⊘": 2034,
      "⊙": 2035,
      "⊚": 2036,
      "⊛": 2037,
      "⊝": 2038,
      "⊞": 2039,
      "⊠": 2040,
      "⊡": 2041,
      "⊢": 2042,
      "⊣": 2043,
      "⊤": 2044,
      "⊥": 2045,
      "⊧": 2046,
      "⊨": 2047,
      "⊩": 2048,
      "⊬": 2049,
      "⊭": 2050,
      "⊲": 2051,
      "⊳": 2052,
      "⊴": 2053,
      "⊵": 2054,
      "⊸": 2055,
      "⊺": 2056,
      "⊻": 2057,
      "⊼": 2058,
      "⊽": 2059,
      "⊿": 2060,
      "⋀": 2061,
      "⋁": 2062,
      "⋂": 2063,
      "⋃": 2064,
      "⋄": 2065,
      "⋅": 2066,
      "⋆": 2067,
      "⋇": 2068,
      "⋈": 2069,
      "⋉": 2070,
      "⋊": 2071,
      "⋋": 2072,
      "⋌": 2073,
      "⋍": 2074,
      "⋎": 2075,
      "⋏": 2076,
      "⋐": 2077,
      "⋒": 2078,
      "⋓": 2079,
      "⋖": 2080,
      "⋗": 2081,
      "⋘": 2082,
      "⋙": 2083,
      "⋚": 2084,
      "⋛": 2085,
      "⋡": 2086,
      "⋮": 2087,
      "⋯": 2088,
      "⋰": 2089,
      "⋱": 2090,
      "⌀": 2091,
      "⌃": 2092,
      "⌅": 2093,
      "⌆": 2094,
      "⌈": 2095,
      "⌉": 2096,
      "⌊": 2097,
      "⌋": 2098,
      "⌐": 2099,
      "⌒": 2100,
      "⌘": 2101,
      "⌜": 2102,
      "⌝": 2103,
      "⌟": 2104,
      "⌠": 2105,
      "⌢": 2106,
      "⌣": 2107,
      "⌦": 2108,
      "⌧": 2109,
      "〈": 2110,
      "〉": 2111,
      "⌫": 2112,
      "⌬": 2113,
      "⌭": 2114,
      "⌰": 2115,
      "⌱": 2116,
      "⌲": 2117,
      "⌳": 2118,
      "⌵": 2119,
      "⌺": 2120,
      "⌻": 2121,
      "⌽": 2122,
      "⌾": 2123,
      "⌿": 2124,
      "⍀": 2125,
      "⍉": 2126,
      "⍜": 2127,
      "⍬": 2128,
      "⍰": 2129,
      "⍴": 2130,
      "⍵": 2131,
      "⍺": 2132,
      "⎛": 2133,
      "⎜": 2134,
      "⎝": 2135,
      "⎞": 2136,
      "⎟": 2137,
      "⎠": 2138,
      "⎡": 2139,
      "⎢": 2140,
      "⎣": 2141,
      "⎤": 2142,
      "⎥": 2143,
      "⎦": 2144,
      "⎧": 2145,
      "⎨": 2146,
      "⎩": 2147,
      "⎪": 2148,
      "⎫": 2149,
      "⎬": 2150,
      "⎭": 2151,
      "⎯": 2152,
      "⎸": 2153,
      "⎼": 2154,
      "⏉": 2155,
      "⏊": 2156,
      "⏐": 2157,
      "⏞": 2158,
      "⏟": 2159,
      "␣": 2160,
      "␤": 2161,
      "␥": 2162,
      "␦": 2163,
      "⑀": 2164,
      "①": 2165,
      "②": 2166,
      "③": 2167,
      "④": 2168,
      "⑤": 2169,
      "⑥": 2170,
      "⑦": 2171,
      "⑧": 2172,
      "⑨": 2173,
      "⑩": 2174,
      "⑪": 2175,
      "⑫": 2176,
      "⑬": 2177,
      "⑭": 2178,
      "⑮": 2179,
      "⑴": 2180,
      "⑵": 2181,
      "⑶": 2182,
      "⑷": 2183,
      "Ⓐ": 2184,
      "Ⓑ": 2185,
      "Ⓒ": 2186,
      "Ⓓ": 2187,
      "Ⓔ": 2188,
      "Ⓕ": 2189,
      "Ⓖ": 2190,
      "Ⓗ": 2191,
      "Ⓡ": 2192,
      "Ⓣ": 2193,
      "Ⓧ": 2194,
      "Ⓨ": 2195,
      "ⓐ": 2196,
      "ⓑ": 2197,
      "ⓒ": 2198,
      "ⓓ": 2199,
      "ⓔ": 2200,
      "ⓕ": 2201,
      "ⓖ": 2202,
      "ⓗ": 2203,
      "ⓘ": 2204,
      "ⓙ": 2205,
      "ⓚ": 2206,
      "─": 2207,
      "│": 2208,
      "├": 2209,
      "┤": 2210,
      "┬": 2211,
      "┴": 2212,
      "┼": 2213,
      "═": 2214,
      "║": 2215,
      "╪": 2216,
      "╫": 2217,
      "╬": 2218,
      "╲": 2219,
      "╳": 2220,
      "▂": 2221,
      "▃": 2222,
      "░": 2223,
      "▒": 2224,
      "▓": 2225,
      "■": 2226,
      "□": 2227,
      "▢": 2228,
      "▪": 2229,
      "▫": 2230,
      "▬": 2231,
      "▯": 2232,
      "▲": 2233,
      "△": 2234,
      "▴": 2235,
      "▵": 2236,
      "▶": 2237,
      "▷": 2238,
      "▸": 2239,
      "▹": 2240,
      "►": 2241,
      "▻": 2242,
      "▼": 2243,
      "▽": 2244,
      "▾": 2245,
      "▿": 2246,
      "◀": 2247,
      "◁": 2248,
      "◂": 2249,
      "◃": 2250,
      "◄": 2251,
      "◆": 2252,
      "◇": 2253,
      "◉": 2254,
      "◊": 2255,
      "○": 2256,
      "◎": 2257,
      "●": 2258,
      "◒": 2259,
      "◗": 2260,
      "◘": 2261,
      "◦": 2262,
      "◮": 2263,
      "◯": 2264,
      "◻": 2265,
      "◼": 2266,
      "◾": 2267,
      "★": 2268,
      "☆": 2269,
      "☉": 2270,
      "☎": 2271,
      "☐": 2272,
      "☑": 2273,
      "☒": 2274,
      "☛": 2275,
      "☞": 2276,
      "☨": 2277,
      "☹": 2278,
      "☺": 2279,
      "☼": 2280,
      "☾": 2281,
      "♀": 2282,
      "♂": 2283,
      "♠": 2284,
      "♡": 2285,
      "♢": 2286,
      "♣": 2287,
      "♥": 2288,
      "♦": 2289,
      "♭": 2290,
      "♮": 2291,
      "♯": 2292,
      "⚉": 2293,
      "⚥": 2294,
      "⚪": 2295,
      "⚬": 2296,
      "✂": 2297,
      "✇": 2298,
      "✈": 2299,
      "✉": 2300,
      "✏": 2301,
      "✐": 2302,
      "✑": 2303,
      "✓": 2304,
      "✔": 2305,
      "✕": 2306,
      "✖": 2307,
      "✗": 2308,
      "✘": 2309,
      "✚": 2310,
      "✛": 2311,
      "✜": 2312,
      "✝": 2313,
      "✣": 2314,
      "✤": 2315,
      "✦": 2316,
      "✩": 2317,
      "✪": 2318,
      "✯": 2319,
      "✱": 2320,
      "✲": 2321,
      "✳": 2322,
      "✵": 2323,
      "✶": 2324,
      "✷": 2325,
      "✸": 2326,
      "✻": 2327,
      "✼": 2328,
      "✽": 2329,
      "✿": 2330,
      "❀": 2331,
      "❁": 2332,
      "❂": 2333,
      "❆": 2334,
      "❇": 2335,
      "❈": 2336,
      "❋": 2337,
      "❍": 2338,
      "❏": 2339,
      "❐": 2340,
      "❑": 2341,
      "❒": 2342,
      "❖": 2343,
      "❙": 2344,
      "❚": 2345,
      "❛": 2346,
      "❜": 2347,
      "❝": 2348,
      "❞": 2349,
      "❡": 2350,
      "❢": 2351,
      "❣": 2352,
      "❤": 2353,
      "❦": 2354,
      "❯": 2355,
      "❱": 2356,
      "❲": 2357,
      "❶": 2358,
      "❷": 2359,
      "❸": 2360,
      "❹": 2361,
      "❺": 2362,
      "❻": 2363,
      "❼": 2364,
      "❽": 2365,
      "❾": 2366,
      "➀": 2367,
      "➁": 2368,
      "➂": 2369,
      "➃": 2370,
      "➄": 2371,
      "➅": 2372,
      "➆": 2373,
      "➇": 2374,
      "➈": 2375,
      "➉": 2376,
      "➊": 2377,
      "➋": 2378,
      "➌": 2379,
      "➍": 2380,
      "➎": 2381,
      "➏": 2382,
      "➐": 2383,
      "➑": 2384,
      "➒": 2385,
      "➓": 2386,
      "➔": 2387,
      "➕": 2388,
      "➖": 2389,
      "➙": 2390,
      "➝": 2391,
      "➟": 2392,
      "➢": 2393,
      "➣": 2394,
      "➤": 2395,
      "➥": 2396,
      "➨": 2397,
      "⟂": 2398,
      "⟦": 2399,
      "⟧": 2400,
      "⟨": 2401,
      "⟩": 2402,
      "⟪": 2403,
      "⟫": 2404,
      "⟲": 2405,
      "⟵": 2406,
      "⟶": 2407,
      "⟷": 2408,
      "⟹": 2409,
      "⟺": 2410,
      "⟼": 2411,
      "⠼": 2412,
      "⤇": 2413,
      "⤳": 2414,
      "⥄": 2415,
      "⥦": 2416,
      "⥸": 2417,
      "⦁": 2418,
      "⦂": 2419,
      "⦋": 2420,
      "⦌": 2421,
      "⦰": 2422,
      "⧈": 2423,
      "⧠": 2424,
      "⧧": 2425,
      "⧫": 2426,
      "⧵": 2427,
      "⧸": 2428,
      "⧹": 2429,
      "⧺": 2430,
      "⧽": 2431,
      "⨀": 2432,
      "⨁": 2433,
      "⨂": 2434,
      "⨃": 2435,
      "⨆": 2436,
      "⨉": 2437,
      "⨏": 2438,
      "⨯": 2439,
      "⨰": 2440,
      "⨼": 2441,
      "⨿": 2442,
      "⩒": 2443,
      "⩠": 2444,
      "⩴": 2445,
      "⩵": 2446,
      "⩽": 2447,
      "⩾": 2448,
      "⪅": 2449,
      "⪆": 2450,
      "⪋": 2451,
      "⪌": 2452,
      "⪡": 2453,
      "⪢": 2454,
      "⪯": 2455,
      "⪰": 2456,
      "⫅": 2457,
      "⫋": 2458,
      "⬄": 2459,
      "⬚": 2460,
      "⬛": 2461,
      "⬢": 2462,
      "⬦": 2463,
      "⬬": 2464,
      "⭐": 2465,
      "⭮": 2466,
      "⮚": 2467,
      "⯮": 2468,
      "ⱡ": 2469,
      "Ɫ": 2470,
      "Ᵽ": 2471,
      "Ɽ": 2472,
      "ⱦ": 2473,
      "Ɐ": 2474,
      "ⱱ": 2475,
      "ⱼ": 2476,
      "Ⲅ": 2477,
      "ⴍ": 2478,
      "⸰": 2479,
      "⸱": 2480,
      "⸸": 2481,
      "⼈": 2482,
      "⼊": 2483,
      "⼩": 2484,
      "⼯": 2485,
      "⼼": 2486,
      "⽇": 2487,
      "⽉": 2488,
      "⽐": 2489,
      "⽔": 2490,
      "⽘": 2491,
      "⽤": 2492,
      "⽪": 2493,
      "⽬": 2494,
      "⽰": 2495,
      "⾎": 2496,
      "⾏": 2497,
      "⾼": 2498,
      "⿿": 2499,
      "、": 2500,
      "。": 2501,
      "々": 2502,
      "〆": 2503,
      "〇": 2504,
      "〈": 2505,
      "〉": 2506,
      "《": 2507,
      "》": 2508,
      "「": 2509,
      "」": 2510,
      "【": 2511,
      "】": 2512,
      "〔": 2513,
      "〕": 2514,
      "〖": 2515,
      "〗": 2516,
      "〚": 2517,
      "〛": 2518,
      "〜": 2519,
      "〞": 2520,
      "あ": 2521,
      "い": 2522,
      "う": 2523,
      "え": 2524,
      "お": 2525,
      "か": 2526,
      "が": 2527,
      "き": 2528,
      "ぎ": 2529,
      "く": 2530,
      "ぐ": 2531,
      "け": 2532,
      "げ": 2533,
      "こ": 2534,
      "ご": 2535,
      "さ": 2536,
      "ざ": 2537,
      "し": 2538,
      "じ": 2539,
      "す": 2540,
      "ず": 2541,
      "せ": 2542,
      "そ": 2543,
      "ぞ": 2544,
      "た": 2545,
      "だ": 2546,
      "ち": 2547,
      "っ": 2548,
      "つ": 2549,
      "づ": 2550,
      "て": 2551,
      "で": 2552,
      "と": 2553,
      "ど": 2554,
      "な": 2555,
      "に": 2556,
      "ぬ": 2557,
      "ね": 2558,
      "の": 2559,
      "は": 2560,
      "ば": 2561,
      "び": 2562,
      "ぴ": 2563,
      "ぶ": 2564,
      "ぷ": 2565,
      "へ": 2566,
      "べ": 2567,
      "ほ": 2568,
      "ま": 2569,
      "み": 2570,
      "む": 2571,
      "め": 2572,
      "も": 2573,
      "ゃ": 2574,
      "や": 2575,
      "ゅ": 2576,
      "ゆ": 2577,
      "ょ": 2578,
      "よ": 2579,
      "ら": 2580,
      "り": 2581,
      "る": 2582,
      "れ": 2583,
      "ろ": 2584,
      "わ": 2585,
      "を": 2586,
      "ん": 2587,
      "ァ": 2588,
      "ア": 2589,
      "ィ": 2590,
      "イ": 2591,
      "ウ": 2592,
      "ェ": 2593,
      "エ": 2594,
      "ォ": 2595,
      "オ": 2596,
      "カ": 2597,
      "ガ": 2598,
      "キ": 2599,
      "ギ": 2600,
      "ク": 2601,
      "グ": 2602,
      "ケ": 2603,
      "ゲ": 2604,
      "コ": 2605,
      "ゴ": 2606,
      "サ": 2607,
      "ザ": 2608,
      "シ": 2609,
      "ジ": 2610,
      "ス": 2611,
      "ズ": 2612,
      "セ": 2613,
      "ゼ": 2614,
      "ソ": 2615,
      "ゾ": 2616,
      "タ": 2617,
      "ダ": 2618,
      "チ": 2619,
      "ッ": 2620,
      "ツ": 2621,
      "テ": 2622,
      "デ": 2623,
      "ト": 2624,
      "ド": 2625,
      "ナ": 2626,
      "ニ": 2627,
      "ネ": 2628,
      "ノ": 2629,
      "ハ": 2630,
      "バ": 2631,
      "パ": 2632,
      "ヒ": 2633,
      "ビ": 2634,
      "ピ": 2635,
      "フ": 2636,
      "ブ": 2637,
      "プ": 2638,
      "ヘ": 2639,
      "ベ": 2640,
      "ペ": 2641,
      "ホ": 2642,
      "ボ": 2643,
      "ポ": 2644,
      "マ": 2645,
      "ミ": 2646,
      "ム": 2647,
      "メ": 2648,
      "モ": 2649,
      "ャ": 2650,
      "ュ": 2651,
      "ユ": 2652,
      "ョ": 2653,
      "ヨ": 2654,
      "ラ": 2655,
      "リ": 2656,
      "ル": 2657,
      "レ": 2658,
      "ロ": 2659,
      "ワ": 2660,
      "ン": 2661,
      "ヴ": 2662,
      "・": 2663,
      "ー": 2664,
      "ㆍ": 2665,
      "㊀": 2666,
      "㌳": 2667,
      "㎍": 2668,
      "㎕": 2669,
      "㎛": 2670,
      "㎜": 2671,
      "㎟": 2672,
      "㎡": 2673,
      "一": 2674,
      "丁": 2675,
      "七": 2676,
      "万": 2677,
      "三": 2678,
      "上": 2679,
      "下": 2680,
      "不": 2681,
      "与": 2682,
      "专": 2683,
      "且": 2684,
      "世": 2685,
      "丘": 2686,
      "丙": 2687,
      "业": 2688,
      "东": 2689,
      "丟": 2690,
      "両": 2691,
      "丢": 2692,
      "两": 2693,
      "严": 2694,
      "並": 2695,
      "丧": 2696,
      "个": 2697,
      "中": 2698,
      "丰": 2699,
      "串": 2700,
      "临": 2701,
      "丸": 2702,
      "丹": 2703,
      "为": 2704,
      "主": 2705,
      "丽": 2706,
      "举": 2707,
      "乃": 2708,
      "乄": 2709,
      "久": 2710,
      "么": 2711,
      "义": 2712,
      "之": 2713,
      "乌": 2714,
      "乎": 2715,
      "乏": 2716,
      "乐": 2717,
      "乖": 2718,
      "乗": 2719,
      "乘": 2720,
      "乙": 2721,
      "九": 2722,
      "也": 2723,
      "习": 2724,
      "乡": 2725,
      "书": 2726,
      "买": 2727,
      "乱": 2728,
      "乳": 2729,
      "乾": 2730,
      "了": 2731,
      "予": 2732,
      "争": 2733,
      "事": 2734,
      "二": 2735,
      "于": 2736,
      "亏": 2737,
      "云": 2738,
      "互": 2739,
      "五": 2740,
      "井": 2741,
      "亚": 2742,
      "些": 2743,
      "亟": 2744,
      "亡": 2745,
      "亢": 2746,
      "交": 2747,
      "亥": 2748,
      "亦": 2749,
      "产": 2750,
      "享": 2751,
      "京": 2752,
      "亮": 2753,
      "亲": 2754,
      "人": 2755,
      "亿": 2756,
      "什": 2757,
      "仁": 2758,
      "仅": 2759,
      "今": 2760,
      "介": 2761,
      "仍": 2762,
      "从": 2763,
      "仓": 2764,
      "仔": 2765,
      "仕": 2766,
      "他": 2767,
      "仗": 2768,
      "付": 2769,
      "仙": 2770,
      "代": 2771,
      "令": 2772,
      "以": 2773,
      "仪": 2774,
      "们": 2775,
      "仮": 2776,
      "仰": 2777,
      "仲": 2778,
      "件": 2779,
      "价": 2780,
      "任": 2781,
      "份": 2782,
      "仿": 2783,
      "企": 2784,
      "伊": 2785,
      "伍": 2786,
      "伎": 2787,
      "伏": 2788,
      "休": 2789,
      "众": 2790,
      "优": 2791,
      "会": 2792,
      "伝": 2793,
      "伟": 2794,
      "传": 2795,
      "伤": 2796,
      "伦": 2797,
      "伯": 2798,
      "估": 2799,
      "伴": 2800,
      "似": 2801,
      "但": 2802,
      "位": 2803,
      "低": 2804,
      "住": 2805,
      "佑": 2806,
      "体": 2807,
      "何": 2808,
      "佗": 2809,
      "余": 2810,
      "作": 2811,
      "你": 2812,
      "佩": 2813,
      "佳": 2814,
      "併": 2815,
      "使": 2816,
      "來": 2817,
      "例": 2818,
      "供": 2819,
      "依": 2820,
      "価": 2821,
      "侣": 2822,
      "侧": 2823,
      "侯": 2824,
      "侵": 2825,
      "便": 2826,
      "係": 2827,
      "促": 2828,
      "俗": 2829,
      "保": 2830,
      "俞": 2831,
      "信": 2832,
      "修": 2833,
      "俯": 2834,
      "個": 2835,
      "倍": 2836,
      "們": 2837,
      "倒": 2838,
      "候": 2839,
      "倚": 2840,
      "借": 2841,
      "値": 2842,
      "倦": 2843,
      "倫": 2844,
      "值": 2845,
      "倾": 2846,
      "假": 2847,
      "偏": 2848,
      "偕": 2849,
      "做": 2850,
      "停": 2851,
      "健": 2852,
      "側": 2853,
      "偶": 2854,
      "偽": 2855,
      "偿": 2856,
      "備": 2857,
      "傲": 2858,
      "傳": 2859,
      "傷": 2860,
      "傾": 2861,
      "僅": 2862,
      "働": 2863,
      "像": 2864,
      "僵": 2865,
      "價": 2866,
      "儀": 2867,
      "儒": 2868,
      "優": 2869,
      "儲": 2870,
      "儿": 2871,
      "允": 2872,
      "元": 2873,
      "兄": 2874,
      "充": 2875,
      "先": 2876,
      "光": 2877,
      "克": 2878,
      "免": 2879,
      "児": 2880,
      "兒": 2881,
      "党": 2882,
      "入": 2883,
      "內": 2884,
      "全": 2885,
      "兩": 2886,
      "八": 2887,
      "公": 2888,
      "六": 2889,
      "兰": 2890,
      "共": 2891,
      "关": 2892,
      "兴": 2893,
      "其": 2894,
      "具": 2895,
      "典": 2896,
      "养": 2897,
      "兼": 2898,
      "冀": 2899,
      "内": 2900,
      "册": 2901,
      "再": 2902,
      "冒": 2903,
      "写": 2904,
      "军": 2905,
      "农": 2906,
      "冠": 2907,
      "冬": 2908,
      "冰": 2909,
      "冲": 2910,
      "决": 2911,
      "况": 2912,
      "冷": 2913,
      "冻": 2914,
      "净": 2915,
      "准": 2916,
      "凉": 2917,
      "凋": 2918,
      "凌": 2919,
      "减": 2920,
      "凝": 2921,
      "几": 2922,
      "処": 2923,
      "凯": 2924,
      "凸": 2925,
      "凹": 2926,
      "出": 2927,
      "击": 2928,
      "凿": 2929,
      "刀": 2930,
      "刂": 2931,
      "分": 2932,
      "切": 2933,
      "刊": 2934,
      "刑": 2935,
      "划": 2936,
      "列": 2937,
      "刘": 2938,
      "则": 2939,
      "刚": 2940,
      "创": 2941,
      "初": 2942,
      "判": 2943,
      "別": 2944,
      "利": 2945,
      "别": 2946,
      "到": 2947,
      "制": 2948,
      "券": 2949,
      "刺": 2950,
      "刻": 2951,
      "剁": 2952,
      "剂": 2953,
      "剃": 2954,
      "則": 2955,
      "削": 2956,
      "前": 2957,
      "剑": 2958,
      "剖": 2959,
      "剤": 2960,
      "剧": 2961,
      "剩": 2962,
      "副": 2963,
      "剰": 2964,
      "割": 2965,
      "創": 2966,
      "劃": 2967,
      "劑": 2968,
      "力": 2969,
      "办": 2970,
      "功": 2971,
      "加": 2972,
      "务": 2973,
      "劣": 2974,
      "动": 2975,
      "助": 2976,
      "努": 2977,
      "劫": 2978,
      "励": 2979,
      "劳": 2980,
      "労": 2981,
      "効": 2982,
      "势": 2983,
      "勇": 2984,
      "勉": 2985,
      "勒": 2986,
      "動": 2987,
      "勘": 2988,
      "務": 2989,
      "募": 2990,
      "勢": 2991,
      "勤": 2992,
      "勧": 2993,
      "勿": 2994,
      "匀": 2995,
      "包": 2996,
      "化": 2997,
      "北": 2998,
      "匙": 2999,
      "匮": 3000,
      "匹": 3001,
      "区": 3002,
      "医": 3003,
      "匿": 3004,
      "區": 3005,
      "十": 3006,
      "千": 3007,
      "升": 3008,
      "午": 3009,
      "半": 3010,
      "华": 3011,
      "协": 3012,
      "卒": 3013,
      "協": 3014,
      "单": 3015,
      "卖": 3016,
      "南": 3017,
      "単": 3018,
      "博": 3019,
      "卜": 3020,
      "占": 3021,
      "卡": 3022,
      "卢": 3023,
      "卧": 3024,
      "卫": 3025,
      "印": 3026,
      "危": 3027,
      "即": 3028,
      "却": 3029,
      "卵": 3030,
      "卷": 3031,
      "厅": 3032,
      "历": 3033,
      "厉": 3034,
      "压": 3035,
      "厚": 3036,
      "原": 3037,
      "厥": 3038,
      "厦": 3039,
      "厳": 3040,
      "去": 3041,
      "县": 3042,
      "参": 3043,
      "參": 3044,
      "又": 3045,
      "叉": 3046,
      "及": 3047,
      "友": 3048,
      "双": 3049,
      "反": 3050,
      "収": 3051,
      "发": 3052,
      "叔": 3053,
      "取": 3054,
      "受": 3055,
      "变": 3056,
      "叙": 3057,
      "叠": 3058,
      "口": 3059,
      "古": 3060,
      "句": 3061,
      "另": 3062,
      "只": 3063,
      "叫": 3064,
      "召": 3065,
      "可": 3066,
      "台": 3067,
      "史": 3068,
      "右": 3069,
      "叶": 3070,
      "号": 3071,
      "司": 3072,
      "吃": 3073,
      "各": 3074,
      "合": 3075,
      "吉": 3076,
      "吊": 3077,
      "同": 3078,
      "名": 3079,
      "后": 3080,
      "吐": 3081,
      "向": 3082,
      "吒": 3083,
      "吖": 3084,
      "吗": 3085,
      "君": 3086,
      "吞": 3087,
      "吡": 3088,
      "否": 3089,
      "吧": 3090,
      "含": 3091,
      "听": 3092,
      "启": 3093,
      "吲": 3094,
      "吳": 3095,
      "吴": 3096,
      "吸": 3097,
      "吹": 3098,
      "吻": 3099,
      "吾": 3100,
      "呀": 3101,
      "呈": 3102,
      "告": 3103,
      "呋": 3104,
      "呕": 3105,
      "员": 3106,
      "呢": 3107,
      "呤": 3108,
      "呦": 3109,
      "周": 3110,
      "味": 3111,
      "呼": 3112,
      "命": 3113,
      "和": 3114,
      "咨": 3115,
      "咯": 3116,
      "咳": 3117,
      "咽": 3118,
      "哀": 3119,
      "品": 3120,
      "哌": 3121,
      "响": 3122,
      "哑": 3123,
      "哚": 3124,
      "員": 3125,
      "哥": 3126,
      "哪": 3127,
      "哭": 3128,
      "哲": 3129,
      "哺": 3130,
      "唆": 3131,
      "唐": 3132,
      "唑": 3133,
      "唱": 3134,
      "唾": 3135,
      "商": 3136,
      "啊": 3137,
      "問": 3138,
      "啓": 3139,
      "啥": 3140,
      "啰": 3141,
      "啶": 3142,
      "喀": 3143,
      "喂": 3144,
      "善": 3145,
      "喉": 3146,
      "喎": 3147,
      "喘": 3148,
      "喜": 3149,
      "喝": 3150,
      "喫": 3151,
      "單": 3152,
      "営": 3153,
      "喷": 3154,
      "喹": 3155,
      "嗜": 3156,
      "嗽": 3157,
      "嘌": 3158,
      "嘔": 3159,
      "嘛": 3160,
      "嘧": 3161,
      "嘱": 3162,
      "嘶": 3163,
      "噢": 3164,
      "器": 3165,
      "噬": 3166,
      "噻": 3167,
      "嚅": 3168,
      "嚏": 3169,
      "嚢": 3170,
      "嚨": 3171,
      "嚴": 3172,
      "囊": 3173,
      "囍": 3174,
      "四": 3175,
      "回": 3176,
      "因": 3177,
      "团": 3178,
      "団": 3179,
      "园": 3180,
      "困": 3181,
      "囲": 3182,
      "図": 3183,
      "围": 3184,
      "固": 3185,
      "国": 3186,
      "图": 3187,
      "圆": 3188,
      "圈": 3189,
      "國": 3190,
      "圍": 3191,
      "園": 3192,
      "土": 3193,
      "圣": 3194,
      "圧": 3195,
      "在": 3196,
      "圭": 3197,
      "地": 3198,
      "圳": 3199,
      "场": 3200,
      "址": 3201,
      "均": 3202,
      "坊": 3203,
      "坎": 3204,
      "坏": 3205,
      "坐": 3206,
      "块": 3207,
      "坚": 3208,
      "坛": 3209,
      "坠": 3210,
      "坦": 3211,
      "垂": 3212,
      "型": 3213,
      "埃": 3214,
      "城": 3215,
      "域": 3216,
      "培": 3217,
      "基": 3218,
      "埼": 3219,
      "堂": 3220,
      "堅": 3221,
      "堰": 3222,
      "報": 3223,
      "場": 3224,
      "堵": 3225,
      "塑": 3226,
      "塞": 3227,
      "填": 3228,
      "境": 3229,
      "増": 3230,
      "墙": 3231,
      "增": 3232,
      "墨": 3233,
      "壁": 3234,
      "壅": 3235,
      "壊": 3236,
      "士": 3237,
      "壬": 3238,
      "声": 3239,
      "壳": 3240,
      "壹": 3241,
      "处": 3242,
      "备": 3243,
      "変": 3244,
      "复": 3245,
      "夏": 3246,
      "夕": 3247,
      "外": 3248,
      "多": 3249,
      "夜": 3250,
      "够": 3251,
      "夠": 3252,
      "大": 3253,
      "天": 3254,
      "太": 3255,
      "夫": 3256,
      "央": 3257,
      "失": 3258,
      "头": 3259,
      "夷": 3260,
      "夹": 3261,
      "奇": 3262,
      "奈": 3263,
      "奎": 3264,
      "奏": 3265,
      "奖": 3266,
      "套": 3267,
      "奠": 3268,
      "奥": 3269,
      "奨": 3270,
      "女": 3271,
      "奶": 3272,
      "她": 3273,
      "好": 3274,
      "如": 3275,
      "妄": 3276,
      "妇": 3277,
      "妈": 3278,
      "妊": 3279,
      "妖": 3280,
      "妙": 3281,
      "妥": 3282,
      "始": 3283,
      "姐": 3284,
      "姓": 3285,
      "委": 3286,
      "姜": 3287,
      "姻": 3288,
      "威": 3289,
      "娃": 3290,
      "娇": 3291,
      "娠": 3292,
      "娱": 3293,
      "婁": 3294,
      "婚": 3295,
      "婦": 3296,
      "婧": 3297,
      "婴": 3298,
      "媛": 3299,
      "嫌": 3300,
      "子": 3301,
      "孔": 3302,
      "孕": 3303,
      "字": 3304,
      "存": 3305,
      "孚": 3306,
      "孝": 3307,
      "孟": 3308,
      "孢": 3309,
      "季": 3310,
      "学": 3311,
      "孩": 3312,
      "孵": 3313,
      "學": 3314,
      "宁": 3315,
      "它": 3316,
      "宇": 3317,
      "守": 3318,
      "安": 3319,
      "完": 3320,
      "宏": 3321,
      "宗": 3322,
      "官": 3323,
      "定": 3324,
      "宜": 3325,
      "宝": 3326,
      "实": 3327,
      "実": 3328,
      "宠": 3329,
      "客": 3330,
      "宣": 3331,
      "室": 3332,
      "宪": 3333,
      "宫": 3334,
      "宮": 3335,
      "宰": 3336,
      "害": 3337,
      "宴": 3338,
      "家": 3339,
      "容": 3340,
      "宽": 3341,
      "宿": 3342,
      "寄": 3343,
      "寅": 3344,
      "密": 3345,
      "富": 3346,
      "寒": 3347,
      "察": 3348,
      "實": 3349,
      "寨": 3350,
      "審": 3351,
      "寸": 3352,
      "对": 3353,
      "寻": 3354,
      "导": 3355,
      "対": 3356,
      "寿": 3357,
      "封": 3358,
      "専": 3359,
      "射": 3360,
      "将": 3361,
      "將": 3362,
      "專": 3363,
      "尊": 3364,
      "尋": 3365,
      "對": 3366,
      "導": 3367,
      "小": 3368,
      "少": 3369,
      "尔": 3370,
      "尖": 3371,
      "尘": 3372,
      "尚": 3373,
      "尝": 3374,
      "尤": 3375,
      "就": 3376,
      "尸": 3377,
      "尺": 3378,
      "尼": 3379,
      "尽": 3380,
      "尾": 3381,
      "尿": 3382,
      "局": 3383,
      "层": 3384,
      "居": 3385,
      "屈": 3386,
      "屋": 3387,
      "屏": 3388,
      "展": 3389,
      "属": 3390,
      "屠": 3391,
      "屬": 3392,
      "山": 3393,
      "岁": 3394,
      "岗": 3395,
      "岡": 3396,
      "岩": 3397,
      "岷": 3398,
      "岸": 3399,
      "峨": 3400,
      "峰": 3401,
      "峻": 3402,
      "崔": 3403,
      "崩": 3404,
      "嵌": 3405,
      "嵿": 3406,
      "川": 3407,
      "州": 3408,
      "巢": 3409,
      "工": 3410,
      "左": 3411,
      "巨": 3412,
      "巩": 3413,
      "差": 3414,
      "巯": 3415,
      "己": 3416,
      "已": 3417,
      "巴": 3418,
      "巾": 3419,
      "市": 3420,
      "布": 3421,
      "师": 3422,
      "希": 3423,
      "帐": 3424,
      "帕": 3425,
      "帝": 3426,
      "帥": 3427,
      "带": 3428,
      "師": 3429,
      "席": 3430,
      "帮": 3431,
      "帰": 3432,
      "帶": 3433,
      "常": 3434,
      "帼": 3435,
      "帽": 3436,
      "幂": 3437,
      "幅": 3438,
      "幕": 3439,
      "幣": 3440,
      "幫": 3441,
      "干": 3442,
      "平": 3443,
      "年": 3444,
      "并": 3445,
      "幸": 3446,
      "幹": 3447,
      "幻": 3448,
      "幼": 3449,
      "广": 3450,
      "広": 3451,
      "庄": 3452,
      "庆": 3453,
      "庇": 3454,
      "床": 3455,
      "序": 3456,
      "库": 3457,
      "应": 3458,
      "底": 3459,
      "店": 3460,
      "府": 3461,
      "废": 3462,
      "度": 3463,
      "座": 3464,
      "庫": 3465,
      "庭": 3466,
      "康": 3467,
      "庸": 3468,
      "廉": 3469,
      "廊": 3470,
      "廟": 3471,
      "廣": 3472,
      "延": 3473,
      "廷": 3474,
      "建": 3475,
      "开": 3476,
      "异": 3477,
      "弃": 3478,
      "弊": 3479,
      "式": 3480,
      "弓": 3481,
      "引": 3482,
      "弛": 3483,
      "弟": 3484,
      "张": 3485,
      "弥": 3486,
      "弯": 3487,
      "弱": 3488,
      "張": 3489,
      "強": 3490,
      "弹": 3491,
      "强": 3492,
      "归": 3493,
      "当": 3494,
      "录": 3495,
      "形": 3496,
      "彥": 3497,
      "彪": 3498,
      "影": 3499,
      "役": 3500,
      "彻": 3501,
      "彼": 3502,
      "往": 3503,
      "征": 3504,
      "径": 3505,
      "待": 3506,
      "很": 3507,
      "律": 3508,
      "後": 3509,
      "徐": 3510,
      "従": 3511,
      "得": 3512,
      "從": 3513,
      "御": 3514,
      "復": 3515,
      "循": 3516,
      "微": 3517,
      "徳": 3518,
      "徴": 3519,
      "徵": 3520,
      "德": 3521,
      "徽": 3522,
      "心": 3523,
      "必": 3524,
      "忌": 3525,
      "忍": 3526,
      "志": 3527,
      "忘": 3528,
      "応": 3529,
      "忠": 3530,
      "忧": 3531,
      "快": 3532,
      "念": 3533,
      "忽": 3534,
      "怀": 3535,
      "态": 3536,
      "怎": 3537,
      "怒": 3538,
      "怕": 3539,
      "怖": 3540,
      "思": 3541,
      "怠": 3542,
      "急": 3543,
      "性": 3544,
      "怪": 3545,
      "总": 3546,
      "恐": 3547,
      "恒": 3548,
      "恢": 3549,
      "恥": 3550,
      "恩": 3551,
      "息": 3552,
      "恰": 3553,
      "恶": 3554,
      "恺": 3555,
      "悅": 3556,
      "悉": 3557,
      "悟": 3558,
      "悠": 3559,
      "患": 3560,
      "您": 3561,
      "悩": 3562,
      "悪": 3563,
      "悲": 3564,
      "悸": 3565,
      "情": 3566,
      "惊": 3567,
      "惕": 3568,
      "惠": 3569,
      "惡": 3570,
      "惧": 3571,
      "惭": 3572,
      "惰": 3573,
      "惱": 3574,
      "想": 3575,
      "惹": 3576,
      "愈": 3577,
      "意": 3578,
      "愚": 3579,
      "愛": 3580,
      "感": 3581,
      "愧": 3582,
      "愿": 3583,
      "慈": 3584,
      "態": 3585,
      "慌": 3586,
      "慎": 3587,
      "慢": 3588,
      "慧": 3589,
      "慨": 3590,
      "慮": 3591,
      "慶": 3592,
      "慷": 3593,
      "慾": 3594,
      "憂": 3595,
      "憋": 3596,
      "憤": 3597,
      "憶": 3598,
      "懈": 3599,
      "應": 3600,
      "懋": 3601,
      "懸": 3602,
      "懼": 3603,
      "戊": 3604,
      "戏": 3605,
      "成": 3606,
      "我": 3607,
      "戒": 3608,
      "或": 3609,
      "战": 3610,
      "戦": 3611,
      "截": 3612,
      "戲": 3613,
      "戴": 3614,
      "户": 3615,
      "戾": 3616,
      "房": 3617,
      "所": 3618,
      "扁": 3619,
      "手": 3620,
      "才": 3621,
      "扎": 3622,
      "打": 3623,
      "托": 3624,
      "扛": 3625,
      "执": 3626,
      "扩": 3627,
      "扫": 3628,
      "扬": 3629,
      "扮": 3630,
      "扰": 3631,
      "扳": 3632,
      "扶": 3633,
      "批": 3634,
      "找": 3635,
      "承": 3636,
      "技": 3637,
      "把": 3638,
      "抑": 3639,
      "抓": 3640,
      "投": 3641,
      "抖": 3642,
      "抗": 3643,
      "抛": 3644,
      "抜": 3645,
      "択": 3646,
      "抢": 3647,
      "护": 3648,
      "报": 3649,
      "抱": 3650,
      "抵": 3651,
      "押": 3652,
      "抽": 3653,
      "拂": 3654,
      "担": 3655,
      "拉": 3656,
      "拋": 3657,
      "拍": 3658,
      "拒": 3659,
      "拓": 3660,
      "拘": 3661,
      "招": 3662,
      "拟": 3663,
      "拠": 3664,
      "拡": 3665,
      "拥": 3666,
      "拨": 3667,
      "择": 3668,
      "括": 3669,
      "拭": 3670,
      "拳": 3671,
      "拶": 3672,
      "拷": 3673,
      "拾": 3674,
      "拿": 3675,
      "持": 3676,
      "挂": 3677,
      "指": 3678,
      "按": 3679,
      "挑": 3680,
      "挖": 3681,
      "挙": 3682,
      "挠": 3683,
      "挡": 3684,
      "挥": 3685,
      "挨": 3686,
      "振": 3687,
      "挽": 3688,
      "挿": 3689,
      "捕": 3690,
      "损": 3691,
      "换": 3692,
      "据": 3693,
      "捷": 3694,
      "授": 3695,
      "掉": 3696,
      "掌": 3697,
      "排": 3698,
      "掘": 3699,
      "採": 3700,
      "探": 3701,
      "接": 3702,
      "控": 3703,
      "推": 3704,
      "掩": 3705,
      "措": 3706,
      "掲": 3707,
      "揉": 3708,
      "描": 3709,
      "提": 3710,
      "插": 3711,
      "換": 3712,
      "握": 3713,
      "揭": 3714,
      "援": 3715,
      "搜": 3716,
      "搬": 3717,
      "搭": 3718,
      "携": 3719,
      "摄": 3720,
      "摘": 3721,
      "摸": 3722,
      "撑": 3723,
      "撤": 3724,
      "播": 3725,
      "撮": 3726,
      "擇": 3727,
      "操": 3728,
      "據": 3729,
      "擦": 3730,
      "擬": 3731,
      "擴": 3732,
      "攒": 3733,
      "攣": 3734,
      "支": 3735,
      "收": 3736,
      "改": 3737,
      "攻": 3738,
      "放": 3739,
      "政": 3740,
      "故": 3741,
      "效": 3742,
      "敏": 3743,
      "救": 3744,
      "敗": 3745,
      "教": 3746,
      "散": 3747,
      "敦": 3748,
      "敬": 3749,
      "数": 3750,
      "敲": 3751,
      "整": 3752,
      "數": 3753,
      "文": 3754,
      "斑": 3755,
      "斗": 3756,
      "料": 3757,
      "斜": 3758,
      "斤": 3759,
      "斥": 3760,
      "断": 3761,
      "斯": 3762,
      "新": 3763,
      "方": 3764,
      "於": 3765,
      "施": 3766,
      "旁": 3767,
      "旅": 3768,
      "旋": 3769,
      "族": 3770,
      "旗": 3771,
      "无": 3772,
      "既": 3773,
      "日": 3774,
      "旦": 3775,
      "旧": 3776,
      "旨": 3777,
      "早": 3778,
      "旬": 3779,
      "旱": 3780,
      "时": 3781,
      "昂": 3782,
      "昆": 3783,
      "昇": 3784,
      "昌": 3785,
      "明": 3786,
      "易": 3787,
      "昔": 3788,
      "星": 3789,
      "映": 3790,
      "春": 3791,
      "昧": 3792,
      "昨": 3793,
      "是": 3794,
      "昼": 3795,
      "显": 3796,
      "時": 3797,
      "晋": 3798,
      "晏": 3799,
      "晓": 3800,
      "晚": 3801,
      "普": 3802,
      "景": 3803,
      "晰": 3804,
      "晶": 3805,
      "智": 3806,
      "暂": 3807,
      "暑": 3808,
      "暖": 3809,
      "暗": 3810,
      "暦": 3811,
      "暫": 3812,
      "暮": 3813,
      "暲": 3814,
      "暳": 3815,
      "暴": 3816,
      "曒": 3817,
      "曝": 3818,
      "曟": 3819,
      "曲": 3820,
      "更": 3821,
      "書": 3822,
      "曼": 3823,
      "曾": 3824,
      "替": 3825,
      "最": 3826,
      "會": 3827,
      "月": 3828,
      "有": 3829,
      "朋": 3830,
      "服": 3831,
      "望": 3832,
      "朝": 3833,
      "期": 3834,
      "木": 3835,
      "未": 3836,
      "末": 3837,
      "本": 3838,
      "朮": 3839,
      "术": 3840,
      "朱": 3841,
      "朴": 3842,
      "朶": 3843,
      "机": 3844,
      "杀": 3845,
      "杂": 3846,
      "权": 3847,
      "李": 3848,
      "杏": 3849,
      "材": 3850,
      "村": 3851,
      "杖": 3852,
      "杜": 3853,
      "束": 3854,
      "条": 3855,
      "来": 3856,
      "杨": 3857,
      "杭": 3858,
      "杯": 3859,
      "杰": 3860,
      "東": 3861,
      "杷": 3862,
      "杼": 3863,
      "松": 3864,
      "板": 3865,
      "极": 3866,
      "构": 3867,
      "枇": 3868,
      "析": 3869,
      "林": 3870,
      "果": 3871,
      "枝": 3872,
      "枢": 3873,
      "枣": 3874,
      "枫": 3875,
      "枳": 3876,
      "架": 3877,
      "柏": 3878,
      "某": 3879,
      "染": 3880,
      "柔": 3881,
      "查": 3882,
      "柯": 3883,
      "柱": 3884,
      "柳": 3885,
      "柴": 3886,
      "査": 3887,
      "栀": 3888,
      "栄": 3889,
      "标": 3890,
      "树": 3891,
      "栓": 3892,
      "校": 3893,
      "株": 3894,
      "样": 3895,
      "核": 3896,
      "根": 3897,
      "栺": 3898,
      "栻": 3899,
      "格": 3900,
      "栽": 3901,
      "栿": 3902,
      "桂": 3903,
      "桃": 3904,
      "框": 3905,
      "案": 3906,
      "桑": 3907,
      "桔": 3908,
      "桥": 3909,
      "桶": 3910,
      "梁": 3911,
      "梅": 3912,
      "梗": 3913,
      "梢": 3914,
      "梦": 3915,
      "梨": 3916,
      "梯": 3917,
      "械": 3918,
      "检": 3919,
      "棉": 3920,
      "棋": 3921,
      "棒": 3922,
      "棗": 3923,
      "棟": 3924,
      "棣": 3925,
      "森": 3926,
      "植": 3927,
      "椎": 3928,
      "椒": 3929,
      "検": 3930,
      "椭": 3931,
      "楂": 3932,
      "楔": 3933,
      "楚": 3934,
      "業": 3935,
      "極": 3936,
      "楼": 3937,
      "概": 3938,
      "榧": 3939,
      "構": 3940,
      "様": 3941,
      "樂": 3942,
      "標": 3943,
      "樞": 3944,
      "樟": 3945,
      "模": 3946,
      "樣": 3947,
      "横": 3948,
      "橘": 3949,
      "機": 3950,
      "檀": 3951,
      "檢": 3952,
      "權": 3953,
      "欖": 3954,
      "欠": 3955,
      "次": 3956,
      "欢": 3957,
      "欧": 3958,
      "欲": 3959,
      "欺": 3960,
      "款": 3961,
      "歇": 3962,
      "歉": 3963,
      "歌": 3964,
      "止": 3965,
      "正": 3966,
      "此": 3967,
      "步": 3968,
      "武": 3969,
      "歧": 3970,
      "歩": 3971,
      "歪": 3972,
      "歳": 3973,
      "歴": 3974,
      "歸": 3975,
      "死": 3976,
      "殊": 3977,
      "残": 3978,
      "殖": 3979,
      "段": 3980,
      "殺": 3981,
      "毅": 3982,
      "母": 3983,
      "每": 3984,
      "毒": 3985,
      "比": 3986,
      "毛": 3987,
      "毭": 3988,
      "毷": 3989,
      "毺": 3990,
      "氏": 3991,
      "民": 3992,
      "气": 3993,
      "気": 3994,
      "氟": 3995,
      "氢": 3996,
      "氣": 3997,
      "氧": 3998,
      "氨": 3999,
      "氮": 4000,
      "氯": 4001,
      "水": 4002,
      "氵": 4003,
      "永": 4004,
      "汁": 4005,
      "求": 4006,
      "汇": 4007,
      "汉": 4008,
      "汗": 4009,
      "江": 4010,
      "池": 4011,
      "污": 4012,
      "汤": 4013,
      "決": 4014,
      "汾": 4015,
      "沂": 4016,
      "沈": 4017,
      "沉": 4018,
      "沒": 4019,
      "沙": 4020,
      "沟": 4021,
      "没": 4022,
      "沫": 4023,
      "沮": 4024,
      "河": 4025,
      "油": 4026,
      "治": 4027,
      "沿": 4028,
      "況": 4029,
      "泄": 4030,
      "泉": 4031,
      "泊": 4032,
      "泌": 4033,
      "法": 4034,
      "泛": 4035,
      "泡": 4036,
      "波": 4037,
      "泣": 4038,
      "泥": 4039,
      "注": 4040,
      "泰": 4041,
      "泳": 4042,
      "泵": 4043,
      "泻": 4044,
      "泼": 4045,
      "泽": 4046,
      "洁": 4047,
      "洋": 4048,
      "洒": 4049,
      "洗": 4050,
      "洛": 4051,
      "津": 4052,
      "洪": 4053,
      "洲": 4054,
      "活": 4055,
      "派": 4056,
      "流": 4057,
      "浄": 4058,
      "浅": 4059,
      "浆": 4060,
      "浊": 4061,
      "测": 4062,
      "济": 4063,
      "浓": 4064,
      "浙": 4065,
      "浜": 4066,
      "浦": 4067,
      "浩": 4068,
      "浪": 4069,
      "浮": 4070,
      "浴": 4071,
      "海": 4072,
      "浸": 4073,
      "涂": 4074,
      "消": 4075,
      "涉": 4076,
      "涌": 4077,
      "涕": 4078,
      "涛": 4079,
      "润": 4080,
      "涨": 4081,
      "液": 4082,
      "涵": 4083,
      "淀": 4084,
      "淆": 4085,
      "淋": 4086,
      "淘": 4087,
      "淡": 4088,
      "淤": 4089,
      "淨": 4090,
      "淫": 4091,
      "淮": 4092,
      "深": 4093,
      "混": 4094,
      "添": 4095,
      "清": 4096,
      "済": 4097,
      "渋": 4098,
      "渍": 4099,
      "渐": 4100,
      "渗": 4101,
      "減": 4102,
      "渠": 4103,
      "渡": 4104,
      "温": 4105,
      "測": 4106,
      "渭": 4107,
      "港": 4108,
      "游": 4109,
      "湃": 4110,
      "湖": 4111,
      "湯": 4112,
      "湾": 4113,
      "湿": 4114,
      "満": 4115,
      "溃": 4116,
      "溅": 4117,
      "溉": 4118,
      "源": 4119,
      "準": 4120,
      "溜": 4121,
      "溟": 4122,
      "溪": 4123,
      "溫": 4124,
      "溯": 4125,
      "溴": 4126,
      "溶": 4127,
      "滅": 4128,
      "滋": 4129,
      "滑": 4130,
      "滞": 4131,
      "满": 4132,
      "滤": 4133,
      "滩": 4134,
      "滴": 4135,
      "滿": 4136,
      "漁": 4137,
      "漆": 4138,
      "漏": 4139,
      "演": 4140,
      "漢": 4141,
      "漫": 4142,
      "漱": 4143,
      "漳": 4144,
      "漸": 4145,
      "潍": 4146,
      "潘": 4147,
      "潜": 4148,
      "潟": 4149,
      "潤": 4150,
      "潮": 4151,
      "潴": 4152,
      "澎": 4153,
      "澤": 4154,
      "激": 4155,
      "濃": 4156,
      "濕": 4157,
      "瀉": 4158,
      "瀑": 4159,
      "灌": 4160,
      "灣": 4161,
      "火": 4162,
      "灭": 4163,
      "灰": 4164,
      "灵": 4165,
      "灶": 4166,
      "灸": 4167,
      "灾": 4168,
      "炆": 4169,
      "炎": 4170,
      "炒": 4171,
      "炙": 4172,
      "炭": 4173,
      "点": 4174,
      "為": 4175,
      "炼": 4176,
      "烂": 4177,
      "烈": 4178,
      "烏": 4179,
      "烟": 4180,
      "烤": 4181,
      "烦": 4182,
      "烧": 4183,
      "热": 4184,
      "烯": 4185,
      "烷": 4186,
      "焕": 4187,
      "無": 4188,
      "焦": 4189,
      "然": 4190,
      "煌": 4191,
      "煎": 4192,
      "煙": 4193,
      "照": 4194,
      "煩": 4195,
      "煽": 4196,
      "熙": 4197,
      "熟": 4198,
      "熱": 4199,
      "熾": 4200,
      "燁": 4201,
      "燃": 4202,
      "燒": 4203,
      "燔": 4204,
      "燕": 4205,
      "營": 4206,
      "爆": 4207,
      "爪": 4208,
      "爬": 4209,
      "爭": 4210,
      "爱": 4211,
      "父": 4212,
      "爷": 4213,
      "爺": 4214,
      "爾": 4215,
      "片": 4216,
      "版": 4217,
      "牌": 4218,
      "牙": 4219,
      "牛": 4220,
      "牡": 4221,
      "物": 4222,
      "牲": 4223,
      "牵": 4224,
      "特": 4225,
      "牺": 4226,
      "犀": 4227,
      "犬": 4228,
      "犯": 4229,
      "状": 4230,
      "狀": 4231,
      "狂": 4232,
      "狗": 4233,
      "独": 4234,
      "狭": 4235,
      "狸": 4236,
      "狼": 4237,
      "猄": 4238,
      "猝": 4239,
      "猪": 4240,
      "猫": 4241,
      "献": 4242,
      "猴": 4243,
      "猿": 4244,
      "獣": 4245,
      "獨": 4246,
      "獲": 4247,
      "玄": 4248,
      "率": 4249,
      "玉": 4250,
      "王": 4251,
      "玩": 4252,
      "环": 4253,
      "现": 4254,
      "玲": 4255,
      "玻": 4256,
      "珍": 4257,
      "珎": 4258,
      "珠": 4259,
      "班": 4260,
      "現": 4261,
      "球": 4262,
      "理": 4263,
      "琴": 4264,
      "瑞": 4265,
      "瑭": 4266,
      "璃": 4267,
      "環": 4268,
      "瓜": 4269,
      "瓣": 4270,
      "瓶": 4271,
      "甄": 4272,
      "甘": 4273,
      "甙": 4274,
      "甚": 4275,
      "生": 4276,
      "産": 4277,
      "用": 4278,
      "田": 4279,
      "由": 4280,
      "甲": 4281,
      "申": 4282,
      "电": 4283,
      "男": 4284,
      "町": 4285,
      "画": 4286,
      "畅": 4287,
      "界": 4288,
      "畏": 4289,
      "留": 4290,
      "畜": 4291,
      "略": 4292,
      "番": 4293,
      "畫": 4294,
      "異": 4295,
      "畴": 4296,
      "畸": 4297,
      "疏": 4298,
      "疑": 4299,
      "疒": 4300,
      "疗": 4301,
      "疚": 4302,
      "疟": 4303,
      "疠": 4304,
      "疫": 4305,
      "疮": 4306,
      "疯": 4307,
      "疱": 4308,
      "疲": 4309,
      "疸": 4310,
      "疹": 4311,
      "疼": 4312,
      "疽": 4313,
      "疾": 4314,
      "病": 4315,
      "症": 4316,
      "痕": 4317,
      "痘": 4318,
      "痙": 4319,
      "痛": 4320,
      "痢": 4321,
      "痫": 4322,
      "痰": 4323,
      "痹": 4324,
      "痺": 4325,
      "瘀": 4326,
      "瘋": 4327,
      "瘟": 4328,
      "瘢": 4329,
      "瘤": 4330,
      "瘦": 4331,
      "瘧": 4332,
      "療": 4333,
      "癌": 4334,
      "癒": 4335,
      "癥": 4336,
      "癫": 4337,
      "発": 4338,
      "登": 4339,
      "發": 4340,
      "白": 4341,
      "百": 4342,
      "皂": 4343,
      "的": 4344,
      "皆": 4345,
      "皇": 4346,
      "皮": 4347,
      "盈": 4348,
      "益": 4349,
      "盐": 4350,
      "监": 4351,
      "盒": 4352,
      "盖": 4353,
      "盗": 4354,
      "盘": 4355,
      "盟": 4356,
      "盡": 4357,
      "目": 4358,
      "盲": 4359,
      "直": 4360,
      "相": 4361,
      "盾": 4362,
      "省": 4363,
      "眉": 4364,
      "看": 4365,
      "県": 4366,
      "真": 4367,
      "眠": 4368,
      "眼": 4369,
      "眾": 4370,
      "着": 4371,
      "睡": 4372,
      "督": 4373,
      "睦": 4374,
      "瞻": 4375,
      "矛": 4376,
      "知": 4377,
      "短": 4378,
      "矮": 4379,
      "石": 4380,
      "码": 4381,
      "砂": 4382,
      "砍": 4383,
      "研": 4384,
      "砖": 4385,
      "破": 4386,
      "础": 4387,
      "硅": 4388,
      "硬": 4389,
      "确": 4390,
      "碍": 4391,
      "碎": 4392,
      "碑": 4393,
      "碗": 4394,
      "碘": 4395,
      "碰": 4396,
      "碱": 4397,
      "碳": 4398,
      "確": 4399,
      "磁": 4400,
      "磨": 4401,
      "磷": 4402,
      "磺": 4403,
      "礎": 4404,
      "示": 4405,
      "礼": 4406,
      "社": 4407,
      "祖": 4408,
      "祛": 4409,
      "祝": 4410,
      "神": 4411,
      "祠": 4412,
      "票": 4413,
      "祯": 4414,
      "禁": 4415,
      "禄": 4416,
      "禍": 4417,
      "福": 4418,
      "禮": 4419,
      "离": 4420,
      "禽": 4421,
      "禾": 4422,
      "秀": 4423,
      "私": 4424,
      "秋": 4425,
      "种": 4426,
      "科": 4427,
      "秒": 4428,
      "秘": 4429,
      "租": 4430,
      "秦": 4431,
      "积": 4432,
      "称": 4433,
      "移": 4434,
      "稀": 4435,
      "程": 4436,
      "稍": 4437,
      "税": 4438,
      "稚": 4439,
      "種": 4440,
      "稳": 4441,
      "稽": 4442,
      "稿": 4443,
      "積": 4444,
      "穗": 4445,
      "穴": 4446,
      "究": 4447,
      "穹": 4448,
      "空": 4449,
      "穿": 4450,
      "突": 4451,
      "窄": 4452,
      "窒": 4453,
      "窓": 4454,
      "窗": 4455,
      "窘": 4456,
      "窝": 4457,
      "窦": 4458,
      "窮": 4459,
      "立": 4460,
      "站": 4461,
      "竟": 4462,
      "章": 4463,
      "童": 4464,
      "竭": 4465,
      "端": 4466,
      "竹": 4467,
      "竺": 4468,
      "笑": 4469,
      "符": 4470,
      "第": 4471,
      "笳": 4472,
      "等": 4473,
      "筋": 4474,
      "筑": 4475,
      "答": 4476,
      "策": 4477,
      "筛": 4478,
      "签": 4479,
      "简": 4480,
      "算": 4481,
      "管": 4482,
      "節": 4483,
      "範": 4484,
      "篇": 4485,
      "築": 4486,
      "篤": 4487,
      "篷": 4488,
      "簇": 4489,
      "簡": 4490,
      "簧": 4491,
      "籌": 4492,
      "籍": 4493,
      "籲": 4494,
      "米": 4495,
      "类": 4496,
      "粉": 4497,
      "粒": 4498,
      "粗": 4499,
      "粘": 4500,
      "粥": 4501,
      "粪": 4502,
      "粮": 4503,
      "精": 4504,
      "糖": 4505,
      "系": 4506,
      "紀": 4507,
      "約": 4508,
      "紅": 4509,
      "紊": 4510,
      "純": 4511,
      "紙": 4512,
      "素": 4513,
      "索": 4514,
      "紧": 4515,
      "紫": 4516,
      "累": 4517,
      "細": 4518,
      "紹": 4519,
      "終": 4520,
      "組": 4521,
      "経": 4522,
      "結": 4523,
      "絡": 4524,
      "給": 4525,
      "絮": 4526,
      "絲": 4527,
      "絵": 4528,
      "絶": 4529,
      "經": 4530,
      "継": 4531,
      "続": 4532,
      "綢": 4533,
      "維": 4534,
      "綱": 4535,
      "緊": 4536,
      "総": 4537,
      "線": 4538,
      "締": 4539,
      "編": 4540,
      "緩": 4541,
      "練": 4542,
      "縁": 4543,
      "縮": 4544,
      "總": 4545,
      "績": 4546,
      "繁": 4547,
      "繰": 4548,
      "續": 4549,
      "纓": 4550,
      "纠": 4551,
      "红": 4552,
      "纤": 4553,
      "约": 4554,
      "级": 4555,
      "纪": 4556,
      "纯": 4557,
      "纲": 4558,
      "纳": 4559,
      "纵": 4560,
      "纷": 4561,
      "纸": 4562,
      "纹": 4563,
      "纽": 4564,
      "线": 4565,
      "绀": 4566,
      "练": 4567,
      "组": 4568,
      "细": 4569,
      "织": 4570,
      "终": 4571,
      "绍": 4572,
      "经": 4573,
      "绒": 4574,
      "结": 4575,
      "绘": 4576,
      "给": 4577,
      "绛": 4578,
      "络": 4579,
      "绝": 4580,
      "绞": 4581,
      "统": 4582,
      "继": 4583,
      "绩": 4584,
      "绪": 4585,
      "续": 4586,
      "维": 4587,
      "绵": 4588,
      "综": 4589,
      "绿": 4590,
      "缓": 4591,
      "缔": 4592,
      "编": 4593,
      "缘": 4594,
      "缩": 4595,
      "缬": 4596,
      "缺": 4597,
      "网": 4598,
      "罕": 4599,
      "罗": 4600,
      "罩": 4601,
      "罪": 4602,
      "置": 4603,
      "罰": 4604,
      "署": 4605,
      "罹": 4606,
      "羅": 4607,
      "羊": 4608,
      "羌": 4609,
      "美": 4610,
      "羞": 4611,
      "羟": 4612,
      "群": 4613,
      "義": 4614,
      "羽": 4615,
      "翅": 4616,
      "翌": 4617,
      "習": 4618,
      "翘": 4619,
      "翠": 4620,
      "翹": 4621,
      "翻": 4622,
      "翼": 4623,
      "老": 4624,
      "考": 4625,
      "者": 4626,
      "耆": 4627,
      "而": 4628,
      "耐": 4629,
      "耗": 4630,
      "耠": 4631,
      "耳": 4632,
      "耻": 4633,
      "聂": 4634,
      "聊": 4635,
      "职": 4636,
      "联": 4637,
      "聚": 4638,
      "聞": 4639,
      "聪": 4640,
      "聯": 4641,
      "聴": 4642,
      "職": 4643,
      "肅": 4644,
      "肉": 4645,
      "肌": 4646,
      "肓": 4647,
      "肘": 4648,
      "肚": 4649,
      "肝": 4650,
      "肠": 4651,
      "股": 4652,
      "肢": 4653,
      "肤": 4654,
      "肥": 4655,
      "肩": 4656,
      "肯": 4657,
      "育": 4658,
      "肺": 4659,
      "肼": 4660,
      "肽": 4661,
      "肾": 4662,
      "肿": 4663,
      "胀": 4664,
      "胁": 4665,
      "胃": 4666,
      "胆": 4667,
      "背": 4668,
      "胎": 4669,
      "胖": 4670,
      "胚": 4671,
      "胜": 4672,
      "胞": 4673,
      "胡": 4674,
      "胯": 4675,
      "胰": 4676,
      "胱": 4677,
      "胶": 4678,
      "胸": 4679,
      "胺": 4680,
      "能": 4681,
      "脂": 4682,
      "脅": 4683,
      "脆": 4684,
      "脈": 4685,
      "脉": 4686,
      "脊": 4687,
      "脏": 4688,
      "脑": 4689,
      "脓": 4690,
      "脘": 4691,
      "脚": 4692,
      "脱": 4693,
      "脲": 4694,
      "脳": 4695,
      "脸": 4696,
      "脾": 4697,
      "腋": 4698,
      "腎": 4699,
      "腐": 4700,
      "腑": 4701,
      "腔": 4702,
      "腕": 4703,
      "腥": 4704,
      "腦": 4705,
      "腫": 4706,
      "腰": 4707,
      "腸": 4708,
      "腹": 4709,
      "腺": 4710,
      "腿": 4711,
      "膀": 4712,
      "膈": 4713,
      "膏": 4714,
      "膚": 4715,
      "膜": 4716,
      "膝": 4717,
      "膠": 4718,
      "膦": 4719,
      "膨": 4720,
      "膻": 4721,
      "膽": 4722,
      "臂": 4723,
      "臉": 4724,
      "臓": 4725,
      "臟": 4726,
      "臣": 4727,
      "臥": 4728,
      "臧": 4729,
      "臨": 4730,
      "自": 4731,
      "至": 4732,
      "致": 4733,
      "舃": 4734,
      "舅": 4735,
      "舆": 4736,
      "與": 4737,
      "興": 4738,
      "舉": 4739,
      "舌": 4740,
      "舍": 4741,
      "舒": 4742,
      "舔": 4743,
      "舞": 4744,
      "舟": 4745,
      "航": 4746,
      "般": 4747,
      "舱": 4748,
      "船": 4749,
      "艙": 4750,
      "艠": 4751,
      "良": 4752,
      "色": 4753,
      "艳": 4754,
      "艺": 4755,
      "艾": 4756,
      "节": 4757,
      "芍": 4758,
      "芎": 4759,
      "芥": 4760,
      "芦": 4761,
      "芩": 4762,
      "芪": 4763,
      "芬": 4764,
      "芯": 4765,
      "花": 4766,
      "芳": 4767,
      "芷": 4768,
      "芽": 4769,
      "苈": 4770,
      "苍": 4771,
      "苏": 4772,
      "苑": 4773,
      "苓": 4774,
      "苔": 4775,
      "苗": 4776,
      "苞": 4777,
      "苡": 4778,
      "若": 4779,
      "苦": 4780,
      "苯": 4781,
      "英": 4782,
      "苷": 4783,
      "范": 4784,
      "茅": 4785,
      "茯": 4786,
      "茵": 4787,
      "茶": 4788,
      "茹": 4789,
      "荆": 4790,
      "草": 4791,
      "荊": 4792,
      "荐": 4793,
      "荣": 4794,
      "荤": 4795,
      "荧": 4796,
      "荨": 4797,
      "药": 4798,
      "荷": 4799,
      "莔": 4800,
      "莠": 4801,
      "莪": 4802,
      "莫": 4803,
      "莱": 4804,
      "莲": 4805,
      "获": 4806,
      "莹": 4807,
      "菀": 4808,
      "菁": 4809,
      "菇": 4810,
      "菊": 4811,
      "菌": 4812,
      "菓": 4813,
      "菖": 4814,
      "菜": 4815,
      "華": 4816,
      "萄": 4817,
      "萌": 4818,
      "营": 4819,
      "萬": 4820,
      "落": 4821,
      "葉": 4822,
      "著": 4823,
      "葛": 4824,
      "葡": 4825,
      "董": 4826,
      "葦": 4827,
      "葶": 4828,
      "蒂": 4829,
      "蒋": 4830,
      "蒌": 4831,
      "蒜": 4832,
      "蒟": 4833,
      "蒡": 4834,
      "蒲": 4835,
      "蒺": 4836,
      "蒿": 4837,
      "蓄": 4838,
      "蓝": 4839,
      "蓮": 4840,
      "蓼": 4841,
      "蔓": 4842,
      "蔥": 4843,
      "蔻": 4844,
      "蕈": 4845,
      "蕴": 4846,
      "蕺": 4847,
      "蕾": 4848,
      "薄": 4849,
      "薏": 4850,
      "薑": 4851,
      "薛": 4852,
      "薬": 4853,
      "藉": 4854,
      "藍": 4855,
      "藏": 4856,
      "藜": 4857,
      "藝": 4858,
      "藤": 4859,
      "藥": 4860,
      "藿": 4861,
      "蘇": 4862,
      "蘊": 4863,
      "虎": 4864,
      "虏": 4865,
      "虑": 4866,
      "處": 4867,
      "虚": 4868,
      "虛": 4869,
      "虫": 4870,
      "虹": 4871,
      "虻": 4872,
      "虽": 4873,
      "蚊": 4874,
      "蚕": 4875,
      "蚧": 4876,
      "蛇": 4877,
      "蛊": 4878,
      "蛋": 4879,
      "蛎": 4880,
      "蛤": 4881,
      "蛮": 4882,
      "蛾": 4883,
      "蜀": 4884,
      "蜂": 4885,
      "蜜": 4886,
      "蝗": 4887,
      "蝙": 4888,
      "蝠": 4889,
      "蝦": 4890,
      "蝶": 4891,
      "融": 4892,
      "螺": 4893,
      "蟲": 4894,
      "血": 4895,
      "行": 4896,
      "衍": 4897,
      "術": 4898,
      "街": 4899,
      "衛": 4900,
      "衡": 4901,
      "衢": 4902,
      "衣": 4903,
      "补": 4904,
      "表": 4905,
      "衰": 4906,
      "袋": 4907,
      "袖": 4908,
      "袜": 4909,
      "袢": 4910,
      "袪": 4911,
      "被": 4912,
      "袭": 4913,
      "裁": 4914,
      "裂": 4915,
      "装": 4916,
      "裕": 4917,
      "補": 4918,
      "裹": 4919,
      "製": 4920,
      "複": 4921,
      "褲": 4922,
      "襲": 4923,
      "西": 4924,
      "要": 4925,
      "覆": 4926,
      "見": 4927,
      "規": 4928,
      "視": 4929,
      "覚": 4930,
      "観": 4931,
      "觀": 4932,
      "见": 4933,
      "观": 4934,
      "规": 4935,
      "视": 4936,
      "览": 4937,
      "角": 4938,
      "解": 4939,
      "触": 4940,
      "觸": 4941,
      "言": 4942,
      "計": 4943,
      "訊": 4944,
      "討": 4945,
      "託": 4946,
      "記": 4947,
      "設": 4948,
      "許": 4949,
      "訳": 4950,
      "訴": 4951,
      "訶": 4952,
      "診": 4953,
      "証": 4954,
      "詐": 4955,
      "評": 4956,
      "試": 4957,
      "話": 4958,
      "該": 4959,
      "詳": 4960,
      "詵": 4961,
      "誉": 4962,
      "誌": 4963,
      "認": 4964,
      "誘": 4965,
      "語": 4966,
      "誠": 4967,
      "說": 4968,
      "説": 4969,
      "誰": 4970,
      "課": 4971,
      "調": 4972,
      "談": 4973,
      "請": 4974,
      "論": 4975,
      "諧": 4976,
      "諸": 4977,
      "諾": 4978,
      "講": 4979,
      "謝": 4980,
      "謹": 4981,
      "證": 4982,
      "識": 4983,
      "警": 4984,
      "議": 4985,
      "護": 4986,
      "變": 4987,
      "讓": 4988,
      "计": 4989,
      "订": 4990,
      "认": 4991,
      "讨": 4992,
      "让": 4993,
      "训": 4994,
      "议": 4995,
      "记": 4996,
      "讲": 4997,
      "许": 4998,
      "论": 4999,
      "讼": 5000,
      "讽": 5001,
      "设": 5002,
      "访": 5003,
      "证": 5004,
      "评": 5005,
      "识": 5006,
      "诈": 5007,
      "诉": 5008,
      "诊": 5009,
      "词": 5010,
      "试": 5011,
      "诚": 5012,
      "话": 5013,
      "询": 5014,
      "该": 5015,
      "详": 5016,
      "语": 5017,
      "误": 5018,
      "诱": 5019,
      "说": 5020,
      "请": 5021,
      "诸": 5022,
      "诺": 5023,
      "读": 5024,
      "课": 5025,
      "调": 5026,
      "谋": 5027,
      "谢": 5028,
      "谣": 5029,
      "谦": 5030,
      "谨": 5031,
      "谱": 5032,
      "谷": 5033,
      "豆": 5034,
      "豉": 5035,
      "豊": 5036,
      "豐": 5037,
      "象": 5038,
      "豬": 5039,
      "負": 5040,
      "貢": 5041,
      "貨": 5042,
      "貯": 5043,
      "貴": 5044,
      "費": 5045,
      "資": 5046,
      "質": 5047,
      "贝": 5048,
      "贞": 5049,
      "负": 5050,
      "贡": 5051,
      "财": 5052,
      "责": 5053,
      "败": 5054,
      "货": 5055,
      "质": 5056,
      "贩": 5057,
      "贫": 5058,
      "购": 5059,
      "贯": 5060,
      "贴": 5061,
      "贵": 5062,
      "贸": 5063,
      "费": 5064,
      "贾": 5065,
      "赁": 5066,
      "资": 5067,
      "赊": 5068,
      "赏": 5069,
      "赔": 5070,
      "赖": 5071,
      "赛": 5072,
      "赞": 5073,
      "赢": 5074,
      "赤": 5075,
      "走": 5076,
      "赴": 5077,
      "赵": 5078,
      "起": 5079,
      "超": 5080,
      "越": 5081,
      "趋": 5082,
      "趙": 5083,
      "趣": 5084,
      "趨": 5085,
      "足": 5086,
      "趴": 5087,
      "趾": 5088,
      "跃": 5089,
      "跌": 5090,
      "跑": 5091,
      "距": 5092,
      "跟": 5093,
      "跡": 5094,
      "跨": 5095,
      "路": 5096,
      "跳": 5097,
      "践": 5098,
      "踏": 5099,
      "踪": 5100,
      "蹠": 5101,
      "蹤": 5102,
      "躁": 5103,
      "躍": 5104,
      "身": 5105,
      "躯": 5106,
      "車": 5107,
      "軋": 5108,
      "軟": 5109,
      "転": 5110,
      "軽": 5111,
      "較": 5112,
      "載": 5113,
      "輯": 5114,
      "輸": 5115,
      "轢": 5116,
      "车": 5117,
      "轨": 5118,
      "转": 5119,
      "软": 5120,
      "轶": 5121,
      "轻": 5122,
      "轼": 5123,
      "载": 5124,
      "较": 5125,
      "辅": 5126,
      "辆": 5127,
      "辐": 5128,
      "辑": 5129,
      "输": 5130,
      "辖": 5131,
      "辛": 5132,
      "辜": 5133,
      "辟": 5134,
      "辣": 5135,
      "辦": 5136,
      "辨": 5137,
      "辱": 5138,
      "農": 5139,
      "边": 5140,
      "达": 5141,
      "迁": 5142,
      "迄": 5143,
      "迅": 5144,
      "过": 5145,
      "迈": 5146,
      "运": 5147,
      "近": 5148,
      "返": 5149,
      "还": 5150,
      "这": 5151,
      "进": 5152,
      "远": 5153,
      "违": 5154,
      "连": 5155,
      "迟": 5156,
      "迫": 5157,
      "述": 5158,
      "迹": 5159,
      "追": 5160,
      "退": 5161,
      "送": 5162,
      "适": 5163,
      "逃": 5164,
      "逆": 5165,
      "选": 5166,
      "逍": 5167,
      "透": 5168,
      "逐": 5169,
      "递": 5170,
      "途": 5171,
      "逗": 5172,
      "這": 5173,
      "通": 5174,
      "速": 5175,
      "造": 5176,
      "連": 5177,
      "逮": 5178,
      "週": 5179,
      "進": 5180,
      "逻": 5181,
      "遂": 5182,
      "遅": 5183,
      "遇": 5184,
      "遊": 5185,
      "運": 5186,
      "遍": 5187,
      "過": 5188,
      "遏": 5189,
      "道": 5190,
      "達": 5191,
      "違": 5192,
      "遗": 5193,
      "遠": 5194,
      "遣": 5195,
      "遥": 5196,
      "適": 5197,
      "遭": 5198,
      "遮": 5199,
      "遵": 5200,
      "遷": 5201,
      "選": 5202,
      "遺": 5203,
      "避": 5204,
      "邀": 5205,
      "還": 5206,
      "邑": 5207,
      "邓": 5208,
      "那": 5209,
      "邦": 5210,
      "邪": 5211,
      "邮": 5212,
      "邸": 5213,
      "邻": 5214,
      "郁": 5215,
      "郄": 5216,
      "郎": 5217,
      "郑": 5218,
      "郝": 5219,
      "郡": 5220,
      "部": 5221,
      "都": 5222,
      "鄂": 5223,
      "酌": 5224,
      "配": 5225,
      "酐": 5226,
      "酒": 5227,
      "酔": 5228,
      "酚": 5229,
      "酪": 5230,
      "酮": 5231,
      "酯": 5232,
      "酰": 5233,
      "酵": 5234,
      "酶": 5235,
      "酸": 5236,
      "醇": 5237,
      "醋": 5238,
      "醒": 5239,
      "醫": 5240,
      "采": 5241,
      "释": 5242,
      "釋": 5243,
      "里": 5244,
      "重": 5245,
      "野": 5246,
      "量": 5247,
      "釐": 5248,
      "金": 5249,
      "釜": 5250,
      "針": 5251,
      "鉢": 5252,
      "鉴": 5253,
      "錢": 5254,
      "鍵": 5255,
      "鎮": 5256,
      "鏟": 5257,
      "鏡": 5258,
      "鐘": 5259,
      "针": 5260,
      "钙": 5261,
      "钟": 5262,
      "钠": 5263,
      "钩": 5264,
      "钱": 5265,
      "铁": 5266,
      "铂": 5267,
      "银": 5268,
      "链": 5269,
      "锋": 5270,
      "锐": 5271,
      "错": 5272,
      "锡": 5273,
      "锦": 5274,
      "键": 5275,
      "锻": 5276,
      "镜": 5277,
      "镰": 5278,
      "長": 5279,
      "长": 5280,
      "門": 5281,
      "閉": 5282,
      "開": 5283,
      "間": 5284,
      "関": 5285,
      "閣": 5286,
      "閱": 5287,
      "關": 5288,
      "门": 5289,
      "闭": 5290,
      "问": 5291,
      "间": 5292,
      "闷": 5293,
      "闸": 5294,
      "闻": 5295,
      "阀": 5296,
      "阅": 5297,
      "阐": 5298,
      "阙": 5299,
      "队": 5300,
      "防": 5301,
      "阳": 5302,
      "阴": 5303,
      "阵": 5304,
      "阶": 5305,
      "阻": 5306,
      "阿": 5307,
      "附": 5308,
      "际": 5309,
      "陆": 5310,
      "陈": 5311,
      "降": 5312,
      "限": 5313,
      "陕": 5314,
      "院": 5315,
      "除": 5316,
      "陥": 5317,
      "险": 5318,
      "陪": 5319,
      "陰": 5320,
      "陳": 5321,
      "陵": 5322,
      "陶": 5323,
      "陷": 5324,
      "険": 5325,
      "陽": 5326,
      "隆": 5327,
      "階": 5328,
      "随": 5329,
      "隐": 5330,
      "隔": 5331,
      "際": 5332,
      "障": 5333,
      "隧": 5334,
      "隨": 5335,
      "隱": 5336,
      "难": 5337,
      "雁": 5338,
      "雄": 5339,
      "雅": 5340,
      "集": 5341,
      "雇": 5342,
      "雑": 5343,
      "雙": 5344,
      "雜": 5345,
      "離": 5346,
      "難": 5347,
      "雪": 5348,
      "雲": 5349,
      "雷": 5350,
      "電": 5351,
      "雾": 5352,
      "需": 5353,
      "震": 5354,
      "霉": 5355,
      "霍": 5356,
      "霜": 5357,
      "露": 5358,
      "靈": 5359,
      "青": 5360,
      "靖": 5361,
      "静": 5362,
      "靛": 5363,
      "靜": 5364,
      "非": 5365,
      "靠": 5366,
      "面": 5367,
      "革": 5368,
      "靶": 5369,
      "鞋": 5370,
      "鞑": 5371,
      "鞘": 5372,
      "鞭": 5373,
      "韓": 5374,
      "韦": 5375,
      "韧": 5376,
      "韩": 5377,
      "音": 5378,
      "響": 5379,
      "頂": 5380,
      "項": 5381,
      "須": 5382,
      "預": 5383,
      "頓": 5384,
      "領": 5385,
      "頚": 5386,
      "頤": 5387,
      "頭": 5388,
      "頻": 5389,
      "顆": 5390,
      "題": 5391,
      "顕": 5392,
      "願": 5393,
      "類": 5394,
      "顧": 5395,
      "页": 5396,
      "顶": 5397,
      "项": 5398,
      "顺": 5399,
      "须": 5400,
      "顾": 5401,
      "顿": 5402,
      "颁": 5403,
      "预": 5404,
      "颅": 5405,
      "领": 5406,
      "颇": 5407,
      "颈": 5408,
      "频": 5409,
      "颗": 5410,
      "题": 5411,
      "额": 5412,
      "風": 5413,
      "风": 5414,
      "飛": 5415,
      "飞": 5416,
      "食": 5417,
      "飯": 5418,
      "飲": 5419,
      "飽": 5420,
      "飾": 5421,
      "養": 5422,
      "餐": 5423,
      "餓": 5424,
      "饭": 5425,
      "饮": 5426,
      "饰": 5427,
      "饱": 5428,
      "饲": 5429,
      "馆": 5430,
      "馈": 5431,
      "首": 5432,
      "香": 5433,
      "馬": 5434,
      "駄": 5435,
      "駐": 5436,
      "験": 5437,
      "驗": 5438,
      "驟": 5439,
      "马": 5440,
      "驱": 5441,
      "驷": 5442,
      "验": 5443,
      "骗": 5444,
      "骤": 5445,
      "骨": 5446,
      "髓": 5447,
      "體": 5448,
      "高": 5449,
      "髮": 5450,
      "鬚": 5451,
      "鬱": 5452,
      "鬼": 5453,
      "魂": 5454,
      "魅": 5455,
      "魔": 5456,
      "魚": 5457,
      "鯪": 5458,
      "鯽": 5459,
      "鱔": 5460,
      "鱼": 5461,
      "鲁": 5462,
      "鲜": 5463,
      "鳞": 5464,
      "鳩": 5465,
      "鶴": 5466,
      "鸟": 5467,
      "鸡": 5468,
      "鸭": 5469,
      "鹊": 5470,
      "鹏": 5471,
      "鹿": 5472,
      "麝": 5473,
      "麟": 5474,
      "麦": 5475,
      "麻": 5476,
      "麼": 5477,
      "黃": 5478,
      "黄": 5479,
      "黎": 5480,
      "黏": 5481,
      "黑": 5482,
      "黛": 5483,
      "鼎": 5484,
      "鼓": 5485,
      "鼠": 5486,
      "鼻": 5487,
      "齐": 5488,
      "齢": 5489,
      "齿": 5490,
      "龄": 5491,
      "龍": 5492,
      "龙": 5493,
      "龟": 5494,
      "ꓗ": 5495,
      "ꓞ": 5496,
      "ꓥ": 5497,
      "ꓦ": 5498,
      "Ꙇ": 5499,
      "Ꚛ": 5500,
      "ꝉ": 5501,
      "ꝩ": 5502,
      "꞊": 5503,
      "ꞌ": 5504,
      "ꞏ": 5505,
      "ꞵ": 5506,
      "ꟷ": 5507,
      "ꭓ": 5508,
      "ꭕ": 5509,
      "ꭞ": 5510,
      "가": 5511,
      "간": 5512,
      "감": 5513,
      "값": 5514,
      "강": 5515,
      "갖": 5516,
      "같": 5517,
      "개": 5518,
      "객": 5519,
      "거": 5520,
      "걱": 5521,
      "건": 5522,
      "검": 5523,
      "것": 5524,
      "게": 5525,
      "격": 5526,
      "결": 5527,
      "경": 5528,
      "계": 5529,
      "고": 5530,
      "공": 5531,
      "과": 5532,
      "관": 5533,
      "광": 5534,
      "괴": 5535,
      "교": 5536,
      "구": 5537,
      "국": 5538,
      "군": 5539,
      "굿": 5540,
      "궁": 5541,
      "규": 5542,
      "근": 5543,
      "금": 5544,
      "급": 5545,
      "기": 5546,
      "긴": 5547,
      "길": 5548,
      "김": 5549,
      "까": 5550,
      "꽉": 5551,
      "나": 5552,
      "난": 5553,
      "남": 5554,
      "내": 5555,
      "네": 5556,
      "년": 5557,
      "노": 5558,
      "농": 5559,
      "높": 5560,
      "뇽": 5561,
      "누": 5562,
      "뉴": 5563,
      "는": 5564,
      "늘": 5565,
      "능": 5566,
      "늬": 5567,
      "니": 5568,
      "님": 5569,
      "다": 5570,
      "닥": 5571,
      "단": 5572,
      "달": 5573,
      "담": 5574,
      "당": 5575,
      "대": 5576,
      "데": 5577,
      "도": 5578,
      "독": 5579,
      "동": 5580,
      "되": 5581,
      "된": 5582,
      "두": 5583,
      "드": 5584,
      "들": 5585,
      "디": 5586,
      "똑": 5587,
      "라": 5588,
      "랑": 5589,
      "러": 5590,
      "런": 5591,
      "렉": 5592,
      "력": 5593,
      "련": 5594,
      "렴": 5595,
      "령": 5596,
      "례": 5597,
      "로": 5598,
      "록": 5599,
      "롱": 5600,
      "뢰": 5601,
      "료": 5602,
      "루": 5603,
      "류": 5604,
      "률": 5605,
      "르": 5606,
      "른": 5607,
      "를": 5608,
      "름": 5609,
      "리": 5610,
      "린": 5611,
      "림": 5612,
      "립": 5613,
      "마": 5614,
      "막": 5615,
      "만": 5616,
      "말": 5617,
      "매": 5618,
      "먹": 5619,
      "메": 5620,
      "면": 5621,
      "명": 5622,
      "모": 5623,
      "목": 5624,
      "몫": 5625,
      "몰": 5626,
      "무": 5627,
      "묶": 5628,
      "문": 5629,
      "물": 5630,
      "미": 5631,
      "믹": 5632,
      "민": 5633,
      "밀": 5634,
      "및": 5635,
      "바": 5636,
      "받": 5637,
      "발": 5638,
      "방": 5639,
      "밭": 5640,
      "배": 5641,
      "백": 5642,
      "뱃": 5643,
      "번": 5644,
      "범": 5645,
      "법": 5646,
      "베": 5647,
      "별": 5648,
      "병": 5649,
      "보": 5650,
      "복": 5651,
      "본": 5652,
      "볼": 5653,
      "봉": 5654,
      "부": 5655,
      "분": 5656,
      "불": 5657,
      "뷰": 5658,
      "블": 5659,
      "비": 5660,
      "빈": 5661,
      "빠": 5662,
      "빨": 5663,
      "뿔": 5664,
      "사": 5665,
      "산": 5666,
      "상": 5667,
      "생": 5668,
      "서": 5669,
      "석": 5670,
      "선": 5671,
      "설": 5672,
      "성": 5673,
      "세": 5674,
      "소": 5675,
      "속": 5676,
      "송": 5677,
      "수": 5678,
      "순": 5679,
      "술": 5680,
      "숨": 5681,
      "슈": 5682,
      "스": 5683,
      "승": 5684,
      "시": 5685,
      "식": 5686,
      "신": 5687,
      "실": 5688,
      "심": 5689,
      "싸": 5690,
      "쑤": 5691,
      "아": 5692,
      "안": 5693,
      "앙": 5694,
      "야": 5695,
      "약": 5696,
      "어": 5697,
      "억": 5698,
      "언": 5699,
      "업": 5700,
      "없": 5701,
      "었": 5702,
      "에": 5703,
      "엑": 5704,
      "여": 5705,
      "역": 5706,
      "연": 5707,
      "열": 5708,
      "염": 5709,
      "였": 5710,
      "영": 5711,
      "예": 5712,
      "온": 5713,
      "외": 5714,
      "요": 5715,
      "용": 5716,
      "우": 5717,
      "운": 5718,
      "울": 5719,
      "움": 5720,
      "워": 5721,
      "원": 5722,
      "월": 5723,
      "위": 5724,
      "유": 5725,
      "육": 5726,
      "윤": 5727,
      "으": 5728,
      "은": 5729,
      "을": 5730,
      "음": 5731,
      "응": 5732,
      "의": 5733,
      "이": 5734,
      "인": 5735,
      "일": 5736,
      "임": 5737,
      "입": 5738,
      "있": 5739,
      "자": 5740,
      "작": 5741,
      "잡": 5742,
      "장": 5743,
      "재": 5744,
      "적": 5745,
      "전": 5746,
      "점": 5747,
      "접": 5748,
      "정": 5749,
      "제": 5750,
      "조": 5751,
      "존": 5752,
      "종": 5753,
      "주": 5754,
      "준": 5755,
      "중": 5756,
      "증": 5757,
      "지": 5758,
      "직": 5759,
      "진": 5760,
      "질": 5761,
      "집": 5762,
      "째": 5763,
      "차": 5764,
      "책": 5765,
      "처": 5766,
      "천": 5767,
      "철": 5768,
      "청": 5769,
      "체": 5770,
      "촉": 5771,
      "추": 5772,
      "축": 5773,
      "출": 5774,
      "취": 5775,
      "츠": 5776,
      "치": 5777,
      "침": 5778,
      "카": 5779,
      "커": 5780,
      "케": 5781,
      "코": 5782,
      "콘": 5783,
      "쾌": 5784,
      "크": 5785,
      "키": 5786,
      "타": 5787,
      "터": 5788,
      "털": 5789,
      "텃": 5790,
      "테": 5791,
      "텐": 5792,
      "톤": 5793,
      "통": 5794,
      "튜": 5795,
      "트": 5796,
      "특": 5797,
      "티": 5798,
      "팅": 5799,
      "파": 5800,
      "판": 5801,
      "팔": 5802,
      "팬": 5803,
      "페": 5804,
      "평": 5805,
      "폐": 5806,
      "포": 5807,
      "퐶": 5808,
      "퐼": 5809,
      "푂": 5810,
      "푃": 5811,
      "푄": 5812,
      "푈": 5813,
      "푌": 5814,
      "푍": 5815,
      "푗": 5816,
      "푛": 5817,
      "표": 5818,
      "푤": 5819,
      "푥": 5820,
      "품": 5821,
      "풙": 5822,
      "풳": 5823,
      "퓗": 5824,
      "플": 5825,
      "피": 5826,
      "하": 5827,
      "학": 5828,
      "한": 5829,
      "할": 5830,
      "함": 5831,
      "합": 5832,
      "항": 5833,
      "해": 5834,
      "핵": 5835,
      "행": 5836,
      "허": 5837,
      "험": 5838,
      "혁": 5839,
      "현": 5840,
      "협": 5841,
      "혜": 5842,
      "호": 5843,
      "혹": 5844,
      "홍": 5845,
      "화": 5846,
      "확": 5847,
      "환": 5848,
      "활": 5849,
      "황": 5850,
      "회": 5851,
      "후": 5852,
      "훥": 5853,
      "훼": 5854,
      "훽": 5855,
      "훾": 5856,
      "훿": 5857,
      "휃": 5858,
      "휇": 5859,
      "휎": 5860,
      "휏": 5861,
      "휒": 5862,
      "휓": 5863,
      "휘": 5864,
      "휴": 5865,
      "휶": 5866,
      "흀": 5867,
      "흡": 5868,
      "흥": 5869,
      "흰": 5870,
      "흱": 5871,
      "히": 5872,
      "힌": 5873,
      "": 5874,
      "": 5875,
      "": 5876,
      "": 5877,
      "": 5878,
      "": 5879,
      "": 5880,
      "": 5881,
      "": 5882,
      "": 5883,
      "": 5884,
      "": 5885,
      "": 5886,
      "": 5887,
      "": 5888,
      "": 5889,
      "": 5890,
      "": 5891,
      "": 5892,
      "": 5893,
      "": 5894,
      "": 5895,
      "": 5896,
      "": 5897,
      "": 5898,
      "": 5899,
      "": 5900,
      "": 5901,
      "": 5902,
      "": 5903,
      "": 5904,
      "": 5905,
      "": 5906,
      "": 5907,
      "": 5908,
      "": 5909,
      "": 5910,
      "": 5911,
      "": 5912,
      "": 5913,
      "": 5914,
      "": 5915,
      "": 5916,
      "": 5917,
      "": 5918,
      "": 5919,
      "": 5920,
      "": 5921,
      "": 5922,
      "": 5923,
      "": 5924,
      "": 5925,
      "": 5926,
      "": 5927,
      "": 5928,
      "": 5929,
      "": 5930,
      "": 5931,
      "": 5932,
      "": 5933,
      "": 5934,
      "": 5935,
      "": 5936,
      "": 5937,
      "": 5938,
      "": 5939,
      "": 5940,
      "": 5941,
      "": 5942,
      "": 5943,
      "": 5944,
      "": 5945,
      "": 5946,
      "": 5947,
      "": 5948,
      "": 5949,
      "": 5950,
      "": 5951,
      "": 5952,
      "": 5953,
      "": 5954,
      "": 5955,
      "": 5956,
      "": 5957,
      "": 5958,
      "": 5959,
      "": 5960,
      "": 5961,
      "": 5962,
      "": 5963,
      "": 5964,
      "": 5965,
      "": 5966,
      "": 5967,
      "": 5968,
      "": 5969,
      "": 5970,
      "": 5971,
      "": 5972,
      "": 5973,
      "": 5974,
      "": 5975,
      "": 5976,
      "": 5977,
      "": 5978,
      "": 5979,
      "": 5980,
      "": 5981,
      "": 5982,
      "": 5983,
      "": 5984,
      "": 5985,
      "": 5986,
      "": 5987,
      "": 5988,
      "": 5989,
      "": 5990,
      "": 5991,
      "": 5992,
      "": 5993,
      "": 5994,
      "": 5995,
      "": 5996,
      "": 5997,
      "": 5998,
      "": 5999,
      "": 6000,
      "": 6001,
      "": 6002,
      "": 6003,
      "": 6004,
      "": 6005,
      "": 6006,
      "": 6007,
      "": 6008,
      "": 6009,
      "": 6010,
      "": 6011,
      "": 6012,
      "": 6013,
      "": 6014,
      "": 6015,
      "": 6016,
      "": 6017,
      "": 6018,
      "": 6019,
      "": 6020,
      "": 6021,
      "": 6022,
      "": 6023,
      "": 6024,
      "": 6025,
      "": 6026,
      "": 6027,
      "": 6028,
      "": 6029,
      "": 6030,
      "": 6031,
      "": 6032,
      "": 6033,
      "": 6034,
      "": 6035,
      "": 6036,
      "": 6037,
      "": 6038,
      "": 6039,
      "": 6040,
      "": 6041,
      "": 6042,
      "": 6043,
      "": 6044,
      "": 6045,
      "": 6046,
      "": 6047,
      "": 6048,
      "": 6049,
      "": 6050,
      "": 6051,
      "": 6052,
      "": 6053,
      "": 6054,
      "": 6055,
      "": 6056,
      "": 6057,
      "": 6058,
      "": 6059,
      "": 6060,
      "": 6061,
      "": 6062,
      "": 6063,
      "": 6064,
      "": 6065,
      "": 6066,
      "": 6067,
      "": 6068,
      "": 6069,
      "": 6070,
      "": 6071,
      "": 6072,
      "": 6073,
      "": 6074,
      "": 6075,
      "": 6076,
      "": 6077,
      "": 6078,
      "": 6079,
      "": 6080,
      "": 6081,
      "": 6082,
      "": 6083,
      "": 6084,
      "": 6085,
      "": 6086,
      "": 6087,
      "": 6088,
      "": 6089,
      "": 6090,
      "": 6091,
      "": 6092,
      "": 6093,
      "": 6094,
      "": 6095,
      "": 6096,
      "": 6097,
      "": 6098,
      "": 6099,
      "": 6100,
      "": 6101,
      "": 6102,
      "": 6103,
      "": 6104,
      "": 6105,
      "": 6106,
      "": 6107,
      "": 6108,
      "": 6109,
      "": 6110,
      "": 6111,
      "": 6112,
      "": 6113,
      "": 6114,
      "": 6115,
      "": 6116,
      "": 6117,
      "": 6118,
      "": 6119,
      "": 6120,
      "": 6121,
      "": 6122,
      "": 6123,
      "": 6124,
      "": 6125,
      "": 6126,
      "": 6127,
      "": 6128,
      "": 6129,
      "": 6130,
      "": 6131,
      "": 6132,
      "": 6133,
      "": 6134,
      "": 6135,
      "": 6136,
      "": 6137,
      "": 6138,
      "": 6139,
      "": 6140,
      "": 6141,
      "": 6142,
      "": 6143,
      "": 6144,
      "": 6145,
      "": 6146,
      "": 6147,
      "": 6148,
      "": 6149,
      "": 6150,
      "": 6151,
      "": 6152,
      "": 6153,
      "": 6154,
      "": 6155,
      "": 6156,
      "": 6157,
      "": 6158,
      "": 6159,
      "": 6160,
      "": 6161,
      "": 6162,
      "": 6163,
      "": 6164,
      "": 6165,
      "": 6166,
      "": 6167,
      "": 6168,
      "": 6169,
      "": 6170,
      "": 6171,
      "": 6172,
      "": 6173,
      "": 6174,
      "": 6175,
      "": 6176,
      "": 6177,
      "": 6178,
      "": 6179,
      "": 6180,
      "": 6181,
      "": 6182,
      "": 6183,
      "": 6184,
      "": 6185,
      "": 6186,
      "": 6187,
      "": 6188,
      "": 6189,
      "": 6190,
      "": 6191,
      "": 6192,
      "": 6193,
      "": 6194,
      "": 6195,
      "": 6196,
      "": 6197,
      "": 6198,
      "": 6199,
      "": 6200,
      "": 6201,
      "": 6202,
      "": 6203,
      "": 6204,
      "": 6205,
      "": 6206,
      "": 6207,
      "": 6208,
      "": 6209,
      "": 6210,
      "": 6211,
      "": 6212,
      "": 6213,
      "": 6214,
      "": 6215,
      "": 6216,
      "": 6217,
      "": 6218,
      "": 6219,
      "": 6220,
      "": 6221,
      "": 6222,
      "": 6223,
      "": 6224,
      "": 6225,
      "": 6226,
      "": 6227,
      "": 6228,
      "": 6229,
      "": 6230,
      "": 6231,
      "": 6232,
      "": 6233,
      "": 6234,
      "": 6235,
      "": 6236,
      "": 6237,
      "": 6238,
      "": 6239,
      "": 6240,
      "": 6241,
      "": 6242,
      "": 6243,
      "": 6244,
      "": 6245,
      "": 6246,
      "": 6247,
      "": 6248,
      "": 6249,
      "": 6250,
      "": 6251,
      "": 6252,
      "": 6253,
      "": 6254,
      "": 6255,
      "": 6256,
      "": 6257,
      "": 6258,
      "": 6259,
      "": 6260,
      "": 6261,
      "": 6262,
      "": 6263,
      "": 6264,
      "": 6265,
      "": 6266,
      "": 6267,
      "": 6268,
      "": 6269,
      "": 6270,
      "": 6271,
      "": 6272,
      "": 6273,
      "": 6274,
      "": 6275,
      "": 6276,
      "": 6277,
      "": 6278,
      "": 6279,
      "": 6280,
      "": 6281,
      "": 6282,
      "": 6283,
      "": 6284,
      "": 6285,
      "": 6286,
      "": 6287,
      "": 6288,
      "": 6289,
      "泌": 6290,
      "量": 6291,
      "年": 6292,
      "尿": 6293,
      "ﬀ": 6294,
      "ﬁ": 6295,
      "ﬂ": 6296,
      "ﬃ": 6297,
      "ﬄ": 6298,
      "ﭖ": 6299,
      "ﭪ": 6300,
      "ﭭ": 6301,
      "ﭺ": 6302,
      "ﭼ": 6303,
      "ﮊ": 6304,
      "ﮐ": 6305,
      "ﮒ": 6306,
      "ﮔ": 6307,
      "ﮟ": 6308,
      "ﮨ": 6309,
      "ﮫ": 6310,
      "ﮯ": 6311,
      "ﯿ": 6312,
      "ﳍ": 6313,
      "﷓": 6314,
      "ﷺ": 6315,
      "︀": 6316,
      "︁": 6317,
      "︂": 6318,
      "︃": 6319,
      "︄": 6320,
      "︎": 6321,
      "️": 6322,
      "︰": 6323,
      "︷": 6324,
      "︸": 6325,
      "︿": 6326,
      "﹑": 6327,
      "﹒": 6328,
      "﹝": 6329,
      "﹞": 6330,
      "﹟": 6331,
      "﹠": 6332,
      "﹢": 6333,
      "﹤": 6334,
      "﹥": 6335,
      "ﺀ": 6336,
      "ﺃ": 6337,
      "ﺄ": 6338,
      "ﺆ": 6339,
      "ﺇ": 6340,
      "ﺈ": 6341,
      "ﺉ": 6342,
      "ﺋ": 6343,
      "ﺌ": 6344,
      "ﺍ": 6345,
      "ﺎ": 6346,
      "ﺏ": 6347,
      "ﺐ": 6348,
      "ﺑ": 6349,
      "ﺒ": 6350,
      "ﺓ": 6351,
      "ﺔ": 6352,
      "ﺕ": 6353,
      "ﺖ": 6354,
      "ﺗ": 6355,
      "ﺘ": 6356,
      "ﺙ": 6357,
      "ﺚ": 6358,
      "ﺛ": 6359,
      "ﺜ": 6360,
      "ﺝ": 6361,
      "ﺞ": 6362,
      "ﺟ": 6363,
      "ﺠ": 6364,
      "ﺡ": 6365,
      "ﺢ": 6366,
      "ﺣ": 6367,
      "ﺤ": 6368,
      "ﺧ": 6369,
      "ﺨ": 6370,
      "ﺩ": 6371,
      "ﺪ": 6372,
      "ﺫ": 6373,
      "ﺬ": 6374,
      "ﺭ": 6375,
      "ﺮ": 6376,
      "ﺯ": 6377,
      "ﺰ": 6378,
      "ﺱ": 6379,
      "ﺲ": 6380,
      "ﺳ": 6381,
      "ﺴ": 6382,
      "ﺵ": 6383,
      "ﺷ": 6384,
      "ﺸ": 6385,
      "ﺹ": 6386,
      "ﺺ": 6387,
      "ﺻ": 6388,
      "ﺼ": 6389,
      "ﺽ": 6390,
      "ﺾ": 6391,
      "ﺿ": 6392,
      "ﻀ": 6393,
      "ﻁ": 6394,
      "ﻂ": 6395,
      "ﻃ": 6396,
      "ﻄ": 6397,
      "ﻅ": 6398,
      "ﻇ": 6399,
      "ﻈ": 6400,
      "ﻉ": 6401,
      "ﻊ": 6402,
      "ﻋ": 6403,
      "ﻌ": 6404,
      "ﻏ": 6405,
      "ﻐ": 6406,
      "ﻑ": 6407,
      "ﻒ": 6408,
      "ﻓ": 6409,
      "ﻔ": 6410,
      "ﻕ": 6411,
      "ﻖ": 6412,
      "ﻗ": 6413,
      "ﻘ": 6414,
      "ﻙ": 6415,
      "ﻚ": 6416,
      "ﻛ": 6417,
      "ﻜ": 6418,
      "ﻝ": 6419,
      "ﻞ": 6420,
      "ﻟ": 6421,
      "ﻠ": 6422,
      "ﻡ": 6423,
      "ﻢ": 6424,
      "ﻣ": 6425,
      "ﻤ": 6426,
      "ﻥ": 6427,
      "ﻦ": 6428,
      "ﻧ": 6429,
      "ﻨ": 6430,
      "ﻩ": 6431,
      "ﻪ": 6432,
      "ﻫ": 6433,
      "ﻬ": 6434,
      "ﻭ": 6435,
      "ﻮ": 6436,
      "ﻯ": 6437,
      "ﻰ": 6438,
      "ﻱ": 6439,
      "ﻲ": 6440,
      "ﻳ": 6441,
      "ﻴ": 6442,
      "ﻷ": 6443,
      "ﻸ": 6444,
      "ﻹ": 6445,
      "ﻺ": 6446,
      "ﻻ": 6447,
      "ﻼ": 6448,
      "﻿": 6449,
      "＀": 6450,
      "！": 6451,
      "＂": 6452,
      "＃": 6453,
      "＄": 6454,
      "％": 6455,
      "＆": 6456,
      "（": 6457,
      "）": 6458,
      "＊": 6459,
      "＋": 6460,
      "，": 6461,
      "－": 6462,
      "．": 6463,
      "／": 6464,
      "１": 6465,
      "２": 6466,
      "３": 6467,
      "４": 6468,
      "５": 6469,
      "６": 6470,
      "８": 6471,
      "：": 6472,
      "；": 6473,
      "＜": 6474,
      "＝": 6475,
      "＞": 6476,
      "？": 6477,
      "［": 6478,
      "］": 6479,
      "ｄ": 6480,
      "ｇ": 6481,
      "ｍ": 6482,
      "ｎ": 6483,
      "ｑ": 6484,
      "ｔ": 6485,
      "ｖ": 6486,
      "ｘ": 6487,
      "｛": 6488,
      "｜": 6489,
      "｝": 6490,
      "～": 6491,
      "･": 6492,
      "￥": 6493,
      "￼": 6494,
      "�": 6495,
      "𝐂": 6496,
      "𝐅": 6497,
      "𝐆": 6498,
      "𝐇": 6499,
      "𝐈": 6500,
      "𝐍": 6501,
      "𝐔": 6502,
      "𝐗": 6503,
      "𝐚": 6504,
      "𝐛": 6505,
      "𝐜": 6506,
      "𝐝": 6507,
      "𝐞": 6508,
      "𝐠": 6509,
      "𝐩": 6510,
      "𝐫": 6511,
      "𝐬": 6512,
      "𝐳": 6513,
      "𝐷": 6514,
      "𝐸": 6515,
      "𝐺": 6516,
      "𝐾": 6517,
      "𝐿": 6518,
      "𝑁": 6519,
      "𝑃": 6520,
      "𝑅": 6521,
      "𝑆": 6522,
      "𝑉": 6523,
      "𝑍": 6524,
      "𝑎": 6525,
      "𝑐": 6526,
      "𝑑": 6527,
      "𝑒": 6528,
      "𝑓": 6529,
      "𝑖": 6530,
      "𝑗": 6531,
      "𝑛": 6532,
      "𝑞": 6533,
      "𝑟": 6534,
      "𝑡": 6535,
      "𝑢": 6536,
      "𝑣": 6537,
      "𝑥": 6538,
      "𝑦": 6539,
      "𝒑": 6540,
      "𝒜": 6541,
      "𝒞": 6542,
      "𝒟": 6543,
      "𝒢": 6544,
      "𝒥": 6545,
      "𝒩": 6546,
      "𝒪": 6547,
      "𝒫": 6548,
      "𝒬": 6549,
      "𝒮": 6550,
      "𝒯": 6551,
      "𝒰": 6552,
      "𝒱": 6553,
      "𝒲": 6554,
      "𝒳": 6555,
      "𝒴": 6556,
      "𝒶": 6557,
      "𝓉": 6558,
      "𝓋": 6559,
      "𝓍": 6560,
      "𝓎": 6561,
      "𝓏": 6562,
      "𝓕": 6563,
      "𝓖": 6564,
      "𝓜": 6565,
      "𝓧": 6566,
      "𝓨": 6567,
      "𝔏": 6568,
      "𝔐": 6569,
      "𝔹": 6570,
      "𝔻": 6571,
      "𝔼": 6572,
      "𝔽": 6573,
      "𝕀": 6574,
      "𝕃": 6575,
      "𝕊": 6576,
      "𝕋": 6577,
      "𝕌": 6578,
      "𝕍": 6579,
      "𝕎": 6580,
      "𝚲": 6581,
      "𝛂": 6582,
      "𝛃": 6583,
      "𝛅": 6584,
      "𝛆": 6585,
      "𝛈": 6586,
      "𝛉": 6587,
      "𝛻": 6588,
      "𝛼": 6589,
      "𝛽": 6590,
      "𝛾": 6591,
      "𝛿": 6592,
      "𝜀": 6593,
      "𝜂": 6594,
      "𝜃": 6595,
      "𝜅": 6596,
      "𝜇": 6597,
      "𝜎": 6598,
      "𝜏": 6599,
      "𝜑": 6600,
      "𝜒": 6601,
      "𝜖": 6602,
      "𝜗": 6603,
      "𝜙": 6604,
      "𝜽": 6605,
      "𝝳": 6606,
      "𝞪": 6607,
      "𝟙": 6608,
      "🟉": 6609,
      "in": 6610,
      "th": 6611,
      "re": 6612,
      "on": 6613,
      "an": 6614,
      "ti": 6615,
      "the": 6616,
      "en": 6617,
      "al": 6618,
      "er": 6619,
      "ed": 6620,
      "or": 6621,
      "es": 6622,
      "at": 6623,
      "as": 6624,
      "of": 6625,
      "is": 6626,
      "and": 6627,
      "tion": 6628,
      "ro": 6629,
      "to": 6630,
      "ing": 6631,
      "ic": 6632,
      "ar": 6633,
      "ac": 6634,
      "ent": 6635,
      "le": 6636,
      "st": 6637,
      "it": 6638,
      "se": 6639,
      "ve": 6640,
      "ec": 6641,
      "ation": 6642,
      "ou": 6643,
      "de": 6644,
      "ly": 6645,
      "si": 6646,
      "co": 6647,
      "he": 6648,
      "for": 6649,
      "ce": 6650,
      "we": 6651,
      "su": 6652,
      "lo": 6653,
      "wi": 6654,
      "di": 6655,
      "be": 6656,
      "mp": 6657,
      "vi": 6658,
      "pro": 6659,
      "con": 6660,
      "res": 6661,
      "me": 6662,
      "with": 6663,
      "us": 6664,
      "ag": 6665,
      "ch": 6666,
      "ter": 6667,
      "un": 6668,
      "tr": 6669,
      "ul": 6670,
      "ab": 6671,
      "are": 6672,
      "ll": 6673,
      "mo": 6674,
      "ig": 6675,
      "po": 6676,
      "ati": 6677,
      "ment": 6678,
      "ur": 6679,
      "ad": 6680,
      "ver": 6681,
      "ts": 6682,
      "ex": 6683,
      "no": 6684,
      "that": 6685,
      "ho": 6686,
      "20": 6687,
      "il": 6688,
      "The": 6689,
      "ity": 6690,
      "ted": 6691,
      "so": 6692,
      "am": 6693,
      "te": 6694,
      "ap": 6695,
      "was": 6696,
      "ate": 6697,
      "ated": 6698,
      "per": 6699,
      "li": 6700,
      "ma": 6701,
      "ir": 6702,
      "et": 6703,
      "ff": 6704,
      "tic": 6705,
      "qu": 6706,
      "sp": 6707,
      "by": 6708,
      "were": 6709,
      "du": 6710,
      "ol": 6711,
      "id": 6712,
      "um": 6713,
      "cl": 6714,
      "ther": 6715,
      "im": 6716,
      "age": 6717,
      "inf": 6718,
      "dis": 6719,
      "gen": 6720,
      "vir": 6721,
      "rom": 6722,
      "ne": 6723,
      "ents": 6724,
      "19": 6725,
      "do": 6726,
      "ical": 6727,
      ").": 6728,
      "ess": 6729,
      "wh": 6730,
      "ain": 6731,
      "ud": 6732,
      "der": 6733,
      "ase": 6734,
      "igh": 6735,
      "use": 6736,
      "from": 6737,
      "ay": 6738,
      "ri": 6739,
      "ine": 6740,
      "sy": 6741,
      "ren": 6742,
      "ure": 6743,
      "In": 6744,
      "em": 6745,
      "ant": 6746,
      "ci": 6747,
      "pre": 6748,
      "comp": 6749,
      "ha": 6750,
      "pati": 6751,
      "pl": 6752,
      "tive": 6753,
      "sion": 6754,
      "str": 6755,
      "if": 6756,
      "ld": 6757,
      "ut": 6758,
      "od": 6759,
      "pres": 6760,
      "par": 6761,
      "able": 6762,
      "up": 6763,
      "form": 6764,
      "oun": 6765,
      "all": 6766,
      "ack": 6767,
      "not": 6768,
      "ge": 6769,
      "ort": 6770,
      "ich": 6771,
      "est": 6772,
      "this": 6773,
      "ations": 6774,
      "low": 6775,
      "infec": 6776,
      "our": 6777,
      "out": 6778,
      "sis": 6779,
      "cell": 6780,
      "com": 6781,
      "CO": 6782,
      "tions": 6783,
      "ence": 6784,
      "resp": 6785,
      "pe": 6786,
      "),": 6787,
      "patients": 6788,
      "cont": 6789,
      "ID": 6790,
      "have": 6791,
      "can": 6792,
      "act": 6793,
      "duc": 6794,
      "iz": 6795,
      "ten": 6796,
      "Th": 6797,
      "imp": 6798,
      "10": 6799,
      "ph": 6800,
      "ous": 6801,
      "ers": 6802,
      "virus": 6803,
      "val": 6804,
      "COV": 6805,
      "ding": 6806,
      "COVID": 6807,
      "min": 6808,
      "which": 6809,
      "red": 6810,
      "ans": 6811,
      "ally": 6812,
      "log": 6813,
      "cre": 6814,
      "ke": 6815,
      "ach": 6816,
      "ser": 6817,
      "ct": 6818,
      "ib": 6819,
      "ven": 6820,
      "gn": 6821,
      "cy": 6822,
      "med": 6823,
      "anti": 6824,
      "ary": 6825,
      "ies": 6826,
      "mon": 6827,
      "om": 6828,
      "pr": 6829,
      "wor": 6830,
      "stud": 6831,
      "ory": 6832,
      "cor": 6833,
      "high": 6834,
      "inter": 6835,
      "has": 6836,
      "ved": 6837,
      "ific": 6838,
      "eff": 6839,
      "alth": 6840,
      "ance": 6841,
      "ould": 6842,
      "fe": 6843,
      "one": 6844,
      "Co": 6845,
      "how": 6846,
      "pack": 6847,
      "sa": 6848,
      "ors": 6849,
      "spec": 6850,
      "diff": 6851,
      "ased": 6852,
      "op": 6853,
      "bo": 6854,
      "package": 6855,
      "dat": 6856,
      "des": 6857,
      "ass": 6858,
      "ari": 6859,
      "usepackage": 6860,
      "gh": 6861,
      "ob": 6862,
      "SA": 6863,
      ".,": 6864,
      "ong": 6865,
      "bet": 6866,
      "lu": 6867,
      "other": 6868,
      "ative": 6869,
      "rel": 6870,
      "gr": 6871,
      "soci": 6872,
      "mun": 6873,
      "study": 6874,
      "also": 6875,
      "tec": 6876,
      "end": 6877,
      "RS": 6878,
      "gro": 6879,
      "acc": 6880,
      "reg": 6881,
      "sul": 6882,
      "lic": 6883,
      "aly": 6884,
      "del": 6885,
      "fo": 6886,
      "por": 6887,
      "ion": 6888,
      "sign": 6889,
      "more": 6890,
      "sh": 6891,
      "used": 6892,
      "tiv": 6893,
      "ty": 6894,
      "been": 6895,
      "ases": 6896,
      "eren": 6897,
      "man": 6898,
      "les": 6899,
      "enti": 6900,
      "ia": 6901,
      "ath": 6902,
      "show": 6903,
      "ip": 6904,
      "incl": 6905,
      "prote": 6906,
      "over": 6907,
      "fi": 6908,
      "ting": 6909,
      "their": 6910,
      "differen": 6911,
      "lec": 6912,
      "vel": 6913,
      "Fig": 6914,
      "bi": 6915,
      "data": 6916,
      "health": 6917,
      "cent": 6918,
      "00": 6919,
      "tre": 6920,
      "ates": 6921,
      "resul": 6922,
      "als": 6923,
      "iti": 6924,
      "ces": 6925,
      "may": 6926,
      "ep": 6927,
      "cells": 6928,
      "respon": 6929,
      "CoV": 6930,
      "12": 6931,
      "dise": 6932,
      "effec": 6933,
      "ular": 6934,
      "ber": 6935,
      "work": 6936,
      "analy": 6937,
      "NA": 6938,
      "these": 6939,
      "ween": 6940,
      "ility": 6941,
      "pt": 6942,
      "].": 6943,
      "trans": 6944,
      "incre": 6945,
      "ris": 6946,
      "cu": 6947,
      "mic": 6948,
      "between": 6949,
      "atory": 6950,
      "ear": 6951,
      "sub": 6952,
      "protein": 6953,
      "dies": 6954,
      "using": 6955,
      "peri": 6956,
      "sur": 6957,
      "its": 6958,
      "tim": 6959,
      "fin": 6960,
      "ms": 6961,
      "au": 6962,
      "cal": 6963,
      "than": 6964,
      "valu": 6965,
      "ree": 6966,
      "cur": 6967,
      "SARS": 6968,
      "cri": 6969,
      "infection": 6970,
      "partic": 6971,
      "ak": 6972,
      "This": 6973,
      "model": 6974,
      "201": 6975,
      "time": 6976,
      "such": 6977,
      "olog": 6978,
      "stem": 6979,
      "dic": 6980,
      "ang": 6981,
      "hy": 6982,
      "ble": 6983,
      "ams": 6984,
      "int": 6985,
      "vari": 6986,
      "av": 6987,
      "ight": 6988,
      "group": 6989,
      "uring": 6990,
      "ast": 6991,
      "pos": 6992,
      "ound": 6993,
      "fir": 6994,
      "under": 6995,
      "includ": 6996,
      "velo": 6997,
      "level": 6998,
      "ail": 6999,
      "tw": 7000,
      "ace": 7001,
      "present": 7002,
      "ard": 7003,
      "ulation": 7004,
      "2020": 7005,
      "af": 7006,
      "ating": 7007,
      "system": 7008,
      "ub": 7009,
      "arch": 7010,
      "immun": 7011,
      "ves": 7012,
      "ays": 7013,
      "uc": 7014,
      "num": 7015,
      "wn": 7016,
      "signific": 7017,
      "stu": 7018,
      "velop": 7019,
      "200": 7020,
      "but": 7021,
      "disease": 7022,
      "We": 7023,
      "requ": 7024,
      "dition": 7025,
      "ici": 7026,
      "care": 7027,
      "fact": 7028,
      "fol": 7029,
      "dec": 7030,
      "set": 7031,
      "mis": 7032,
      "ures": 7033,
      "ments": 7034,
      "viral": 7035,
      "arg": 7036,
      "br": 7037,
      "clin": 7038,
      "whe": 7039,
      "repor": 7040,
      "cer": 7041,
      "bin": 7042,
      "main": 7043,
      "who": 7044,
      "activ": 7045,
      "develop": 7046,
      "posi": 7047,
      "significant": 7048,
      "most": 7049,
      "ca": 7050,
      "sup": 7051,
      "ra": 7052,
      "mit": 7053,
      "appro": 7054,
      "during": 7055,
      "ction": 7056,
      "fun": 7057,
      "oc": 7058,
      "col": 7059,
      "el": 7060,
      "fore": 7061,
      "there": 7062,
      "ill": 7063,
      "associ": 7064,
      "ater": 7065,
      "sequ": 7066,
      "studies": 7067,
      "risk": 7068,
      "will": 7069,
      "ants": 7070,
      "port": 7071,
      "ses": 7072,
      "wever": 7073,
      "eng": 7074,
      "vol": 7075,
      "coun": 7076,
      "samp": 7077,
      "side": 7078,
      "two": 7079,
      "ial": 7080,
      "ication": 7081,
      "ded": 7082,
      "docu": 7083,
      "based": 7084,
      "ared": 7085,
      "cess": 7086,
      "treat": 7087,
      "ust": 7088,
      "gener": 7089,
      "ital": 7090,
      "ability": 7091,
      "ist": 7092,
      "had": 7093,
      "provi": 7094,
      "Ho": 7095,
      "ew": 7096,
      "ality": 7097,
      "document": 7098,
      "ru": 7099,
      "hum": 7100,
      "hosp": 7101,
      "ile": 7102,
      "RNA": 7103,
      "well": 7104,
      "path": 7105,
      "ized": 7106,
      "number": 7107,
      "15": 7108,
      "clinical": 7109,
      "follow": 7110,
      "ational": 7111,
      "after": 7112,
      "rou": 7113,
      "contro": 7114,
      "pop": 7115,
      "cases": 7116,
      "mal": 7117,
      "results": 7118,
      "identi": 7119,
      "different": 7120,
      "line": 7121,
      "ines": 7122,
      "acter": 7123,
      "ple": 7124,
      "test": 7125,
      "reported": 7126,
      "ough": 7127,
      "tes": 7128,
      "produc": 7129,
      "11": 7130,
      "only": 7131,
      "meth": 7132,
      "search": 7133,
      "vacc": 7134,
      "sen": 7135,
      "pand": 7136,
      "like": 7137,
      "divi": 7138,
      "sed": 7139,
      "analysis": 7140,
      "It": 7141,
      "into": 7142,
      "meas": 7143,
      "they": 7144,
      "non": 7145,
      "perform": 7146,
      "ish": 7147,
      "rough": 7148,
      "aff": 7149,
      "mul": 7150,
      "tain": 7151,
      "jec": 7152,
      "sing": 7153,
      "14": 7154,
      "both": 7155,
      "AC": 7156,
      "ties": 7157,
      "ite": 7158,
      "each": 7159,
      "ide": 7160,
      "formation": 7161,
      "sti": 7162,
      "trib": 7163,
      "some": 7164,
      "car": 7165,
      "could": 7166,
      "emic": 7167,
      "expres": 7168,
      "very": 7169,
      "fer": 7170,
      "mpto": 7171,
      "comple": 7172,
      "ful": 7173,
      "ced": 7174,
      "loc": 7175,
      "treatment": 7176,
      "13": 7177,
      "urther": 7178,
      "fied": 7179,
      "specific": 7180,
      "obser": 7181,
      "stru": 7182,
      "pandemic": 7183,
      "detec": 7184,
      "tical": 7185,
      "mil": 7186,
      "kno": 7187,
      "tu": 7188,
      "Ch": 7189,
      "view": 7190,
      "year": 7191,
      "dividu": 7192,
      "dep": 7193,
      "ose": 7194,
      "pec": 7195,
      "ving": 7196,
      "patient": 7197,
      "associated": 7198,
      "cul": 7199,
      "ss": 7200,
      "found": 7201,
      "need": 7202,
      "action": 7203,
      "through": 7204,
      "han": 7205,
      "und": 7206,
      "gg": 7207,
      "where": 7208,
      "However": 7209,
      "lear": 7210,
      "when": 7211,
      "import": 7212,
      "individu": 7213,
      "experi": 7214,
      "ign": 7215,
      "hib": 7216,
      "pub": 7217,
      "For": 7218,
      "first": 7219,
      "ie": 7220,
      "related": 7221,
      "tern": 7222,
      "ization": 7223,
      "bec": 7224,
      "arge": 7225,
      "16": 7226,
      "positive": 7227,
      "ange": 7228,
      "atic": 7229,
      "stand": 7230,
      "Table": 7231,
      "amp": 7232,
      "rece": 7233,
      "control": 7234,
      "research": 7235,
      "mar": 7236,
      "human": 7237,
      "Figure": 7238,
      "gene": 7239,
      "including": 7240,
      "medi": 7241,
      "read": 7242,
      "ature": 7243,
      "CR": 7244,
      "tial": 7245,
      "ological": 7246,
      "new": 7247,
      "As": 7248,
      "should": 7249,
      "sive": 7250,
      "indic": 7251,
      "son": 7252,
      "18": 7253,
      "org": 7254,
      "phy": 7255,
      "ung": 7256,
      "tribu": 7257,
      "poten": 7258,
      "amin": 7259,
      "particip": 7260,
      "den": 7261,
      "higher": 7262,
      "struct": 7263,
      "50": 7264,
      "mission": 7265,
      "ities": 7266,
      "cap": 7267,
      "gi": 7268,
      "any": 7269,
      "vis": 7270,
      "tal": 7271,
      "math": 7272,
      "dro": 7273,
      "mer": 7274,
      "ef": 7275,
      "less": 7276,
      "pri": 7277,
      "process": 7278,
      "reduc": 7279,
      "CT": 7280,
      "amm": 7281,
      "sugg": 7282,
      "enz": 7283,
      "30": 7284,
      "sympto": 7285,
      "function": 7286,
      "addition": 7287,
      "tra": 7288,
      "due": 7289,
      "ome": 7290,
      "tis": 7291,
      "go": 7292,
      "vere": 7293,
      "viruses": 7294,
      "la": 7295,
      "those": 7296,
      "mental": 7297,
      "fr": 7298,
      "sco": 7299,
      "iratory": 7300,
      "mb": 7301,
      "air": 7302,
      "ese": 7303,
      "agno": 7304,
      "ning": 7305,
      "long": 7306,
      "17": 7307,
      "CD": 7308,
      "bre": 7309,
      "mi": 7310,
      "led": 7311,
      "king": 7312,
      "influ": 7313,
      "ks": 7314,
      "ness": 7315,
      "method": 7316,
      "ateg": 7317,
      "vic": 7318,
      "ds": 7319,
      "requi": 7320,
      "ages": 7321,
      "There": 7322,
      "sible": 7323,
      "levels": 7324,
      "app": 7325,
      "To": 7326,
      "rate": 7327,
      "sure": 7328,
      "vious": 7329,
      "An": 7330,
      "hospital": 7331,
      "therap": 7332,
      "ety": 7333,
      "ogen": 7334,
      "infected": 7335,
      "os": 7336,
      "countr": 7337,
      "compared": 7338,
      "lin": 7339,
      "ild": 7340,
      "rent": 7341,
      "ai": 7342,
      "diagno": 7343,
      "25": 7344,
      "AT": 7345,
      "increased": 7346,
      "avail": 7347,
      "sever": 7348,
      "population": 7349,
      "response": 7350,
      "shown": 7351,
      "infl": 7352,
      "about": 7353,
      "bed": 7354,
      "information": 7355,
      "tively": 7356,
      "type": 7357,
      "usion": 7358,
      "ame": 7359,
      "inhib": 7360,
      "Mo": 7361,
      "respiratory": 7362,
      "multi": 7363,
      "case": 7364,
      "24": 7365,
      "rect": 7366,
      "social": 7367,
      "ext": 7368,
      "important": 7369,
      "descri": 7370,
      "ural": 7371,
      "nor": 7372,
      "tech": 7373,
      "severe": 7374,
      "deter": 7375,
      "days": 7376,
      "cyto": 7377,
      "vid": 7378,
      "syn": 7379,
      "aining": 7380,
      "Al": 7381,
      "21": 7382,
      "activity": 7383,
      "cus": 7384,
      "inte": 7385,
      "class": 7386,
      "imal": 7387,
      "tics": 7388,
      "ona": 7389,
      "These": 7390,
      "limit": 7391,
      "depend": 7392,
      "many": 7393,
      "%)": 7394,
      "ress": 7395,
      "assess": 7396,
      "order": 7397,
      "within": 7398,
      "ta": 7399,
      "again": 7400,
      "inflamm": 7401,
      "among": 7402,
      "cr": 7403,
      "public": 7404,
      "commun": 7405,
      "ques": 7406,
      "typ": 7407,
      "respec": 7408,
      "micro": 7409,
      "three": 7410,
      "ople": 7411,
      "nec": 7412,
      "che": 7413,
      "centr": 7414,
      "rug": 7415,
      "observed": 7416,
      "effect": 7417,
      "sel": 7418,
      "neg": 7419,
      "would": 7420,
      "while": 7421,
      "ise": 7422,
      "rest": 7423,
      "predic": 7424,
      "char": 7425,
      "simil": 7426,
      "ze": 7427,
      "ause": 7428,
      "lead": 7429,
      "them": 7430,
      "showed": 7431,
      "impro": 7432,
      "ently": 7433,
      "$$": 7434,
      "dist": 7435,
      "vent": 7436,
      "region": 7437,
      "expression": 7438,
      "cho": 7439,
      "evalu": 7440,
      "post": 7441,
      "previous": 7442,
      "people": 7443,
      "part": 7444,
      "years": 7445,
      "He": 7446,
      "being": 7447,
      "ane": 7448,
      "emp": 7449,
      "lish": 7450,
      "ox": 7451,
      "men": 7452,
      "ody": 7453,
      "fac": 7454,
      "gu": 7455,
      "potential": 7456,
      "iter": 7457,
      "ters": 7458,
      "grap": 7459,
      "child": 7460,
      "similar": 7461,
      "prim": 7462,
      "then": 7463,
      "Un": 7464,
      "day": 7465,
      "drug": 7466,
      "organ": 7467,
      "way": 7468,
      "approach": 7469,
      "equ": 7470,
      "available": 7471,
      "immune": 7472,
      "performed": 7473,
      "period": 7474,
      "Wh": 7475,
      "groups": 7476,
      "chang": 7477,
      "acro": 7478,
      "person": 7479,
      "vers": 7480,
      "current": 7481,
      "effects": 7482,
      "against": 7483,
      "dy": 7484,
      "symptoms": 7485,
      "body": 7486,
      "ism": 7487,
      "temp": 7488,
      "lected": 7489,
      "bio": 7490,
      "ture": 7491,
      "atis": 7492,
      "22": 7493,
      "samples": 7494,
      "sin": 7495,
      "further": 7496,
      "proteins": 7497,
      "factors": 7498,
      "negative": 7499,
      "increase": 7500,
      "gre": 7501,
      "mec": 7502,
      "initi": 7503,
      "IL": 7504,
      "invol": 7505,
      "face": 7506,
      "tran": 7507,
      "character": 7508,
      "tig": 7509,
      "ived": 7510,
      "pti": 7511,
      "til": 7512,
      "Con": 7513,
      "same": 7514,
      "ences": 7515,
      "{\\": 7516,
      "erg": 7517,
      "IC": 7518,
      "review": 7519,
      "auth": 7520,
      "acy": 7521,
      "affec": 7522,
      "beg": 7523,
      "estim": 7524,
      "measure": 7525,
      "St": 7526,
      "ically": 7527,
      "acti": 7528,
      "neu": 7529,
      "clo": 7530,
      "mechan": 7531,
      "occur": 7532,
      "duce": 7533,
      "blo": 7534,
      "reco": 7535,
      "down": 7536,
      "ength": 7537,
      "resi": 7538,
      "though": 7539,
      "common": 7540,
      "lower": 7541,
      "PCR": 7542,
      "lung": 7543,
      "obtain": 7544,
      "mat": 7545,
      "protec": 7546,
      "zed": 7547,
      "mem": 7548,
      "ual": 7549,
      "combin": 7550,
      "23": 7551,
      "glo": 7552,
      "wee": 7553,
      "secon": 7554,
      "total": 7555,
      "death": 7556,
      "95": 7557,
      "ele": 7558,
      "bal": 7559,
      "ited": 7560,
      "tri": 7561,
      "induc": 7562,
      "large": 7563,
      "vention": 7564,
      "ute": 7565,
      "decre": 7566,
      "sm": 7567,
      "ency": 7568,
      "support": 7569,
      "ked": 7570,
      "role": 7571,
      "ics": 7572,
      "finding": 7573,
      "econ": 7574,
      "length": 7575,
      "infections": 7576,
      "plas": 7577,
      "II": 7578,
      "fy": 7579,
      "abor": 7580,
      "direct": 7581,
      "isol": 7582,
      "ina": 7583,
      "sider": 7584,
      "],": 7585,
      "participants": 7586,
      "vestig": 7587,
      "ately": 7588,
      "second": 7589,
      "countries": 7590,
      "40": 7591,
      "confir": 7592,
      "development": 7593,
      "my": 7594,
      "ude": 7595,
      "following": 7596,
      "69": 7597,
      "small": 7598,
      "ero": 7599,
      "IV": 7600,
      "break": 7601,
      "rele": 7602,
      "sit": 7603,
      "because": 7604,
      "individuals": 7605,
      "fication": 7606,
      "que": 7607,
      "28": 7608,
      "medical": 7609,
      "significantly": 7610,
      "gree": 7611,
      "stitu": 7612,
      "examp": 7613,
      "did": 7614,
      "2019": 7615,
      "100": 7616,
      "known": 7617,
      "demon": 7618,
      "identified": 7619,
      "CA": 7620,
      "demonstr": 7621,
      "investig": 7622,
      "sist": 7623,
      "corona": 7624,
      "begin": 7625,
      "net": 7626,
      "jor": 7627,
      "without": 7628,
      "design": 7629,
      "strain": 7630,
      "defin": 7631,
      "pathogen": 7632,
      "repl": 7633,
      "molec": 7634,
      "compar": 7635,
      "included": 7636,
      "ue": 7637,
      "blood": 7638,
      "cording": 7639,
      "recent": 7640,
      "hip": 7641,
      "enza": 7642,
      "hel": 7643,
      "come": 7644,
      "tro": 7645,
      "play": 7646,
      "acid": 7647,
      "value": 7648,
      "likely": 7649,
      "strateg": 7650,
      "IF": 7651,
      "vas": 7652,
      "26": 7653,
      "ward": 7654,
      "29": 7655,
      "evid": 7656,
      "poly": 7657,
      "contin": 7658,
      "mort": 7659,
      "major": 7660,
      "inal": 7661,
      "ben": 7662,
      "prof": 7663,
      "epide": 7664,
      "respectively": 7665,
      "concentr": 7666,
      "allow": 7667,
      "27": 7668,
      "several": 7669,
      "sidered": 7670,
      "considered": 7671,
      "vaccine": 7672,
      "models": 7673,
      "No": 7674,
      "particular": 7675,
      "host": 7676,
      "fam": 7677,
      "possible": 7678,
      "ith": 7679,
      "sus": 7680,
      "binding": 7681,
      "posed": 7682,
      "sample": 7683,
      "ry": 7684,
      "All": 7685,
      "cing": 7686,
      "ption": 7687,
      "cle": 7688,
      "values": 7689,
      "xim": 7690,
      "Re": 7691,
      "graph": 7692,
      "mean": 7693,
      "viron": 7694,
      "see": 7695,
      "logy": 7696,
      "bacter": 7697,
      "phys": 7698,
      "RT": 7699,
      "mut": 7700,
      "children": 7701,
      "active": 7702,
      "inhibit": 7703,
      "consider": 7704,
      "normal": 7705,
      "ner": 7706,
      "exp": 7707,
      "mortality": 7708,
      "remain": 7709,
      "flu": 7710,
      "omic": 7711,
      "xi": 7712,
      "ens": 7713,
      "top": 7714,
      "impact": 7715,
      "arget": 7716,
      "transmission": 7717,
      "arm": 7718,
      "actions": 7719,
      "complex": 7720,
      "state": 7721,
      "acute": 7722,
      "ained": 7723,
      "frequ": 7724,
      "described": 7725,
      "changes": 7726,
      "io": 7727,
      "surve": 7728,
      "ron": 7729,
      "environ": 7730,
      "pur": 7731,
      "DNA": 7732,
      "ology": 7733,
      "represent": 7734,
      "recept": 7735,
      "bility": 7736,
      "example": 7737,
      "vant": 7738,
      "vo": 7739,
      "even": 7740,
      "ator": 7741,
      "matic": 7742,
      "target": 7743,
      "influenza": 7744,
      "199": 7745,
      "rs": 7746,
      "result": 7747,
      "before": 7748,
      "distribu": 7749,
      "diseases": 7750,
      "ons": 7751,
      "ables": 7752,
      "ition": 7753,
      "ger": 7754,
      "sum": 7755,
      "ucle": 7756,
      "$$\\": 7757,
      "wer": 7758,
      "tivity": 7759,
      "PE": 7760,
      "ditions": 7761,
      "off": 7762,
      "Ad": 7763,
      "havi": 7764,
      "provide": 7765,
      "dependent": 7766,
      "evidence": 7767,
      "inflammatory": 7768,
      "outbreak": 7769,
      "servic": 7770,
      "change": 7771,
      "self": 7772,
      "early": 7773,
      "37": 7774,
      "HC": 7775,
      "On": 7776,
      "yl": 7777,
      "met": 7778,
      "determin": 7779,
      "might": 7780,
      "conditions": 7781,
      "agement": 7782,
      "sugges": 7783,
      "000": 7784,
      "ric": 7785,
      "pat": 7786,
      "rence": 7787,
      "measures": 7788,
      "month": 7789,
      "behavi": 7790,
      "oper": 7791,
      "verse": 7792,
      "range": 7793,
      "spread": 7794,
      "Pro": 7795,
      "ME": 7796,
      "kin": 7797,
      "general": 7798,
      "Res": 7799,
      "solu": 7800,
      "conduc": 7801,
      "TT": 7802,
      "cial": 7803,
      "know": 7804,
      "}{": 7805,
      "relations": 7806,
      "rap": 7807,
      "testing": 7808,
      "verage": 7809,
      "ily": 7810,
      "trac": 7811,
      "local": 7812,
      "eu": 7813,
      "mice": 7814,
      "wide": 7815,
      "art": 7816,
      "effici": 7817,
      "therapy": 7818,
      "expl": 7819,
      "production": 7820,
      "bodies": 7821,
      "uch": 7822,
      "minimal": 7823,
      "findings": 7824,
      "pi": 7825,
      "hand": 7826,
      "lack": 7827,
      "lock": 7828,
      "overn": 7829,
      "Further": 7830,
      "lished": 7831,
      "ACE": 7832,
      "obtained": 7833,
      "developed": 7834,
      "bu": 7835,
      "60": 7836,
      "mes": 7837,
      "parame": 7838,
      "marg": 7839,
      "chall": 7840,
      "def": 7841,
      "inten": 7842,
      "tissu": 7843,
      "35": 7844,
      "comes": 7845,
      "ade": 7846,
      "types": 7847,
      "lement": 7848,
      "suggest": 7849,
      "loy": 7850,
      "AG": 7851,
      "ei": 7852,
      "ste": 7853,
      "mark": 7854,
      "single": 7855,
      "asing": 7856,
      "cost": 7857,
      "Ig": 7858,
      "ination": 7859,
      "report": 7860,
      "network": 7861,
      "tak": 7862,
      "help": 7863,
      "multiple": 7864,
      "MS": 7865,
      "point": 7866,
      "sensi": 7867,
      "effective": 7868,
      "given": 7869,
      "fs": 7870,
      "transp": 7871,
      "endo": 7872,
      "tious": 7873,
      "minis": 7874,
      "individual": 7875,
      "AR": 7876,
      "life": 7877,
      "cour": 7878,
      "ult": 7879,
      "inc": 7880,
      "abs": 7881,
      "py": 7882,
      "conf": 7883,
      "grow": 7884,
      "cept": 7885,
      "oral": 7886,
      "coronavirus": 7887,
      "uni": 7888,
      "world": 7889,
      "clear": 7890,
      "regul": 7891,
      "proble": 7892,
      "structure": 7893,
      "progr": 7894,
      "comm": 7895,
      "systems": 7896,
      "size": 7897,
      "sym": 7898,
      "improve": 7899,
      "scal": 7900,
      "made": 7901,
      "33": 7902,
      "More": 7903,
      "ways": 7904,
      "tur": 7905,
      "prior": 7906,
      "polic": 7907,
      "relative": 7908,
      "nam": 7909,
      "ions": 7910,
      "CC": 7911,
      "detection": 7912,
      "ources": 7913,
      "include": 7914,
      "prog": 7915,
      "margin": 7916,
      "ouse": 7917,
      "symb": 7918,
      "quality": 7919,
      "rec": 7920,
      "fon": 7921,
      "volu": 7922,
      "standard": 7923,
      "appe": 7924,
      "times": 7925,
      "membr": 7926,
      "factor": 7927,
      "artic": 7928,
      "right": 7929,
      "mas": 7930,
      "four": 7931,
      "aren": 7932,
      "confirmed": 7933,
      "ref": 7934,
      "implement": 7935,
      "psy": 7936,
      "responses": 7937,
      "key": 7938,
      "statis": 7939,
      "methods": 7940,
      "lection": 7941,
      "eth": 7942,
      "sto": 7943,
      "arr": 7944,
      "national": 7945,
      "ize": 7946,
      "ice": 7947,
      "educ": 7948,
      "neum": 7949,
      "understand": 7950,
      "prob": 7951,
      "contr": 7952,
      "omen": 7953,
      "techno": 7954,
      "sequence": 7955,
      "presence": 7956,
      "ling": 7957,
      "interest": 7958,
      "China": 7959,
      "34": 7960,
      "try": 7961,
      "antibody": 7962,
      "certain": 7963,
      "neumon": 7964,
      "antibodies": 7965,
      "genes": 7966,
      "benef": 7967,
      "cardi": 7968,
      "continu": 7969,
      "subjec": 7970,
      "cat": 7971,
      "whether": 7972,
      "abo": 7973,
      "ni": 7974,
      "expec": 7975,
      "80": 7976,
      "differences": 7977,
      "odd": 7978,
      "domain": 7979,
      "aging": 7980,
      "ST": 7981,
      "lect": 7982,
      "rates": 7983,
      "cancer": 7984,
      "Although": 7985,
      "recomm": 7986,
      "across": 7987,
      "OR": 7988,
      "hypo": 7989,
      "cro": 7990,
      "nucle": 7991,
      "various": 7992,
      "vit": 7993,
      "recommend": 7994,
      "]{": 7995,
      "her": 7996,
      "required": 7997,
      "outcomes": 7998,
      "real": 7999,
      "infectious": 8000,
      "CI": 8001,
      "fonts": 8002,
      "Therefore": 8003,
      "hold": 8004,
      "amsmath": 8005,
      "amssymb": 8006,
      "amsfonts": 8007,
      "documentclass": 8008,
      "amsb": 8009,
      "ledge": 8010,
      "rsfs": 8011,
      "wasy": 8012,
      "mathrsfs": 8013,
      "amsbsy": 8014,
      "wasysym": 8015,
      "12pt": 8016,
      "antigen": 8017,
      "greek": 8018,
      "}{-": 8019,
      "sidemargin": 8020,
      "oddsidemargin": 8021,
      "upgreek": 8022,
      "setlength": 8023,
      "69pt": 8024,
      "via": 8025,
      "31": 8026,
      "induced": 8027,
      "36": 8028,
      "strong": 8029,
      "tically": 8030,
      "sequences": 8031,
      "ening": 8032,
      "appl": 8033,
      "tail": 8034,
      "38": 8035,
      "AP": 8036,
      "ck": 8037,
      "stric": 8038,
      "48": 8039,
      "Health": 8040,
      "uture": 8041,
      "MP": 8042,
      "put": 8043,
      "adminis": 8044,
      "oid": 8045,
      "aro": 8046,
      "treated": 8047,
      "bas": 8048,
      "hydro": 8049,
      "detected": 8050,
      "activation": 8051,
      "students": 8052,
      "ential": 8053,
      "concer": 8054,
      "back": 8055,
      "land": 8056,
      "isms": 8057,
      "struc": 8058,
      "dia": 8059,
      "atten": 8060,
      "Se": 8061,
      "relationship": 8062,
      "characteris": 8063,
      "45": 8064,
      "gly": 8065,
      "reduced": 8066,
      "term": 8067,
      "pneumon": 8068,
      "ount": 8069,
      "En": 8070,
      "often": 8071,
      "tration": 8072,
      "%,": 8073,
      "identify": 8074,
      "ression": 8075,
      "diagnosis": 8076,
      "mor": 8077,
      "epidemic": 8078,
      "immuno": 8079,
      "govern": 8080,
      "auto": 8081,
      "expo": 8082,
      "ators": 8083,
      "management": 8084,
      "ially": 8085,
      "community": 8086,
      "contact": 8087,
      "issu": 8088,
      "primary": 8089,
      "limited": 8090,
      "pepti": 8091,
      "rapid": 8092,
      "just": 8093,
      "ick": 8094,
      "version": 8095,
      "deli": 8096,
      "cular": 8097,
      "assi": 8098,
      "ev": 8099,
      "stress": 8100,
      "access": 8101,
      "ably": 8102,
      "home": 8103,
      "32": 8104,
      "idence": 8105,
      "species": 8106,
      "employ": 8107,
      "hyper": 8108,
      "epi": 8109,
      "pan": 8110,
      "dri": 8111,
      "above": 8112,
      "sci": 8113,
      "scre": 8114,
      "sol": 8115,
      "discus": 8116,
      "variables": 8117,
      "contribu": 8118,
      "reas": 8119,
      "estab": 8120,
      "tested": 8121,
      "tt": 8122,
      "either": 8123,
      "light": 8124,
      "pen": 8125,
      "nat": 8126,
      "IFN": 8127,
      "labor": 8128,
      "don": 8129,
      "NP": 8130,
      "cir": 8131,
      "print": 8132,
      "versity": 8133,
      "proced": 8134,
      "global": 8135,
      "learning": 8136,
      "demonstrated": 8137,
      "since": 8138,
      "Our": 8139,
      "provided": 8140,
      "ists": 8141,
      "short": 8142,
      "calcul": 8143,
      "ACE2": 8144,
      "collected": 8145,
      "knowledge": 8146,
      "SP": 8147,
      "family": 8148,
      "TG": 8149,
      "reve": 8150,
      "site": 8151,
      "tox": 8152,
      "according": 8153,
      "emer": 8154,
      "conducted": 8155,
      "aim": 8156,
      "ults": 8157,
      "still": 8158,
      "survey": 8159,
      "pneumonia": 8160,
      "ive": 8161,
      "chron": 8162,
      "cytok": 8163,
      "ules": 8164,
      "tional": 8165,
      "preval": 8166,
      "itor": 8167,
      "examin": 8168,
      "theli": 8169,
      "remo": 8170,
      "least": 8171,
      "healthcare": 8172,
      "stat": 8173,
      "mg": 8174,
      "suff": 8175,
      "water": 8176,
      "cause": 8177,
      "average": 8178,
      "tric": 8179,
      "ied": 8180,
      "rand": 8181,
      "lymp": 8182,
      "optim": 8183,
      "receptor": 8184,
      "presented": 8185,
      "espec": 8186,
      "step": 8187,
      "mod": 8188,
      "aged": 8189,
      "defined": 8190,
      "distribution": 8191,
      "promo": 8192,
      "necess": 8193,
      "tests": 8194,
      "future": 8195,
      "previously": 8196,
      "ian": 8197,
      "better": 8198,
      "hol": 8199,
      "fail": 8200,
      "pul": 8201,
      "Ac": 8202,
      "thus": 8203,
      "however": 8204,
      "70": 8205,
      "mater": 8206,
      "ps": 8207,
      "quanti": 8208,
      "Ex": 8209,
      "assay": 8210,
      "39": 8211,
      "ins": 8212,
      "signal": 8213,
      "place": 8214,
      "critical": 8215,
      "increasing": 8216,
      "recogn": 8217,
      "ense": 8218,
      "HIV": 8219,
      "atures": 8220,
      "lied": 8221,
      "suc": 8222,
      "especially": 8223,
      "question": 8224,
      "score": 8225,
      "exposure": 8226,
      "2018": 8227,
      "author": 8228,
      "complete": 8229,
      "membrane": 8230,
      "facil": 8231,
      "preprint": 8232,
      "transcri": 8233,
      "prevent": 8234,
      "load": 8235,
      "pap": 8236,
      "SD": 8237,
      "random": 8238,
      "pattern": 8239,
      "ran": 8240,
      "Cs": 8241,
      "Thus": 8242,
      "training": 8243,
      "areas": 8244,
      "economic": 8245,
      "old": 8246,
      "highly": 8247,
      "radi": 8248,
      "proper": 8249,
      "fic": 8250,
      "exten": 8251,
      "tered": 8252,
      "modi": 8253,
      "surface": 8254,
      "tool": 8255,
      "ug": 8256,
      "PD": 8257,
      "psych": 8258,
      "bro": 8259,
      "uses": 8260,
      "require": 8261,
      "add": 8262,
      "lled": 8263,
      "At": 8264,
      "uration": 8265,
      "plement": 8266,
      "hist": 8267,
      "classi": 8268,
      "food": 8269,
      "fec": 8270,
      "drome": 8271,
      "vities": 8272,
      "initial": 8273,
      "De": 8274,
      "phen": 8275,
      "emergen": 8276,
      "setting": 8277,
      "reveal": 8278,
      "relation": 8279,
      "hal": 8280,
      "rit": 8281,
      "months": 8282,
      "dose": 8283,
      "physical": 8284,
      "ances": 8285,
      "orig": 8286,
      "proto": 8287,
      "resist": 8288,
      "survi": 8289,
      "medic": 8290,
      "growth": 8291,
      "Af": 8292,
      "synthe": 8293,
      "acts": 8294,
      "ource": 8295,
      "cytes": 8296,
      "temper": 8297,
      "achie": 8298,
      "ised": 8299,
      "authors": 8300,
      "shows": 8301,
      "sistent": 8302,
      "05": 8303,
      "sal": 8304,
      "pression": 8305,
      "involved": 8306,
      "does": 8307,
      "services": 8308,
      "dents": 8309,
      "difference": 8310,
      "die": 8311,
      "reduce": 8312,
      "valid": 8313,
      "las": 8314,
      "flow": 8315,
      "mid": 8316,
      "culture": 8317,
      "concern": 8318,
      "practi": 8319,
      "liter": 8320,
      "phase": 8321,
      "scale": 8322,
      "stic": 8323,
      "asy": 8324,
      "Moreover": 8325,
      "must": 8326,
      "Furthermore": 8327,
      "serum": 8328,
      "tissue": 8329,
      "ano": 8330,
      "decis": 8331,
      "sw": 8332,
      "followed": 8333,
      "rati": 8334,
      "ann": 8335,
      "performance": 8336,
      "situ": 8337,
      "enter": 8338,
      "AS": 8339,
      "additional": 8340,
      "accur": 8341,
      "what": 8342,
      "propor": 8343,
      "adap": 8344,
      "After": 8345,
      "integr": 8346,
      "ino": 8347,
      "reduction": 8348,
      "90": 8349,
      "arding": 8350,
      "stim": 8351,
      "appear": 8352,
      "44": 8353,
      "alg": 8354,
      "ICU": 8355,
      "phil": 8356,
      "activities": 8357,
      "parameters": 8358,
      "replication": 8359,
      "perce": 8360,
      "eld": 8361,
      "caused": 8362,
      "now": 8363,
      "his": 8364,
      "base": 8365,
      "fil": 8366,
      "bur": 8367,
      "diffic": 8368,
      "interaction": 8369,
      "greater": 8370,
      "compound": 8371,
      "ince": 8372,
      "free": 8373,
      "2017": 8374,
      "uro": 8375,
      "nal": 8376,
      "concentration": 8377,
      "compon": 8378,
      "Bo": 8379,
      "AD": 8380,
      "ft": 8381,
      "week": 8382,
      "BD": 8383,
      "izing": 8384,
      "proposed": 8385,
      "dynam": 8386,
      "prevalence": 8387,
      "ession": 8388,
      "drugs": 8389,
      "cub": 8390,
      "bor": 8391,
      "area": 8392,
      "women": 8393,
      "ury": 8394,
      "vation": 8395,
      "icity": 8396,
      "terms": 8397,
      "take": 8398,
      "tral": 8399,
      "chool": 8400,
      "contain": 8401,
      "tially": 8402,
      "ok": 8403,
      "categ": 8404,
      "One": 8405,
      "dr": 8406,
      "status": 8407,
      "online": 8408,
      "challeng": 8409,
      "affected": 8410,
      "syndrome": 8411,
      "wa": 8412,
      "strategies": 8413,
      "tract": 8414,
      "chronic": 8415,
      "therefore": 8416,
      "Med": 8417,
      "43": 8418,
      "dex": 8419,
      "ata": 8420,
      "ference": 8421,
      "tum": 8422,
      "ats": 8423,
      "ventil": 8424,
      "restric": 8425,
      "PR": 8426,
      "ctor": 8427,
      "neuro": 8428,
      "turn": 8429,
      "S1": 8430,
      "regions": 8431,
      "characteristics": 8432,
      "success": 8433,
      "correspon": 8434,
      "inj": 8435,
      "49": 8436,
      "excl": 8437,
      "ctions": 8438,
      "field": 8439,
      "lat": 8440,
      "recor": 8441,
      "NF": 8442,
      "clust": 8443,
      "mL": 8444,
      "ulations": 8445,
      "severity": 8446,
      "seen": 8447,
      "abil": 8448,
      "pho": 8449,
      "ene": 8450,
      "vaccines": 8451,
      "appropri": 8452,
      "events": 8453,
      "sity": 8454,
      "ders": 8455,
      "bar": 8456,
      "41": 8457,
      "%),": 8458,
      "enzy": 8459,
      "Ab": 8460,
      "analyses": 8461,
      "inform": 8462,
      "mitted": 8463,
      "expected": 8464,
      "determined": 8465,
      "call": 8466,
      "Ar": 8467,
      "aily": 8468,
      "2016": 8469,
      "vascular": 8470,
      "dig": 8471,
      "good": 8472,
      "died": 8473,
      "overall": 8474,
      "molecular": 8475,
      "oxy": 8476,
      "display": 8477,
      "position": 8478,
      "monary": 8479,
      "BS": 8480,
      "PA": 8481,
      "weeks": 8482,
      "While": 8483,
      "ings": 8484,
      "cas": 8485,
      "grad": 8486,
      "close": 8487,
      "47": 8488,
      "poin": 8489,
      "incub": 8490,
      "fib": 8491,
      "mine": 8492,
      "another": 8493,
      "experience": 8494,
      "much": 8495,
      "lation": 8496,
      "istic": 8497,
      "criter": 8498,
      "If": 8499,
      "fully": 8500,
      "vaccination": 8501,
      "vs": 8502,
      "EC": 8503,
      "anim": 8504,
      "needed": 8505,
      "Sup": 8506,
      "46": 8507,
      "2015": 8508,
      "here": 8509,
      "MD": 8510,
      "IS": 8511,
      "staff": 8512,
      "US": 8513,
      "lockdown": 8514,
      "let": 8515,
      "detail": 8516,
      "techni": 8517,
      "Fin": 8518,
      "complic": 8519,
      "genome": 8520,
      "lying": 8521,
      "IR": 8522,
      "coh": 8523,
      "ulated": 8524,
      "workers": 8525,
      "daily": 8526,
      "mix": 8527,
      "vered": 8528,
      "sensitivity": 8529,
      "42": 8530,
      "larg": 8531,
      "ler": 8532,
      "features": 8533,
      "section": 8534,
      "moder": 8535,
      "ore": 8536,
      "novel": 8537,
      "macro": 8538,
      "admission": 8539,
      "deaths": 8540,
      "ison": 8541,
      "containing": 8542,
      "although": 8543,
      "van": 8544,
      "ours": 8545,
      "intervention": 8546,
      "ergy": 8547,
      "ax": 8548,
      "around": 8549,
      "percent": 8550,
      "saf": 8551,
      "genetic": 8552,
      "connec": 8553,
      "environment": 8554,
      "lympho": 8555,
      "HO": 8556,
      "protocol": 8557,
      "intr": 8558,
      "ems": 8559,
      "AA": 8560,
      "usu": 8561,
      "65": 8562,
      "toward": 8563,
      "temperature": 8564,
      "expressed": 8565,
      "tor": 8566,
      "75": 8567,
      "fusion": 8568,
      "particles": 8569,
      "cellular": 8570,
      "media": 8571,
      "few": 8572,
      "safety": 8573,
      "utes": 8574,
      "ious": 8575,
      "effic": 8576,
      "sc": 8577,
      "directly": 8578,
      "PS": 8579,
      "onal": 8580,
      "particularly": 8581,
      "arly": 8582,
      "bacterial": 8583,
      "loss": 8584,
      "MR": 8585,
      "assu": 8586,
      "therapeu": 8587,
      "thelial": 8588,
      "context": 8589,
      "condition": 8590,
      "cepti": 8591,
      "domin": 8592,
      "relevant": 8593,
      "bon": 8594,
      "interactions": 8595,
      "carri": 8596,
      "March": 8597,
      "targe": 8598,
      "intro": 8599,
      "nur": 8600,
      "animals": 8601,
      "pite": 8602,
      "concl": 8603,
      "AL": 8604,
      "prac": 8605,
      "cies": 8606,
      "literature": 8607,
      "uary": 8608,
      "room": 8609,
      "super": 8610,
      "measured": 8611,
      "sions": 8612,
      "lor": 8613,
      "//": 8614,
      "bil": 8615,
      "dem": 8616,
      "laboratory": 8617,
      "}$$\\": 8618,
      "determine": 8619,
      "resources": 8620,
      "antiviral": 8621,
      "policy": 8622,
      "institu": 8623,
      "chain": 8624,
      "analyzed": 8625,
      "necessary": 8626,
      "elec": 8627,
      "55": 8628,
      "country": 8629,
      "simp": 8630,
      "selected": 8631,
      "sites": 8632,
      "lig": 8633,
      "revealed": 8634,
      "education": 8635,
      "received": 8636,
      "five": 8637,
      "amino": 8638,
      "outcome": 8639,
      "cross": 8640,
      "htt": 8641,
      "illness": 8642,
      "school": 8643,
      "inflammation": 8644,
      "ae": 8645,
      "course": 8646,
      "reli": 8647,
      "indicated": 8648,
      "Euro": 8649,
      "plasma": 8650,
      "focus": 8651,
      "Sim": 8652,
      "://": 8653,
      "capac": 8654,
      "reach": 8655,
      "decreased": 8656,
      "sch": 8657,
      "USA": 8658,
      "essential": 8659,
      "profession": 8660,
      "strains": 8661,
      "practice": 8662,
      "applied": 8663,
      "pose": 8664,
      "ird": 8665,
      "best": 8666,
      "logical": 8667,
      "combination": 8668,
      "star": 8669,
      "every": 8670,
      "nel": 8671,
      "ardi": 8672,
      "Pati": 8673,
      "2014": 8674,
      "They": 8675,
      "Li": 8676,
      "suscepti": 8677,
      "ones": 8678,
      "explo": 8679,
      "ml": 8680,
      "monitor": 8681,
      "phosp": 8682,
      "dam": 8683,
      "exis": 8684,
      "make": 8685,
      "sibility": 8686,
      "appropriate": 8687,
      "maint": 8688,
      "forms": 8689,
      "LA": 8690,
      "Di": 8691,
      "ratio": 8692,
      "transfer": 8693,
      "abol": 8694,
      "rame": 8695,
      "Ne": 8696,
      "spective": 8697,
      "vitro": 8698,
      "orith": 8699,
      "IgG": 8700,
      "NS": 8701,
      "ER": 8702,
      "ell": 8703,
      "separ": 8704,
      "With": 8705,
      "taken": 8706,
      "pulmonary": 8707,
      "trials": 8708,
      ");": 8709,
      "inst": 8710,
      "approxim": 8711,
      "paren": 8712,
      "mechanisms": 8713,
      "enced": 8714,
      "CS": 8715,
      "minim": 8716,
      "efficacy": 8717,
      "ica": 8718,
      "suggested": 8719,
      "incidence": 8720,
      "agg": 8721,
      "estimated": 8722,
      "decrease": 8723,
      "itis": 8724,
      "tation": 8725,
      "calculated": 8726,
      "personal": 8727,
      "reports": 8728,
      "DS": 8729,
      "agents": 8730,
      "ped": 8731,
      "graphic": 8732,
      "association": 8733,
      "published": 8734,
      "sent": 8735,
      "pressure": 8736,
      "HR": 8737,
      "technology": 8738,
      "ified": 8739,
      "Addition": 8740,
      "others": 8741,
      "neutral": 8742,
      "contrast": 8743,
      "vement": 8744,
      "idel": 8745,
      "IP": 8746,
      "ban": 8747,
      "populations": 8748,
      "aw": 8749,
      "assessment": 8750,
      "mill": 8751,
      "subsequ": 8752,
      "strategy": 8753,
      "resulting": 8754,
      "simul": 8755,
      "anxi": 8756,
      "ible": 8757,
      "lit": 8758,
      "criteria": 8759,
      "encing": 8760,
      "EV": 8761,
      "throm": 8762,
      "regarding": 8763,
      "tle": 8764,
      "Po": 8765,
      "gran": 8766,
      "Europe": 8767,
      "proportion": 8768,
      "program": 8769,
      "adi": 8770,
      "left": 8771,
      "avoid": 8772,
      "consis": 8773,
      "having": 8774,
      "trial": 8775,
      "When": 8776,
      "Com": 8777,
      "tas": 8778,
      "2013": 8779,
      "weight": 8780,
      "Le": 8781,
      "ids": 8782,
      "needs": 8783,
      "termin": 8784,
      "paper": 8785,
      "spi": 8786,
      "mechanism": 8787,
      "MERS": 8788,
      "ually": 8789,
      "mediated": 8790,
      "LR": 8791,
      "last": 8792,
      "So": 8793,
      "rup": 8794,
      "memb": 8795,
      "evaluated": 8796,
      "license": 8797,
      "mical": 8798,
      "ring": 8799,
      "coll": 8800,
      "fem": 8801,
      "frame": 8802,
      "detect": 8803,
      "emerg": 8804,
      "ier": 8805,
      "az": 8806,
      "members": 8807,
      "lay": 8808,
      "quar": 8809,
      "stre": 8810,
      "icient": 8811,
      "residu": 8812,
      "points": 8813,
      "ale": 8814,
      "derived": 8815,
      "ww": 8816,
      "198": 8817,
      "tele": 8818,
      "secondary": 8819,
      "outh": 8820,
      "57": 8821,
      "algorith": 8822,
      "government": 8823,
      "subst": 8824,
      "whereas": 8825,
      "gether": 8826,
      "56": 8827,
      "unit": 8828,
      "iat": 8829,
      "Au": 8830,
      "MA": 8831,
      "stage": 8832,
      "Uni": 8833,
      "pharm": 8834,
      "tili": 8835,
      "poor": 8836,
      "lip": 8837,
      "interven": 8838,
      "objec": 8839,
      "001": 8840,
      "microbi": 8841,
      "sof": 8842,
      "Rec": 8843,
      "failure": 8844,
      "GG": 8845,
      "sor": 8846,
      "reaction": 8847,
      "understanding": 8848,
      "functional": 8849,
      "}$$": 8850,
      "consistent": 8851,
      "liver": 8852,
      "Cor": 8853,
      "screening": 8854,
      "og": 8855,
      "animal": 8856,
      "projec": 8857,
      "ready": 8858,
      "capacity": 8859,
      "presents": 8860,
      "hypothe": 8861,
      "later": 8862,
      "eral": 8863,
      "plat": 8864,
      "energy": 8865,
      "pain": 8866,
      "suppor": 8867,
      "solution": 8868,
      "leading": 8869,
      "bers": 8870,
      "2012": 8871,
      "get": 8872,
      "house": 8873,
      "anxiety": 8874,
      "generated": 8875,
      "scores": 8876,
      "existing": 8877,
      "become": 8878,
      "correlation": 8879,
      "fever": 8880,
      "adjust": 8881,
      "therapeutic": 8882,
      "HS": 8883,
      "injury": 8884,
      "2009": 8885,
      "effor": 8886,
      "introduc": 8887,
      "qui": 8888,
      "full": 8889,
      "rang": 8890,
      "oxygen": 8891,
      "53": 8892,
      "median": 8893,
      "mus": 8894,
      "open": 8895,
      "ster": 8896,
      "Sy": 8897,
      "adults": 8898,
      "aring": 8899,
      "ark": 8900,
      "emergency": 8901,
      "onset": 8902,
      "importance": 8903,
      "sk": 8904,
      "own": 8905,
      "59": 8906,
      "Pre": 8907,
      "independent": 8908,
      "ot": 8909,
      "plan": 8910,
      "Comp": 8911,
      "alle": 8912,
      "humans": 8913,
      "ered": 8914,
      "history": 8915,
      "immunity": 8916,
      "Intern": 8917,
      "making": 8918,
      "final": 8919,
      "disorder": 8920,
      "icians": 8921,
      "products": 8922,
      "guidel": 8923,
      "MO": 8924,
      "rich": 8925,
      "mild": 8926,
      "rather": 8927,
      "youn": 8928,
      "natural": 8929,
      "Simil": 8930,
      "nas": 8931,
      "cris": 8932,
      "peak": 8933,
      "prin": 8934,
      "BV": 8935,
      "date": 8936,
      "event": 8937,
      "late": 8938,
      "pathogens": 8939,
      "frequency": 8940,
      "fit": 8941,
      "diagnostic": 8942,
      "influence": 8943,
      "means": 8944,
      "interventions": 8945,
      "plac": 8946,
      "power": 8947,
      "iv": 8948,
      "protective": 8949,
      "ground": 8950,
      "mRNA": 8951,
      "healthy": 8952,
      "sex": 8953,
      "xiv": 8954,
      "problem": 8955,
      "brain": 8956,
      "GF": 8957,
      "Finally": 8958,
      "2010": 8959,
      "ney": 8960,
      "protection": 8961,
      "structural": 8962,
      "variable": 8963,
      "metabol": 8964,
      "TR": 8965,
      "evaluation": 8966,
      "aneous": 8967,
      "older": 8968,
      "hen": 8969,
      "glyco": 8970,
      "utili": 8971,
      "isolation": 8972,
      "assessed": 8973,
      "Since": 8974,
      "iting": 8975,
      "omy": 8976,
      "TC": 8977,
      "lex": 8978,
      "ord": 8979,
      "att": 8980,
      "concentrations": 8981,
      "ES": 8982,
      "enhan": 8983,
      "BM": 8984,
      "questions": 8985,
      "indu": 8986,
      "58": 8987,
      "special": 8988,
      "categor": 8989,
      "Rxiv": 8990,
      "facilit": 8991,
      "S2": 8992,
      "fat": 8993,
      "broad": 8994,
      "index": 8995,
      "ield": 8996,
      "Be": 8997,
      "cohort": 8998,
      "adop": 8999,
      "highest": 9000,
      "applic": 9001,
      "plementary": 9002,
      "amine": 9003,
      "NO": 9004,
      "construc": 9005,
      "efficient": 9006,
      "err": 9007,
      "01": 9008,
      "provides": 9009,
      "location": 9010,
      "together": 9011,
      "ights": 9012,
      "established": 9013,
      "affect": 9014,
      "isolated": 9015,
      "sho": 9016,
      "Is": 9017,
      "intest": 9018,
      "MV": 9019,
      "scienti": 9020,
      "prep": 9021,
      "CL": 9022,
      "reason": 9023,
      "added": 9024,
      "pass": 9025,
      "comparison": 9026,
      "approaches": 9027,
      "CP": 9028,
      "mono": 9029,
      "processes": 9030,
      "Data": 9031,
      "Fe": 9032,
      "devic": 9033,
      "labe": 9034,
      "reat": 9035,
      "emo": 9036,
      "nai": 9037,
      "ga": 9038,
      "52": 9039,
      "altern": 9040,
      "veness": 9041,
      "along": 9042,
      "lot": 9043,
      "decision": 9044,
      "source": 9045,
      "relatively": 9046,
      "far": 9047,
      "recently": 9048,
      "poli": 9049,
      "phosph": 9050,
      "Or": 9051,
      "ering": 9052,
      "volution": 9053,
      "lling": 9054,
      "already": 9055,
      "compounds": 9056,
      "molecules": 9057,
      "rh": 9058,
      "itals": 9059,
      "itation": 9060,
      "regression": 9061,
      "working": 9062,
      "lines": 9063,
      "51": 9064,
      "maxim": 9065,
      "bound": 9066,
      "ifically": 9067,
      "problems": 9068,
      "har": 9069,
      "63": 9070,
      "Amer": 9071,
      "great": 9072,
      "Ap": 9073,
      "issues": 9074,
      "72": 9075,
      "2011": 9076,
      "cum": 9077,
      "ican": 9078,
      "regard": 9079,
      "WHO": 9080,
      "supp": 9081,
      "sition": 9082,
      "68": 9083,
      "increases": 9084,
      "volume": 9085,
      "CF": 9086,
      "lant": 9087,
      "foc": 9088,
      "medRxiv": 9089,
      "delivery": 9090,
      "ont": 9091,
      "beli": 9092,
      "pathway": 9093,
      "icial": 9094,
      "antibio": 9095,
      "enari": 9096,
      "bul": 9097,
      "series": 9098,
      "ution": 9099,
      "EL": 9100,
      "mention": 9101,
      "resistance": 9102,
      "extr": 9103,
      "six": 9104,
      "numbers": 9105,
      "corresponding": 9106,
      "predict": 9107,
      "gal": 9108,
      "Tw": 9109,
      "suggests": 9110,
      "produced": 9111,
      "hours": 9112,
      "subjects": 9113,
      "ior": 9114,
      "useful": 9115,
      "https": 9116,
      "hood": 9117,
      "Gen": 9118,
      "Afr": 9119,
      "collection": 9120,
      "mia": 9121,
      "structures": 9122,
      "you": 9123,
      "biological": 9124,
      "datab": 9125,
      "54": 9126,
      "ED": 9127,
      "indicate": 9128,
      "duration": 9129,
      "tero": 9130,
      "mainly": 9131,
      "million": 9132,
      "}}": 9133,
      "mption": 9134,
      "currently": 9135,
      "arily": 9136,
      "psychological": 9137,
      "oxid": 9138,
      "oti": 9139,
      "omes": 9140,
      "run": 9141,
      "peptide": 9142,
      "United": 9143,
      "finan": 9144,
      "behavior": 9145,
      "she": 9146,
      "macroph": 9147,
      "HA": 9148,
      "feed": 9149,
      "majority": 9150,
      "aspec": 9151,
      "guidelines": 9152,
      "until": 9153,
      "pic": 9154,
      "difficult": 9155,
      "uded": 9156,
      "resol": 9157,
      "exer": 9158,
      "asympto": 9159,
      "potentially": 9160,
      "usually": 9161,
      "entry": 9162,
      "betes": 9163,
      "cannot": 9164,
      "Des": 9165,
      "exhib": 9166,
      "demo": 9167,
      "tware": 9168,
      "experiments": 9169,
      "properties": 9170,
      "refer": 9171,
      "advant": 9172,
      "pril": 9173,
      "improved": 9174,
      "functions": 9175,
      "atives": 9176,
      "surger": 9177,
      "interval": 9178,
      "cult": 9179,
      "secre": 9180,
      "99": 9181,
      "survival": 9182,
      "ingly": 9183,
      "na": 9184,
      "teach": 9185,
      "ventilation": 9186,
      "ues": 9187,
      "pair": 9188,
      "evaluate": 9189,
      "cut": 9190,
      "procedures": 9191,
      "dys": 9192,
      "cin": 9193,
      "medicine": 9194,
      "portun": 9195,
      "hospitals": 9196,
      "2021": 9197,
      "transcription": 9198,
      "administration": 9199,
      "nature": 9200,
      "consu": 9201,
      "suggesting": 9202,
      "interpre": 9203,
      "assays": 9204,
      "ores": 9205,
      "fl": 9206,
      "gl": 9207,
      "tren": 9208,
      "ctors": 9209,
      "designed": 9210,
      "N1": 9211,
      "plate": 9212,
      "approximately": 9213,
      "generation": 9214,
      "monitoring": 9215,
      "opportun": 9216,
      "idity": 9217,
      "mass": 9218,
      "67": 9219,
      "row": 9220,
      "scenari": 9221,
      "vision": 9222,
      "spe": 9223,
      "states": 9224,
      "elect": 9225,
      "below": 9226,
      "application": 9227,
      "lim": 9228,
      "April": 9229,
      "64": 9230,
      "Wor": 9231,
      "Tr": 9232,
      "smo": 9233,
      "Some": 9234,
      "chlor": 9235,
      "account": 9236,
      "RSV": 9237,
      "wash": 9238,
      "transport": 9239,
      "igr": 9240,
      "damage": 9241,
      "bacteria": 9242,
      "According": 9243,
      "University": 9244,
      "probability": 9245,
      "homo": 9246,
      "Cl": 9247,
      "agen": 9248,
      "studied": 9249,
      "Fir": 9250,
      "CV": 9251,
      "developing": 9252,
      "practic": 9253,
      "EM": 9254,
      "ands": 9255,
      "situation": 9256,
      "upon": 9257,
      "challenges": 9258,
      "ii": 9259,
      "une": 9260,
      "remains": 9261,
      "head": 9262,
      "2008": 9263,
      "environmental": 9264,
      "fold": 9265,
      "international": 9266,
      "ancy": 9267,
      "observ": 9268,
      "align": 9269,
      "regulation": 9270,
      "amount": 9271,
      "crisis": 9272,
      "agree": 9273,
      "cise": 9274,
      "cyte": 9275,
      "third": 9276,
      "copy": 9277,
      "absence": 9278,
      "prevention": 9279,
      "%).": 9280,
      "content": 9281,
      "service": 9282,
      "inhibition": 9283,
      "ake": 9284,
      "degree": 9285,
      "repe": 9286,
      "baseline": 9287,
      "enge": 9288,
      "NC": 9289,
      "Me": 9290,
      "residues": 9291,
      "cytokines": 9292,
      "NT": 9293,
      "mu": 9294,
      "IT": 9295,
      "wise": 9296,
      "surg": 9297,
      "activated": 9298,
      "epidemi": 9299,
      "tron": 9300,
      "diabetes": 9301,
      "2003": 9302,
      "market": 9303,
      "travel": 9304,
      "zo": 9305,
      "cytokine": 9306,
      "tumor": 9307,
      "78": 9308,
      "ancing": 9309,
      "tin": 9310,
      "logies": 9311,
      "ides": 9312,
      "xy": 9313,
      "extrac": 9314,
      "ending": 9315,
      "Of": 9316,
      "astro": 9317,
      "CH": 9318,
      "thrombo": 9319,
      "space": 9320,
      "agent": 9321,
      "approved": 9322,
      "mouse": 9323,
      "components": 9324,
      "PP": 9325,
      "Sec": 9326,
      "RBD": 9327,
      "iness": 9328,
      "heart": 9329,
      "team": 9330,
      "experimental": 9331,
      "First": 9332,
      "images": 9333,
      "signaling": 9334,
      "statistical": 9335,
      "tives": 9336,
      "los": 9337,
      "famil": 9338,
      "During": 9339,
      "communication": 9340,
      "investigated": 9341,
      "find": 9342,
      "stri": 9343,
      "asymptomatic": 9344,
      "nit": 9345,
      "pregn": 9346,
      "aps": 9347,
      "illance": 9348,
      "reference": 9349,
      "da": 9350,
      "ker": 9351,
      "sia": 9352,
      "Supplementary": 9353,
      "linked": 9354,
      "medium": 9355,
      "dimen": 9356,
      "linear": 9357,
      "Pr": 9358,
      "Bio": 9359,
      "nano": 9360,
      "iatric": 9361,
      "release": 9362,
      "ensure": 9363,
      "ND": 9364,
      "rob": 9365,
      "recru": 9366,
      "mm": 9367,
      "larger": 9368,
      "corpor": 9369,
      "central": 9370,
      "moderate": 9371,
      "carried": 9372,
      "causes": 9373,
      "physi": 9374,
      "dent": 9375,
      "buil": 9376,
      "esis": 9377,
      "mutations": 9378,
      "bes": 9379,
      "enco": 9380,
      "olar": 9381,
      "cardio": 9382,
      "doi": 9383,
      "patterns": 9384,
      "whole": 9385,
      "polymer": 9386,
      "predicted": 9387,
      "selection": 9388,
      "62": 9389,
      "yet": 9390,
      "match": 9391,
      "challenge": 9392,
      "recommended": 9393,
      "Other": 9394,
      "city": 9395,
      "Additionally": 9396,
      "mM": 9397,
      "lar": 9398,
      "utro": 9399,
      "2007": 9400,
      "zing": 9401,
      "controls": 9402,
      "zation": 9403,
      "leu": 9404,
      "ampli": 9405,
      "noted": 9406,
      "vul": 9407,
      "..": 9408,
      "seg": 9409,
      "software": 9410,
      "surgery": 9411,
      "2005": 9412,
      "sufficient": 9413,
      "inhibitors": 9414,
      "oph": 9415,
      "ient": 9416,
      "isation": 9417,
      "bus": 9418,
      "nu": 9419,
      "continuous": 9420,
      "implementation": 9421,
      "cru": 9422,
      "graphy": 9423,
      "respondents": 9424,
      "meet": 9425,
      "cry": 9426,
      "96": 9427,
      "unique": 9428,
      "electro": 9429,
      "By": 9430,
      "%.": 9431,
      "ón": 9432,
      "bron": 9433,
      "complications": 9434,
      "reng": 9435,
      "receptors": 9436,
      "UK": 9437,
      "surgical": 9438,
      "2006": 9439,
      "framework": 9440,
      "May": 9441,
      "Ano": 9442,
      "sets": 9443,
      "Inte": 9444,
      "ton": 9445,
      "examined": 9446,
      "pig": 9447,
      "financial": 9448,
      "Dec": 9449,
      "distance": 9450,
      "evolution": 9451,
      "conser": 9452,
      "pathways": 9453,
      "pto": 9454,
      "66": 9455,
      "adverse": 9456,
      "New": 9457,
      "limin": 9458,
      "synthesis": 9459,
      "mentioned": 9460,
      "next": 9461,
      "OS": 9462,
      "origin": 9463,
      "71": 9464,
      "soli": 9465,
      "done": 9466,
      "Jan": 9467,
      "resulted": 9468,
      "questionnai": 9469,
      "pH": 9470,
      "sust": 9471,
      "chemical": 9472,
      "attention": 9473,
      "exposed": 9474,
      "depression": 9475,
      "ials": 9476,
      "spike": 9477,
      "mak": 9478,
      "andid": 9479,
      "ufact": 9480,
      "imaging": 9481,
      "pot": 9482,
      "trig": 9483,
      "article": 9484,
      "inv": 9485,
      "enzyme": 9486,
      "invas": 9487,
      "kg": 9488,
      "income": 9489,
      "intestinal": 9490,
      "ech": 9491,
      ")-": 9492,
      "buff": 9493,
      "tru": 9494,
      "implic": 9495,
      "mediate": 9496,
      "longer": 9497,
      "77": 9498,
      "confirm": 9499,
      "elev": 9500,
      "inary": 9501,
      "migr": 9502,
      "aset": 9503,
      "International": 9504,
      "contribute": 9505,
      "prepared": 9506,
      "satis": 9507,
      "material": 9508,
      "generally": 9509,
      "aryn": 9510,
      "princi": 9511,
      "2004": 9512,
      "specim": 9513,
      "surveillance": 9514,
      "distancing": 9515,
      "Nor": 9516,
      "vivo": 9517,
      "pet": 9518,
      "qual": 9519,
      "Patients": 9520,
      "glu": 9521,
      "ulate": 9522,
      "accuracy": 9523,
      "ery": 9524,
      "itive": 9525,
      "raw": 9526,
      "percentage": 9527,
      "substanti": 9528,
      "past": 9529,
      "suppres": 9530,
      "characterized": 9531,
      "deed": 9532,
      "fig": 9533,
      "procedure": 9534,
      "limitations": 9535,
      "dilu": 9536,
      "produce": 9537,
      "acell": 9538,
      "retro": 9539,
      "idney": 9540,
      "benefit": 9541,
      "occurred": 9542,
      "towards": 9543,
      "differenti": 9544,
      "stable": 9545,
      "stead": 9546,
      "enh": 9547,
      "Another": 9548,
      "techniques": 9549,
      "responsible": 9550,
      "text": 9551,
      "otype": 9552,
      "called": 9553,
      "Vir": 9554,
      "manufact": 9555,
      "units": 9556,
      "streng": 9557,
      "neutro": 9558,
      "cence": 9559,
      "sources": 9560,
      "combined": 9561,
      "61": 9562,
      "acellular": 9563,
      "controlled": 9564,
      "tiveness": 9565,
      "quarant": 9566,
      "requires": 9567,
      "identification": 9568,
      "anes": 9569,
      "includes": 9570,
      "delay": 9571,
      "ik": 9572,
      "earch": 9573,
      "Im": 9574,
      "Wu": 9575,
      "signs": 9576,
      "visual": 9577,
      "yield": 9578,
      "researchers": 9579,
      "hetero": 9580,
      "gender": 9581,
      "ium": 9582,
      "density": 9583,
      "half": 9584,
      "stay": 9585,
      "indicating": 9586,
      "safe": 9587,
      "States": 9588,
      "efficiency": 9589,
      "fix": 9590,
      "exper": 9591,
      "recovery": 9592,
      "ule": 9593,
      "eti": 9594,
      "household": 9595,
      "Sh": 9596,
      "antly": 9597,
      "wild": 9598,
      "users": 9599,
      "bat": 9600,
      "PM": 9601,
      "rout": 9602,
      "providing": 9603,
      "force": 9604,
      "vector": 9605,
      "dataset": 9606,
      "tools": 9607,
      "pon": 9608,
      "coag": 9609,
      "concept": 9610,
      "mong": 9611,
      "barri": 9612,
      "neur": 9613,
      "jo": 9614,
      "specificity": 9615,
      "alternative": 9616,
      "ping": 9617,
      "compo": 9618,
      "product": 9619,
      "tissues": 9620,
      "chemo": 9621,
      "Among": 9622,
      "basis": 9623,
      "Reg": 9624,
      "disch": 9625,
      "injec": 9626,
      "reducing": 9627,
      "Ger": 9628,
      "priv": 9629,
      "settings": 9630,
      "PL": 9631,
      "equip": 9632,
      "practices": 9633,
      "Most": 9634,
      "stor": 9635,
      "focused": 9636,
      "transplant": 9637,
      "79": 9638,
      "ah": 9639,
      "kidney": 9640,
      "semb": 9641,
      "shif": 9642,
      "chec": 9643,
      "follows": 9644,
      "TNF": 9645,
      "88": 9646,
      "Ser": 9647,
      "mag": 9648,
      "highl": 9649,
      "cep": 9650,
      "maximum": 9651,
      "TA": 9652,
      "bir": 9653,
      "alone": 9654,
      "hea": 9655,
      "optimal": 9656,
      "underlying": 9657,
      "cardiac": 9658,
      "perceived": 9659,
      "conver": 9660,
      "subsequent": 9661,
      "inn": 9662,
      "bias": 9663,
      "bri": 9664,
      "compu": 9665,
      "discussed": 9666,
      "ey": 9667,
      "microbial": 9668,
      "Over": 9669,
      "granted": 9670,
      "ls": 9671,
      "uncertain": 9672,
      "BC": 9673,
      "algorithm": 9674,
      "ges": 9675,
      "address": 9676,
      "PV": 9677,
      "estimate": 9678,
      "systemic": 9679,
      "seas": 9680,
      "holder": 9681,
      "oles": 9682,
      "IA": 9683,
      "implemented": 9684,
      "rapidly": 9685,
      "lies": 9686,
      "commonly": 9687,
      "dou": 9688,
      "comor": 9689,
      "Ph": 9690,
      "establish": 9691,
      "exist": 9692,
      "mode": 9693,
      "sense": 9694,
      "cough": 9695,
      "reporting": 9696,
      "Ps": 9697,
      "SS": 9698,
      "disco": 9699,
      "73": 9700,
      "Sch": 9701,
      "2000": 9702,
      "policies": 9703,
      "rix": 9704,
      "Gi": 9705,
      "RNAs": 9706,
      "interview": 9707,
      "vary": 9708,
      "living": 9709,
      "vulner": 9710,
      "tradition": 9711,
      "bol": 9712,
      "ash": 9713,
      "dynamics": 9714,
      "located": 9715,
      "reshold": 9716,
      "recorded": 9717,
      "frequently": 9718,
      "hepati": 9719,
      "TB": 9720,
      "statistically": 9721,
      "digital": 9722,
      "funder": 9723,
      "items": 9724,
      "enhance": 9725,
      "outbreaks": 9726,
      "lier": 9727,
      "eas": 9728,
      "manif": 9729,
      "vaccin": 9730,
      "efforts": 9731,
      "emia": 9732,
      "contamin": 9733,
      "chest": 9734,
      "Research": 9735,
      "conj": 9736,
      "block": 9737,
      "risks": 9738,
      "susceptible": 9739,
      "benefits": 9740,
      "uity": 9741,
      "macrophages": 9742,
      "accept": 9743,
      "Bec": 9744,
      "Per": 9745,
      "threshold": 9746,
      "formed": 9747,
      "feren": 9748,
      "85": 9749,
      "processing": 9750,
      "OC": 9751,
      "tual": 9752,
      "represents": 9753,
      "cycl": 9754,
      "arter": 9755,
      "scan": 9756,
      "male": 9757,
      "incubated": 9758,
      "GA": 9759,
      "table": 9760,
      "ologic": 9761,
      "frag": 9762,
      "allowed": 9763,
      "ein": 9764,
      "cycle": 9765,
      "January": 9766,
      "candid": 9767,
      "izations": 9768,
      "inese": 9769,
      "geo": 9770,
      "mach": 9771,
      "internal": 9772,
      "aware": 9773,
      "dle": 9774,
      "note": 9775,
      "scientific": 9776,
      "rosis": 9777,
      "Chinese": 9778,
      "CD4": 9779,
      "effectiveness": 9780,
      "allows": 9781,
      "Sci": 9782,
      "coc": 9783,
      "gan": 9784,
      "targets": 9785,
      "epithelial": 9786,
      "almost": 9787,
      "diagnosed": 9788,
      "improvement": 9789,
      "Can": 9790,
      "concerns": 9791,
      "estimates": 9792,
      "colon": 9793,
      "recei": 9794,
      "H1": 9795,
      "extre": 9796,
      "stream": 9797,
      "sep": 9798,
      "ARDS": 9799,
      "theless": 9800,
      "core": 9801,
      "CD8": 9802,
      "sampling": 9803,
      "peptides": 9804,
      "widely": 9805,
      "ades": 9806,
      "ORF": 9807,
      "pharmac": 9808,
      "yon": 9809,
      "burden": 9810,
      "quate": 9811,
      "Based": 9812,
      "basic": 9813,
      "experiment": 9814,
      "76": 9815,
      "aden": 9816,
      "threat": 9817,
      "indicates": 9818,
      "phag": 9819,
      "networks": 9820,
      "susp": 9821,
      "aero": 9822,
      "return": 9823,
      "elevated": 9824,
      "tension": 9825,
      "pu": 9826,
      "neutrophil": 9827,
      "98": 9828,
      "young": 9829,
      "sensitive": 9830,
      "suspec": 9831,
      "Covid": 9832,
      "database": 9833,
      "reviewed": 9834,
      "electron": 9835,
      "pha": 9836,
      "mol": 9837,
      "peer": 9838,
      "EP": 9839,
      "renal": 9840,
      "HD": 9841,
      "specifically": 9842,
      "asth": 9843,
      "worldwide": 9844,
      "relationships": 9845,
      "curity": 9846,
      "AM": 9847,
      "pool": 9848,
      "distin": 9849,
      "aries": 9850,
      "intra": 9851,
      "National": 9852,
      "101": 9853,
      "tative": 9854,
      "methyl": 9855,
      "weak": 9856,
      "disorders": 9857,
      "availability": 9858,
      "leads": 9859,
      "occurs": 9860,
      "lang": 9861,
      "lis": 9862,
      "adj": 9863,
      "acids": 9864,
      "ising": 9865,
      "cup": 9866,
      "copyright": 9867,
      "ISA": 9868,
      "induce": 9869,
      "thin": 9870,
      "affin": 9871,
      "matrix": 9872,
      "Hu": 9873,
      "live": 9874,
      "fav": 9875,
      "vide": 9876,
      "popto": 9877,
      "entire": 9878,
      "routine": 9879,
      "consent": 9880,
      "commer": 9881,
      "incorpor": 9882,
      "pal": 9883,
      "issue": 9884,
      "versus": 9885,
      "prediction": 9886,
      "feel": 9887,
      "replic": 9888,
      "regular": 9889,
      "urban": 9890,
      "programs": 9891,
      "achieved": 9892,
      "const": 9893,
      "inhibitor": 9894,
      "distress": 9895,
      "ind": 9896,
      "feature": 9897,
      "74": 9898,
      "European": 9899,
      "writ": 9900,
      "numer": 9901,
      "consul": 9902,
      "cogn": 9903,
      "tom": 9904,
      "ko": 9905,
      "compan": 9906,
      "Similarly": 9907,
      "Cy": 9908,
      "demand": 9909,
      "image": 9910,
      "sero": 9911,
      "hor": 9912,
      "experienced": 9913,
      "mask": 9914,
      "classification": 9915,
      "counter": 9916,
      "Sever": 9917,
      "thro": 9918,
      "IG": 9919,
      "III": 9920,
      "From": 9921,
      "correct": 9922,
      "econd": 9923,
      "bidi": 9924,
      "intensive": 9925,
      "LD": 9926,
      "perpet": 9927,
      "Second": 9928,
      "original": 9929,
      "summar": 9930,
      "aspects": 9931,
      "throughout": 9932,
      "enhanced": 9933,
      "serious": 9934,
      "female": 9935,
      "disrup": 9936,
      "ites": 9937,
      "conclusion": 9938,
      "apopto": 9939,
      "despite": 9940,
      "ustr": 9941,
      "tee": 9942,
      "skin": 9943,
      "toxicity": 9944,
      "sequencing": 9945,
      "count": 9946,
      "Gu": 9947,
      "upper": 9948,
      "cript": 9949,
      "odo": 9950,
      "sigh": 9951,
      "Results": 9952,
      "DE": 9953,
      "web": 9954,
      "World": 9955,
      "unknown": 9956,
      "aster": 9957,
      "possibility": 9958,
      "South": 9959,
      "parameter": 9960,
      "rare": 9961,
      "instance": 9962,
      "assign": 9963,
      "skill": 9964,
      "belie": 9965,
      "fluores": 9966,
      "Ag": 9967,
      "hospitalized": 9968,
      "ato": 9969,
      "gluco": 9970,
      "addres": 9971,
      "Interest": 9972,
      "ighted": 9973,
      "lesions": 9974,
      "extent": 9975,
      "communities": 9976,
      "solid": 9977,
      "fraction": 9978,
      "Despite": 9979,
      "partment": 9980,
      "regis": 9981,
      "Hosp": 9982,
      "explain": 9983,
      "Two": 9984,
      "systematic": 9985,
      "phone": 9986,
      "thor": 9987,
      "bidity": 9988,
      "costs": 9989,
      "employed": 9990,
      "correlated": 9991,
      "lifer": 9992,
      "illustr": 9993,
      "terminal": 9994,
      "mutation": 9995,
      "NV": 9996,
      "applications": 9997,
      "rin": 9998,
      "adv": 9999,
      "collabor": 10000,
      "user": 10001,
      "Lo": 10002,
      "diarr": 10003,
      "learn": 10004,
      "investigate": 10005,
      "nm": 10006,
      "Imp": 10007,
      "spati": 10008,
      "DV": 10009,
      "mechanical": 10010,
      "bloc": 10011,
      "security": 10012,
      "Wuhan": 10013,
      "treatments": 10014,
      "articles": 10015,
      "nucleoti": 10016,
      "emerging": 10017,
      "capture": 10018,
      "facilities": 10019,
      "supply": 10020,
      "indo": 10021,
      "ongo": 10022,
      "alve": 10023,
      "adult": 10024,
      "BP": 10025,
      "gent": 10026,
      "ral": 10027,
      "progression": 10028,
      "hospitalization": 10029,
      "toxic": 10030,
      "outside": 10031,
      "colle": 10032,
      "prolifer": 10033,
      "exce": 10034,
      "dynamic": 10035,
      "generate": 10036,
      "zu": 10037,
      "pa": 10038,
      "taking": 10039,
      "guid": 10040,
      "Spec": 10041,
      "sized": 10042,
      "domains": 10043,
      "buffer": 10044,
      "Several": 10045,
      "targeting": 10046,
      "recommendations": 10047,
      "name": 10048,
      "desi": 10049,
      "HV": 10050,
      "alter": 10051,
      "variety": 10052,
      "posted": 10053,
      "Given": 10054,
      "bei": 10055,
      "platform": 10056,
      "PBS": 10057,
      "strongly": 10058,
      "cord": 10059,
      "traditional": 10060,
      "variation": 10061,
      "consumption": 10062,
      "opath": 10063,
      "modified": 10064,
      "Both": 10065,
      "sim": 10066,
      "admitted": 10067,
      "recombin": 10068,
      "asis": 10069,
      "symptom": 10070,
      "Bi": 10071,
      "etc": 10072,
      "fal": 10073,
      "2002": 10074,
      "ovirus": 10075,
      "reflect": 10076,
      "ank": 10077,
      "Clin": 10078,
      "chan": 10079,
      "scopy": 10080,
      "accum": 10081,
      "bidities": 10082,
      "GC": 10083,
      "itig": 10084,
      "component": 10085,
      "rection": 10086,
      "link": 10087,
      "itable": 10088,
      "perpetuity": 10089,
      "quarantine": 10090,
      "variants": 10091,
      "hr": 10092,
      "acqui": 10093,
      "layer": 10094,
      "contrib": 10095,
      "nutri": 10096,
      "significance": 10097,
      "iciency": 10098,
      "extensive": 10099,
      "TLR": 10100,
      "symptomatic": 10101,
      "questionnaire": 10102,
      "complement": 10103,
      "von": 10104,
      "abilities": 10105,
      "list": 10106,
      "histo": 10107,
      "administered": 10108,
      "screen": 10109,
      "uclear": 10110,
      "sequently": 10111,
      "gas": 10112,
      "extracted": 10113,
      "supported": 10114,
      "panel": 10115,
      "families": 10116,
      "HE": 10117,
      "FD": 10118,
      "crucial": 10119,
      "promis": 10120,
      "RA": 10121,
      "suspected": 10122,
      "quantitative": 10123,
      "lipid": 10124,
      "SE": 10125,
      "robust": 10126,
      "fluid": 10127,
      "cis": 10128,
      "equipment": 10129,
      "^{": 10130,
      "ales": 10131,
      "distinct": 10132,
      "compet": 10133,
      "prepar": 10134,
      "Interestingly": 10135,
      "masks": 10136,
      "Eng": 10137,
      "dog": 10138,
      "respect": 10139,
      "targeted": 10140,
      "Here": 10141,
      "acting": 10142,
      "Ro": 10143,
      "achieve": 10144,
      "contains": 10145,
      "lungs": 10146,
      "political": 10147,
      "examination": 10148,
      "excluded": 10149,
      "PT": 10150,
      "Sub": 10151,
      "IN": 10152,
      "His": 10153,
      "hypothesis": 10154,
      "prop": 10155,
      "500": 10156,
      "promote": 10157,
      "iring": 10158,
      "demographic": 10159,
      "stry": 10160,
      "cou": 10161,
      "contacts": 10162,
      "ibility": 10163,
      "appears": 10164,
      "pes": 10165,
      "confidence": 10166,
      "Hospital": 10167,
      "asthma": 10168,
      "socio": 10169,
      "degrad": 10170,
      "little": 10171,
      "alpha": 10172,
      "89": 10173,
      "business": 10174,
      "involvement": 10175,
      "mber": 10176,
      "mito": 10177,
      "**": 10178,
      "lective": 10179,
      "technologies": 10180,
      "Meth": 10181,
      "too": 10182,
      "poll": 10183,
      "inoc": 10184,
      "attemp": 10185,
      "ulo": 10186,
      "stages": 10187,
      "ost": 10188,
      "abnormal": 10189,
      "project": 10190,
      "channel": 10191,
      "stability": 10192,
      "extreme": 10193,
      "Partic": 10194,
      "tified": 10195,
      "uting": 10196,
      "rehen": 10197,
      "simple": 10198,
      "deep": 10199,
      "acer": 10200,
      "reser": 10201,
      "Because": 10202,
      "fear": 10203,
      "input": 10204,
      "Organ": 10205,
      "thy": 10206,
      "manifest": 10207,
      "coli": 10208,
      "stitute": 10209,
      "seems": 10210,
      "fall": 10211,
      "mitig": 10212,
      "Febr": 10213,
      "alysis": 10214,
      "aft": 10215,
      "fixed": 10216,
      "occup": 10217,
      "direc": 10218,
      "Also": 10219,
      "once": 10220,
      "informed": 10221,
      "February": 10222,
      "ressive": 10223,
      "assemb": 10224,
      "83": 10225,
      "technique": 10226,
      "nasal": 10227,
      "dimension": 10228,
      "sle": 10229,
      "reasons": 10230,
      "stimul": 10231,
      "seven": 10232,
      "bit": 10233,
      "recognition": 10234,
      "zy": 10235,
      "Each": 10236,
      "Many": 10237,
      "investigation": 10238,
      "aus": 10239,
      "hab": 10240,
      "Dis": 10241,
      "cluster": 10242,
      "ada": 10243,
      "apan": 10244,
      "shap": 10245,
      "steps": 10246,
      "continue": 10247,
      "94": 10248,
      "langu": 10249,
      "coord": 10250,
      "subject": 10251,
      "lated": 10252,
      "Par": 10253,
      "recombinant": 10254,
      "cardiovascular": 10255,
      "oqu": 10256,
      "words": 10257,
      "detailed": 10258,
      "heterogene": 10259,
      "residents": 10260,
      "specimens": 10261,
      "www": 10262,
      "SV": 10263,
      "venous": 10264,
      "receiving": 10265,
      "Italy": 10266,
      "Corona": 10267,
      "eine": 10268,
      "incubation": 10269,
      "Such": 10270,
      "slight": 10271,
      "RV": 10272,
      "bronch": 10273,
      "ongoing": 10274,
      "avage": 10275,
      "resistant": 10276,
      "progno": 10277,
      "NK": 10278,
      "periph": 10279,
      "reci": 10280,
      "sts": 10281,
      "always": 10282,
      "tif": 10283,
      "simulation": 10284,
      "invasive": 10285,
      "typically": 10286,
      "professionals": 10287,
      "aerosol": 10288,
      "start": 10289,
      "mixed": 10290,
      "ET": 10291,
      "aggreg": 10292,
      "Japan": 10293,
      "cm": 10294,
      "ify": 10295,
      "Using": 10296,
      "emphas": 10297,
      "84": 10298,
      "diversity": 10299,
      "substr": 10300,
      "ember": 10301,
      "corti": 10302,
      "ray": 10303,
      "sid": 10304,
      "equal": 10305,
      "purpose": 10306,
      "share": 10307,
      "wave": 10308,
      "consequences": 10309,
      "81": 10310,
      "categories": 10311,
      "Cell": 10312,
      "experiences": 10313,
      "asked": 10314,
      "aired": 10315,
      "protease": 10316,
      "udo": 10317,
      "providers": 10318,
      "earlier": 10319,
      "Not": 10320,
      "manufacture": 10321,
      "transfec": 10322,
      "82": 10323,
      "showing": 10324,
      "introduced": 10325,
      "yond": 10326,
      "visits": 10327,
      "Indeed": 10328,
      "para": 10329,
      "demonstrate": 10330,
      "considering": 10331,
      "successful": 10332,
      "materials": 10333,
      "97": 10334,
      "comprehen": 10335,
      "valent": 10336,
      "adjusted": 10337,
      "zes": 10338,
      "leg": 10339,
      "Sur": 10340,
      "reverse": 10341,
      "innate": 10342,
      "Fr": 10343,
      "presentation": 10344,
      "center": 10345,
      "compris": 10346,
      "compare": 10347,
      "phal": 10348,
      "affinity": 10349,
      "true": 10350,
      "trust": 10351,
      "antigens": 10352,
      "sens": 10353,
      "coronaviruses": 10354,
      "inno": 10355,
      "intensity": 10356,
      "lt": 10357,
      "persons": 10358,
      "nodes": 10359,
      "Go": 10360,
      "ELISA": 10361,
      "conflic": 10362,
      "elements": 10363,
      "possi": 10364,
      "difficul": 10365,
      "created": 10366,
      "endothelial": 10367,
      "dysfunction": 10368,
      "86": 10369,
      "ns": 10370,
      "regulatory": 10371,
      "regulated": 10372,
      "GT": 10373,
      "muco": 10374,
      "squ": 10375,
      "devices": 10376,
      "represented": 10377,
      "stro": 10378,
      "breath": 10379,
      "IM": 10380,
      "Col": 10381,
      "cau": 10382,
      "supplement": 10383,
      "biom": 10384,
      "Africa": 10385,
      "India": 10386,
      "offer": 10387,
      "Min": 10388,
      "inclusion": 10389,
      "shared": 10390,
      "classified": 10391,
      "bone": 10392,
      "accoun": 10393,
      "plays": 10394,
      "June": 10395,
      "reactions": 10396,
      "NPs": 10397,
      "urine": 10398,
      "BL": 10399,
      "encies": 10400,
      "decl": 10401,
      "hypertension": 10402,
      "curve": 10403,
      "maintain": 10404,
      "visit": 10405,
      "87": 10406,
      "Ver": 10407,
      "polymerase": 10408,
      "doses": 10409,
      "big": 10410,
      "Qu": 10411,
      "professional": 10412,
      "ng": 10413,
      "atin": 10414,
      "war": 10415,
      "92": 10416,
      "frequent": 10417,
      "methodo": 10418,
      "organisms": 10419,
      "drople": 10420,
      "geal": 10421,
      "interfer": 10422,
      "enro": 10423,
      "receive": 10424,
      "nurses": 10425,
      "insigh": 10426,
      "Anti": 10427,
      "meta": 10428,
      "truct": 10429,
      "max": 10430,
      "acade": 10431,
      "devi": 10432,
      "somes": 10433,
      "PPE": 10434,
      "seudo": 10435,
      "elimin": 10436,
      "Net": 10437,
      "3D": 10438,
      "aryngeal": 10439,
      "going": 10440,
      "fu": 10441,
      "trend": 10442,
      "airway": 10443,
      "ito": 10444,
      "lihood": 10445,
      "93": 10446,
      "strand": 10447,
      "ventional": 10448,
      "chen": 10449,
      "poses": 10450,
      "changed": 10451,
      "Then": 10452,
      "acted": 10453,
      "keep": 10454,
      "extern": 10455,
      "SO": 10456,
      "alveolar": 10457,
      "observation": 10458,
      "sleep": 10459,
      "belong": 10460,
      "bly": 10461,
      "invest": 10462,
      "instruc": 10463,
      "neutralizing": 10464,
      "FA": 10465,
      "estern": 10466,
      "genomic": 10467,
      "parts": 10468,
      "reactive": 10469,
      "sustain": 10470,
      "solutions": 10471,
      "cognitive": 10472,
      "prolong": 10473,
      "manus": 10474,
      "observations": 10475,
      "institutions": 10476,
      "induction": 10477,
      "Cent": 10478,
      "lands": 10479,
      "selves": 10480,
      "restrictions": 10481,
      "describe": 10482,
      "apping": 10483,
      "Dise": 10484,
      "task": 10485,
      "diet": 10486,
      "quick": 10487,
      "HCV": 10488,
      "mittee": 10489,
      "completed": 10490,
      "fa": 10491,
      "parents": 10492,
      "aci": 10493,
      "2001": 10494,
      "isolates": 10495,
      "Gro": 10496,
      "Hy": 10497,
      "physicians": 10498,
      "aria": 10499,
      "PI": 10500,
      "norm": 10501,
      "regional": 10502,
      "recognized": 10503,
      "ician": 10504,
      "prescri": 10505,
      "error": 10506,
      "ocardi": 10507,
      "aimed": 10508,
      "sil": 10509,
      "spatial": 10510,
      "agon": 10511,
      "American": 10512,
      "explained": 10513,
      "particle": 10514,
      "smaller": 10515,
      "MT": 10516,
      "assist": 10517,
      "nic": 10518,
      "comorbidities": 10519,
      "ership": 10520,
      "seem": 10521,
      "behaviors": 10522,
      "scenario": 10523,
      "encour": 10524,
      "imer": 10525,
      "Hence": 10526,
      "building": 10527,
      "epidemiological": 10528,
      "angio": 10529,
      "91": 10530,
      "resolution": 10531,
      "elder": 10532,
      "eding": 10533,
      "facilitate": 10534,
      "clusion": 10535,
      "gastro": 10536,
      "ship": 10537,
      "gram": 10538,
      "hes": 10539,
      "predomin": 10540,
      "bl": 10541,
      "continued": 10542,
      "accurate": 10543,
      "December": 10544,
      "faces": 10545,
      "operation": 10546,
      "create": 10547,
      "Particip": 10548,
      "Germany": 10549,
      "started": 10550,
      "Zh": 10551,
      "oche": 10552,
      "constant": 10553,
      "exercise": 10554,
      "prov": 10555,
      "Pe": 10556,
      "chon": 10557,
      "trained": 10558,
      "expand": 10559,
      "tit": 10560,
      "crim": 10561,
      "techn": 10562,
      "gel": 10563,
      "job": 10564,
      "law": 10565,
      "deno": 10566,
      "remaining": 10567,
      "markers": 10568,
      "theory": 10569,
      "thal": 10570,
      "divided": 10571,
      "vertheless": 10572,
      "remained": 10573,
      "causing": 10574,
      "AI": 10575,
      "ices": 10576,
      "caus": 10577,
      "advantage": 10578,
      "metry": 10579,
      "clearly": 10580,
      "primarily": 10581,
      "instru": 10582,
      "science": 10583,
      "muscle": 10584,
      "your": 10585,
      "PC": 10586,
      "fort": 10587,
      "balance": 10588,
      "culation": 10589,
      "etal": 10590,
      "clonal": 10591,
      "circul": 10592,
      "profile": 10593,
      "gam": 10594,
      "Inter": 10595,
      "oquine": 10596,
      "ali": 10597,
      "virtual": 10598,
      "μg": 10599,
      "trum": 10600,
      "mostly": 10601,
      "periods": 10602,
      "nsp": 10603,
      "near": 10604,
      "cities": 10605,
      "removed": 10606,
      "manner": 10607,
      "arent": 10608,
      "preci": 10609,
      "flex": 10610,
      "industry": 10611,
      "Man": 10612,
      "examine": 10613,
      "Ther": 10614,
      "birth": 10615,
      "effectively": 10616,
      "ba": 10617,
      "itative": 10618,
      "except": 10619,
      "draw": 10620,
      "tour": 10621,
      "susceptibility": 10622,
      "memory": 10623,
      "Section": 10624,
      "ave": 10625,
      "sures": 10626,
      "mess": 10627,
      "neigh": 10628,
      "video": 10629,
      "decisions": 10630,
      "Stu": 10631,
      "peripheral": 10632,
      "involving": 10633,
      "comprehensive": 10634,
      "umab": 10635,
      "wel": 10636,
      "usive": 10637,
      "acerb": 10638,
      "placed": 10639,
      "ification": 10640,
      "ranging": 10641,
      "cover": 10642,
      "measurement": 10643,
      "cil": 10644,
      "remote": 10645,
      "impacts": 10646,
      "participant": 10647,
      "conventional": 10648,
      "Na": 10649,
      "bile": 10650,
      "acquired": 10651,
      "beyond": 10652,
      "attribu": 10653,
      "auf": 10654,
      "gue": 10655,
      "tations": 10656,
      "adequate": 10657,
      "strength": 10658,
      "coverage": 10659,
      "H1N1": 10660,
      "brid": 10661,
      "resource": 10662,
      "commercial": 10663,
      "LC": 10664,
      "explore": 10665,
      "pay": 10666,
      "HCW": 10667,
      "modeling": 10668,
      "track": 10669,
      "manuscript": 10670,
      "exacerb": 10671,
      "ono": 10672,
      "ische": 10673,
      "ema": 10674,
      "lets": 10675,
      "diverse": 10676,
      "NN": 10677,
      "latter": 10678,
      "minimum": 10679,
      "fü": 10680,
      "VA": 10681,
      "itself": 10682,
      "objective": 10683,
      "external": 10684,
      "equi": 10685,
      "olig": 10686,
      "vanced": 10687,
      "meaning": 10688,
      "antibiotics": 10689,
      "substantial": 10690,
      "emotional": 10691,
      "academic": 10692,
      "choice": 10693,
      "dium": 10694,
      "cultures": 10695,
      "bind": 10696,
      "protect": 10697,
      "plant": 10698,
      "camp": 10699,
      "typical": 10700,
      "ras": 10701,
      "rab": 10702,
      "La": 10703,
      "background": 10704,
      "connected": 10705,
      "whose": 10706,
      "My": 10707,
      "double": 10708,
      "false": 10709,
      "details": 10710,
      "recovered": 10711,
      "bic": 10712,
      "Stud": 10713,
      "actual": 10714,
      "lysis": 10715,
      "04": 10716,
      "ended": 10717,
      "BY": 10718,
      "absor": 10719,
      "antic": 10720,
      "evol": 10721,
[...]
