{
  "version": "1.0",
  "truncation": null,
  "padding": null,
  "added_tokens": [
    {
      "id": 0,
      "content": "[UNK]",
      "single_word": false,
      "lstrip": false,
      "rstrip": false,
      "normalized": false,
      "special": true
    },
    {
      "id": 1,
      "content": "[CLS]",
      "single_word": false,
      "lstrip": false,
      "rstrip": false,
      "normalized": false,
      "special": true
    },
    {
      "id": 2,
      "content": "[SEP]",
      "single_word": false,
      "lstrip": false,
      "rstrip": false,
      "normalized": false,
      "special": true
    },
    {
      "id": 3,
      "content": "[PAD]",
      "single_word": false,
      "lstrip": false,
      "rstrip": false,
      "normalized": false,
      "special": true
    },
    {
      "id": 4,
      "content": "[MASK]",
      "single_word": false,
      "lstrip": false,
      "rstrip": false,
      "normalized": false,
      "special": true
    }
  ],
  "normalizer": null,
  "pre_tokenizer": {
    "type": "Whitespace"
  },
  "post_processor": null,
  "decoder": null,
  "model": {
    "type": "BPE",
    "dropout": null,
    "unk_token": "[UNK]",
    "continuing_subword_prefix": null,
    "end_of_word_suffix": null,
    "fuse_unk": false,
    "vocab": {
      "[UNK]": 0,
      "[CLS]": 1,
      "[SEP]": 2,
      "[PAD]": 3,
      "[MASK]": 4,
      "'": 5,
      "-": 6,
      "0": 7,
      "1": 8,
      "2": 9,
      "3": 10,
      "4": 11,
      "5": 12,
      "6": 13,
      "7": 14,
      "8": 15,
      "9": 16,
      "_": 17,
      "a": 18,
      "b": 19,
      "c": 20,
      "d": 21,
      "e": 22,
      "f": 23,
      "g": 24,
      "h": 25,
      "i": 26,
      "j": 27,
      "k": 28,
      "l": 29,
      "m": 30,
      "n": 31,
      "o": 32,
      "p": 33,
      "q": 34,
      "r": 35,
      "s": 36,
      "t": 37,
      "u": 38,
      "v": 39,
      "w": 40,
      "x": 41,
      "y": 42,
      "z": 43,
      "ª": 44,
      "²": 45,
      "³": 46,
      "µ": 47,
      "¹": 48,
      "º": 49,
      "¼": 50,
      "½": 51,
      "¾": 52,
      "ß": 53,
      "à": 54,
      "á": 55,
      "â": 56,
      "ã": 57,
      "ä": 58,
      "å": 59,
      "æ": 60,
      "ç": 61,
      "è": 62,
      "é": 63,
      "ê": 64,
      "ë": 65,
      "ì": 66,
      "í": 67,
      "î": 68,
      "ï": 69,
      "ð": 70,
      "ñ": 71,
      "ò": 72,
      "ó": 73,
      "ô": 74,
      "õ": 75,
      "ö": 76,
      "ø": 77,
      "ù": 78,
      "ú": 79,
      "û": 80,
      "ü": 81,
      "ý": 82,
      "þ": 83,
      "ÿ": 84,
      "ā": 85,
      "ă": 86,
      "ą": 87,
      "ć": 88,
      "ĉ": 89,
      "ċ": 90,
      "č": 91,
      "ď": 92,
      "đ": 93,
      "ē": 94,
      "ĕ": 95,
      "ė": 96,
      "ę": 97,
      "ě": 98,
      "ĝ": 99,
      "ğ": 100,
      "ġ": 101,
      "ĥ": 102,
      "ħ": 103,
      "ĩ": 104,
      "ī": 105,
      "ĭ": 106,
      "į": 107,
      "ı": 108,
      "ĳ": 109,
      "ĵ": 110,
      "ķ": 111,
      "ĸ": 112,
      "ĺ": 113,
      "ļ": 114,
      "ľ": 115,
      "ł": 116,
      "ń": 117,
      "ņ": 118,
      "ň": 119,
      "ŉ": 120,
      "ŋ": 121,
      "ō": 122,
      "ŏ": 123,
      "ő": 124,
      "œ": 125,
      "ŕ": 126,
      "ŗ": 127,
      "ř": 128,
      "ś": 129,
      "ŝ": 130,
      "ş": 131,
      "š": 132,
      "ţ": 133,
      "ť": 134,
      "ŧ": 135,
      "ũ": 136,
      "ū": 137,
      "ŭ": 138,
      "ů": 139,
      "ű": 140,
      "ų": 141,
      "ŵ": 142,
      "ŷ": 143,
      "ź": 144,
      "ż": 145,
      "ž": 146,
      "ſ": 147,
      "ƃ": 148,
      "ƌ": 149,
      "ƍ": 150,
      "ƒ": 151,
      "ƙ": 152,
      "ƚ": 153,
      "ƛ": 154,
      "ƞ": 155,
      "ơ": 156,
      "ƣ": 157,
      "ƪ": 158,
      "ƫ": 159,
      "ƭ": 160,
      "ư": 161,
      "ƴ": 162,
      "ƶ": 163,
      "ƹ": 164,
      "ƺ": 165,
      "ǀ": 166,
      "ǁ": 167,
      "ǂ": 168,
      "ǃ": 169,
      "ǆ": 170,
      "ǉ": 171,
      "ǌ": 172,
      "ǎ": 173,
      "ǐ": 174,
      "ǒ": 175,
      "ǔ": 176,
      "ǖ": 177,
      "ǚ": 178,
      "ǝ": 179,
      "ǟ": 180,
      "ǡ": 181,
      "ǣ": 182,
      "ǥ": 183,
      "ǧ": 184,
      "ǩ": 185,
      "ǫ": 186,
      "ǭ": 187,
      "ǳ": 188,
      "ǵ": 189,
      "ǹ": 190,
      "ǻ": 191,
      "ǽ": 192,
      "ǿ": 193,
      "ȁ": 194,
      "ȃ": 195,
      "ȅ": 196,
      "ȇ": 197,
      "ȉ": 198,
      "ȋ": 199,
      "ȍ": 200,
      "ȏ": 201,
      "ȑ": 202,
      "ȓ": 203,
      "ȕ": 204,
      "ȗ": 205,
      "ș": 206,
      "ț": 207,
      "ȝ": 208,
      "ȟ": 209,
      "ȣ": 210,
      "ȥ": 211,
      "ȧ": 212,
      "ȩ": 213,
      "ȫ": 214,
      "ȯ": 215,
      "ȳ": 216,
      "ȷ": 217,
      "ȹ": 218,
      "ȼ": 219,
      "ɀ": 220,
      "ɇ": 221,
      "ɐ": 222,
      "ɑ": 223,
      "ɒ": 224,
      "ɓ": 225,
      "ɔ": 226,
      "ɖ": 227,
      "ɗ": 228,
      "ə": 229,
      "ɛ": 230,
      "ɜ": 231,
      "ɝ": 232,
      "ɡ": 233,
      "ɣ": 234,
      "ɤ": 235,
      "ɥ": 236,
      "ɦ": 237,
      "ɨ": 238,
      "ɩ": 239,
      "ɪ": 240,
      "ɫ": 241,
      "ɬ": 242,
      "ɯ": 243,
      "ɱ": 244,
      "ɲ": 245,
      "ɳ": 246,
      "ɴ": 247,
      "ɵ": 248,
      "ɷ": 249,
      "ɸ": 250,
      "ɹ": 251,
      "ɽ": 252,
      "ɾ": 253,
      "ʀ": 254,
      "ʂ": 255,
      "ʃ": 256,
      "ʇ": 257,
      "ʈ": 258,
      "ʊ": 259,
      "ʋ": 260,
      "ʌ": 261,
      "ʎ": 262,
      "ʒ": 263,
      "ʘ": 264,
      "ʟ": 265,
      "ʦ": 266,
      "ʧ": 267,
      "ʰ": 268,
      "ʷ": 269,
      "ʹ": 270,
      "ʺ": 271,
      "ʻ": 272,
      "ʼ": 273,
      "ʽ": 274,
      "ʾ": 275,
      "ʿ": 276,
      "ˆ": 277,
      "ˇ": 278,
      "ˈ": 279,
      "ˉ": 280,
      "ˊ": 281,
      "ˋ": 282,
      "ː": 283,
      "ˑ": 284,
      "ˠ": 285,
      "ˣ": 286,
      "ˮ": 287,
      "ͱ": 288,
      "ͳ": 289,
      "ʹ": 290,
      "ͻ": 291,
      "ͼ": 292,
      "ΐ": 293,
      "ά": 294,
      "έ": 295,
      "ή": 296,
      "ί": 297,
      "ΰ": 298,
      "α": 299,
      "β": 300,
      "γ": 301,
      "δ": 302,
      "ε": 303,
      "ζ": 304,
      "η": 305,
      "θ": 306,
      "ι": 307,
      "κ": 308,
      "λ": 309,
      "μ": 310,
      "ν": 311,
      "ξ": 312,
      "ο": 313,
      "π": 314,
      "ρ": 315,
      "ς": 316,
      "σ": 317,
      "τ": 318,
      "υ": 319,
      "φ": 320,
      "χ": 321,
      "ψ": 322,
      "ω": 323,
      "ϊ": 324,
      "ϋ": 325,
      "ό": 326,
      "ύ": 327,
      "ώ": 328,
      "ϐ": 329,
      "ϑ": 330,
      "ϒ": 331,
      "ϓ": 332,
      "ϕ": 333,
      "ϖ": 334,
      "ϗ": 335,
      "ϙ": 336,
      "ϛ": 337,
      "ϝ": 338,
      "ϟ": 339,
      "ϡ": 340,
      "ϩ": 341,
      "ϫ": 342,
      "ϭ": 343,
      "ϯ": 344,
      "ϰ": 345,
      "ϱ": 346,
      "ϲ": 347,
      "ϳ": 348,
      "ϵ": 349,
      "ϸ": 350,
      "ϻ": 351,
      "ϼ": 352,
      "а": 353,
      "б": 354,
      "в": 355,
      "г": 356,
      "д": 357,
      "е": 358,
      "ж": 359,
      "з": 360,
      "и": 361,
      "й": 362,
      "к": 363,
      "л": 364,
      "м": 365,
      "н": 366,
      "о": 367,
      "п": 368,
      "р": 369,
      "с": 370,
      "т": 371,
      "у": 372,
      "ф": 373,
      "х": 374,
      "ц": 375,
      "ч": 376,
      "ш": 377,
      "щ": 378,
      "ъ": 379,
      "ы": 380,
      "ь": 381,
      "э": 382,
      "ю": 383,
      "я": 384,
      "ѐ": 385,
      "ё": 386,
      "ђ": 387,
      "ѓ": 388,
      "є": 389,
      "ѕ": 390,
      "і": 391,
      "ї": 392,
      "ј": 393,
      "љ": 394,
      "њ": 395,
      "ћ": 396,
      "ќ": 397,
      "ў": 398,
      "џ": 399,
      "ѡ": 400,
      "ѣ": 401,
      "ѧ": 402,
      "ѩ": 403,
      "ѫ": 404,
      "ѭ": 405,
      "ѱ": 406,
      "ѳ": 407,
      "ѵ": 408,
      "ґ": 409,
      "ғ": 410,
      "җ": 411,
      "қ": 412,
      "ҝ": 413,
      "ҟ": 414,
      "ҡ": 415,
      "ң": 416,
      "ҫ": 417,
      "ү": 418,
      "ұ": 419,
      "ӎ": 420,
      "ӏ": 421,
      "ӑ": 422,
      "ӓ": 423,
      "ӕ": 424,
      "ӗ": 425,
      "ә": 426,
      "ӧ": 427,
      "ө": 428,
      "ԅ": 429,
      "ԏ": 430,
      "ԑ": 431,
      "ԛ": 432,
      "ԣ": 433,
      "ԧ": 434,
      "ԩ": 435,
      "լ": 436,
      "խ": 437,
      "հ": 438,
      "ղ": 439,
      "յ": 440,
      "ն": 441,
      "շ": 442,
      "ո": 443,
      "ս": 444,
      "տ": 445,
      "ր": 446,
      "ց": 447,
      "ւ": 448,
      "փ": 449,
      "օ": 450,
      "א": 451,
      "ב": 452,
      "ג": 453,
      "ד": 454,
      "ה": 455,
      "ו": 456,
      "ז": 457,
      "ח": 458,
      "ט": 459,
      "י": 460,
      "כ": 461,
      "ל": 462,
      "ם": 463,
      "מ": 464,
      "ן": 465,
      "נ": 466,
      "ס": 467,
      "ע": 468,
      "פ": 469,
      "ק": 470,
      "ר": 471,
      "ש": 472,
      "ת": 473,
      "ؠ": 474,
      "ء": 475,
      "آ": 476,
      "أ": 477,
      "ؤ": 478,
      "إ": 479,
      "ئ": 480,
      "ا": 481,
      "ب": 482,
      "ة": 483,
      "ت": 484,
      "ث": 485,
      "ج": 486,
      "ح": 487,
      "خ": 488,
      "د": 489,
      "ذ": 490,
      "ر": 491,
      "ز": 492,
      "س": 493,
      "ش": 494,
      "ص": 495,
      "ض": 496,
      "ط": 497,
      "ظ": 498,
      "ع": 499,
      "غ": 500,
      "ـ": 501,
      "ف": 502,
      "ق": 503,
      "ك": 504,
      "ل": 505,
      "م": 506,
      "ن": 507,
      "ه": 508,
      "و": 509,
      "ى": 510,
      "ي": 511,
      "٠": 512,
      "١": 513,
      "٢": 514,
      "٣": 515,
      "٤": 516,
      "٥": 517,
      "٦": 518,
      "٧": 519,
      "٨": 520,
      "٩": 521,
      "ٴ": 522,
      "ٹ": 523,
      "پ": 524,
      "چ": 525,
      "ڑ": 526,
      "ژ": 527,
      "ڤ": 528,
      "ک": 529,
      "گ": 530,
      "ں": 531,
      "ڻ": 532,
      "ھ": 533,
      "ہ": 534,
      "ۇ": 535,
      "ۋ": 536,
      "ی": 537,
      "ے": 538,
      "ۓ": 539,
      "ە": 540,
      "ۥ": 541,
      "۰": 542,
      "۱": 543,
      "۳": 544,
      "۴": 545,
      "ܓ": 546,
      "ܔ": 547,
      "ܕ": 548,
      "ܖ": 549,
      "ܘ": 550,
      "ܚ": 551,
      "ܜ": 552,
      "ܢ": 553,
      "ܣ": 554,
      "ܤ": 555,
      "ܥ": 556,
      "ܦ": 557,
      "ܧ": 558,
      "ܨ": 559,
      "ܩ": 560,
      "ܪ": 561,
      "ܫ": 562,
      "ܬ": 563,
      "ܭ": 564,
      "ܮ": 565,
      "ܯ": 566,
      "ݍ": 567,
      "ݎ": 568,
      "ݏ": 569,
      "ݐ": 570,
      "ݑ": 571,
      "ݒ": 572,
      "ݓ": 573,
      "ݔ": 574,
      "ݕ": 575,
      "ݖ": 576,
      "߂": 577,
      "߉": 578,
      "ߓ": 579,
      "ߔ": 580,
      "ߙ": 581,
      "ߚ": 582,
      "ߛ": 583,
      "ߜ": 584,
      "ߝ": 585,
      "ߟ": 586,
      "ߠ": 587,
      "ߢ": 588,
      "ߣ": 589,
      "ߤ": 590,
      "ߥ": 591,
      "ߦ": 592,
      "ߨ": 593,
      "ߩ": 594,
      "ߪ": 595,
      "ࡔ": 596,
      "ࡗ": 597,
      "ࢣ": 598,
      "ࢨ": 599,
      "ࢩ": 600,
      "ࢻ": 601,
      "ࢽ": 602,
      "अ": 603,
      "आ": 604,
      "इ": 605,
      "ई": 606,
      "उ": 607,
      "ऊ": 608,
      "ऋ": 609,
      "ऌ": 610,
      "ए": 611,
      "ऐ": 612,
      "ओ": 613,
      "औ": 614,
      "क": 615,
      "ख": 616,
      "ग": 617,
      "घ": 618,
      "ङ": 619,
      "च": 620,
      "छ": 621,
      "ज": 622,
      "झ": 623,
      "ञ": 624,
      "ठ": 625,
      "ड": 626,
      "ढ": 627,
      "ण": 628,
      "त": 629,
      "थ": 630,
      "द": 631,
      "ध": 632,
      "न": 633,
      "प": 634,
      "फ": 635,
      "भ": 636,
      "म": 637,
      "य": 638,
      "र": 639,
      "ऴ": 640,
      "व": 641,
      "ष": 642,
      "स": 643,
      "ह": 644,
      "ज़": 645,
      "य़": 646,
      "०": 647,
      "१": 648,
      "२": 649,
      "९": 650,
      "ই": 651,
      "উ": 652,
      "ক": 653,
      "ঘ": 654,
      "ট": 655,
      "ড": 656,
      "দ": 657,
      "ন": 658,
      "প": 659,
      "ব": 660,
      "ভ": 661,
      "ম": 662,
      "য": 663,
      "র": 664,
      "ল": 665,
      "শ": 666,
      "স": 667,
      "১": 668,
      "৯": 669,
      "અ": 670,
      "આ": 671,
      "એ": 672,
      "ક": 673,
      "ચ": 674,
      "ડ": 675,
      "ઢ": 676,
      "ણ": 677,
      "ત": 678,
      "થ": 679,
      "ધ": 680,
      "ન": 681,
      "પ": 682,
      "બ": 683,
      "મ": 684,
      "ર": 685,
      "લ": 686,
      "વ": 687,
      "શ": 688,
      "હ": 689,
      "ઽ": 690,
      "ૡ": 691,
      "ଙ": 692,
      "ଝ": 693,
      "ଵ": 694,
      "ଶ": 695,
      "ଷ": 696,
      "ସ": 697,
      "ହ": 698,
      "ଽ": 699,
      "ୟ": 700,
      "ୠ": 701,
      "ୡ": 702,
      "୧": 703,
      "୨": 704,
      "୩": 705,
      "୪": 706,
      "୫": 707,
      "୬": 708,
      "୭": 709,
      "୮": 710,
      "ୱ": 711,
      "୲": 712,
      "୳": 713,
      "୴": 714,
      "୵": 715,
      "୶": 716,
      "୷": 717,
      "ழ": 718,
      "வ": 719,
      "ஶ": 720,
      "ஷ": 721,
      "ஸ": 722,
      "ௐ": 723,
      "௦": 724,
      "௧": 725,
      "௨": 726,
      "௩": 727,
      "௫": 728,
      "௬": 729,
      "௭": 730,
      "ఉ": 731,
      "ఊ": 732,
      "ఏ": 733,
      "ఔ": 734,
      "ఙ": 735,
      "ఛ": 736,
      "ఝ": 737,
      "ప": 738,
      "బ": 739,
      "భ": 740,
      "మ": 741,
      "య": 742,
      "ర": 743,
      "ఱ": 744,
      "ಅ": 745,
      "ಆ": 746,
      "ಕ": 747,
      "ತ": 748,
      "ದ": 749,
      "ನ": 750,
      "ಮ": 751,
      "ಯ": 752,
      "ರ": 753,
      "ವ": 754,
      "ಹ": 755,
      "ೡ": 756,
      "ഛ": 757,
      "ജ": 758,
      "ഠ": 759,
      "ഡ": 760,
      "ത": 761,
      "ഥ": 762,
      "ഫ": 763,
      "ശ": 764,
      "ൎ": 765,
      "൛": 766,
      "ൟ": 767,
      "൨": 768,
      "൫": 769,
      "൬": 770,
      "൯": 771,
      "൰": 772,
      "ඈ": 773,
      "ක": 774,
      "ඥ": 775,
      "ට": 776,
      "ණ": 777,
      "ද": 778,
      "බ": 779,
      "ය": 780,
      "ර": 781,
      "ල": 782,
      "ව": 783,
      "෩": 784,
      "ก": 785,
      "ข": 786,
      "ค": 787,
      "ง": 788,
      "จ": 789,
      "ฉ": 790,
      "ช": 791,
      "ซ": 792,
      "ญ": 793,
      "ฐ": 794,
      "ณ": 795,
      "ด": 796,
      "ต": 797,
      "ท": 798,
      "ธ": 799,
      "น": 800,
      "บ": 801,
      "ป": 802,
      "ผ": 803,
      "พ": 804,
      "ม": 805,
      "ย": 806,
      "ร": 807,
      "ล": 808,
      "ว": 809,
      "ศ": 810,
      "ษ": 811,
      "ส": 812,
      "ห": 813,
      "อ": 814,
      "ะ": 815,
      "า": 816,
      "ำ": 817,
      "เ": 818,
      "แ": 819,
      "โ": 820,
      "ใ": 821,
      "ไ": 822,
      "๐": 823,
      "མ": 824,
      "ཞ": 825,
      "ᄀ": 826,
      "ᄂ": 827,
      "ᄃ": 828,
      "ᄅ": 829,
      "ᄇ": 830,
      "ᄉ": 831,
      "ᄋ": 832,
      "ᄌ": 833,
      "ᅡ": 834,
      "ᅥ": 835,
      "ᅦ": 836,
      "ᅧ": 837,
      "ᅩ": 838,
      "ᅭ": 839,
      "ᅮ": 840,
      "ᅳ": 841,
      "ᅴ": 842,
      "ᆫ": 843,
      "ᆷ": 844,
      "ᆼ": 845,
      "ᇱ": 846,
      "ᇲ": 847,
      "መ": 848,
      "ሬ": 849,
      "ሶ": 850,
      "ሺ": 851,
      "ሻ": 852,
      "ሼ": 853,
      "ሽ": 854,
      "ሾ": 855,
      "ሿ": 856,
      "ቀ": 857,
      "ቁ": 858,
      "ቄ": 859,
      "ቅ": 860,
      "ቊ": 861,
      "ቐ": 862,
      "ቢ": 863,
      "ᎏ": 864,
      "ᐉ": 865,
      "ᐤ": 866,
      "ᐧ": 867,
      "ᑬ": 868,
      "ᴅ": 869,
      "ᴋ": 870,
      "ᴍ": 871,
      "ᴦ": 872,
      "ᴧ": 873,
      "ᴨ": 874,
      "ᴩ": 875,
      "ᴪ": 876,
      "ᴫ": 877,
      "ᴹ": 878,
      "ᴼ": 879,
      "ᵀ": 880,
      "ᵃ": 881,
      "ᵄ": 882,
      "ᵅ": 883,
      "ᵆ": 884,
      "ᵇ": 885,
      "ᵈ": 886,
      "ᵊ": 887,
      "ᵋ": 888,
      "ᵌ": 889,
      "ᵍ": 890,
      "ᵏ": 891,
      "ᵐ": 892,
      "ᵒ": 893,
      "ᵓ": 894,
      "ᵔ": 895,
      "ᵖ": 896,
      "ᵚ": 897,
      "ᵛ": 898,
      "ᵞ": 899,
      "ᵠ": 900,
      "ᵡ": 901,
      "ᵢ": 902,
      "ᵦ": 903,
      "ᵧ": 904,
      "ᵩ": 905,
      "ᵫ": 906,
      "ᵬ": 907,
      "ᵰ": 908,
      "ᵲ": 909,
      "ᵳ": 910,
      "ᵵ": 911,
      "ᵶ": 912,
      "ᵷ": 913,
      "ᵸ": 914,
      "ᵹ": 915,
      "ᵽ": 916,
      "ᶞ": 917,
      "ᶧ": 918,
      "ᶲ": 919,
      "ḃ": 920,
      "ḉ": 921,
      "ḋ": 922,
      "ḍ": 923,
      "ḏ": 924,
      "ḑ": 925,
      "ḗ": 926,
      "ḟ": 927,
      "ḡ": 928,
      "ḣ": 929,
      "ḥ": 930,
      "ḧ": 931,
      "ḱ": 932,
      "ḵ": 933,
      "ḷ": 934,
      "ḽ": 935,
      "ḿ": 936,
      "ṁ": 937,
      "ṃ": 938,
      "ṅ": 939,
      "ṇ": 940,
      "ṉ": 941,
      "ṍ": 942,
      "ṏ": 943,
      "ṕ": 944,
      "ṗ": 945,
      "ṙ": 946,
      "ṛ": 947,
      "ṟ": 948,
      "ṡ": 949,
      "ṣ": 950,
      "ṧ": 951,
      "ṩ": 952,
      "ṫ": 953,
      "ṭ": 954,
      "ṯ": 955,
      "ṽ": 956,
      "ẁ": 957,
      "ẃ": 958,
      "ẅ": 959,
      "ẇ": 960,
      "ẋ": 961,
      "ẍ": 962,
      "ẏ": 963,
      "ẑ": 964,
      "ẓ": 965,
      "ẗ": 966,
      "ẘ": 967,
      "ẙ": 968,
      "ẚ": 969,
      "ẟ": 970,
      "ạ": 971,
      "ả": 972,
      "ấ": 973,
      "ầ": 974,
      "ẩ": 975,
      "ẫ": 976,
      "ậ": 977,
      "ắ": 978,
      "ằ": 979,
      "ẵ": 980,
      "ặ": 981,
      "ẹ": 982,
      "ẻ": 983,
      "ẽ": 984,
      "ế": 985,
      "ề": 986,
      "ể": 987,
      "ễ": 988,
      "ệ": 989,
      "ỉ": 990,
      "ị": 991,
      "ọ": 992,
      "ỏ": 993,
      "ố": 994,
      "ồ": 995,
      "ổ": 996,
      "ỗ": 997,
      "ộ": 998,
      "ớ": 999,
      "ờ": 1000,
      "ở": 1001,
      "ợ": 1002,
      "ụ": 1003,
      "ủ": 1004,
      "ứ": 1005,
      "ừ": 1006,
      "ử": 1007,
      "ữ": 1008,
      "ự": 1009,
      "ỳ": 1010,
      "ỷ": 1011,
      "ỹ": 1012,
      "ἀ": 1013,
      "ἁ": 1014,
      "ἄ": 1015,
      "ἐ": 1016,
      "ἑ": 1017,
      "ἔ": 1018,
      "ἠ": 1019,
      "ἡ": 1020,
      "ἢ": 1021,
      "ἦ": 1022,
      "ἰ": 1023,
      "ἶ": 1024,
      "ἷ": 1025,
      "ὀ": 1026,
      "ὁ": 1027,
      "ὂ": 1028,
      "ὃ": 1029,
      "ὅ": 1030,
      "ὐ": 1031,
      "ὠ": 1032,
      "ὰ": 1033,
      "ά": 1034,
      "ὲ": 1035,
      "έ": 1036,
      "ὴ": 1037,
      "ή": 1038,
      "ὶ": 1039,
      "ί": 1040,
      "ὸ": 1041,
      "ό": 1042,
      "ὺ": 1043,
      "ύ": 1044,
      "ὼ": 1045,
      "ώ": 1046,
      "ᾐ": 1047,
      "ᾰ": 1048,
      "ᾱ": 1049,
      "ᾳ": 1050,
      "ᾶ": 1051,
      "ῂ": 1052,
      "ῆ": 1053,
      "ῑ": 1054,
      "ῖ": 1055,
      "ῡ": 1056,
      "ῥ": 1057,
      "ῦ": 1058,
      "ῳ": 1059,
      "ῶ": 1060,
      "ῷ": 1061,
      "⁰": 1062,
      "⁴": 1063,
      "⁵": 1064,
      "⁶": 1065,
      "⁷": 1066,
      "⁸": 1067,
      "⁹": 1068,
      "ⁿ": 1069,
      "₀": 1070,
      "₁": 1071,
      "₂": 1072,
      "₃": 1073,
      "₄": 1074,
      "₅": 1075,
      "₆": 1076,
      "₇": 1077,
      "₈": 1078,
      "₉": 1079,
      "ₒ": 1080,
      "ₛ": 1081,
      "ₜ": 1082,
      "ℂ": 1083,
      "ℇ": 1084,
      "ℊ": 1085,
      "ℋ": 1086,
      "ℌ": 1087,
      "ℍ": 1088,
      "ℎ": 1089,
      "ℏ": 1090,
      "ℐ": 1091,
      "ℑ": 1092,
      "ℒ": 1093,
      "ℓ": 1094,
      "ℕ": 1095,
      "ℙ": 1096,
      "ℚ": 1097,
      "ℛ": 1098,
      "ℜ": 1099,
      "ℝ": 1100,
      "ℤ": 1101,
      "ℬ": 1102,
      "ℭ": 1103,
      "ℯ": 1104,
      "ℰ": 1105,
      "ℱ": 1106,
      "ℳ": 1107,
      "ℴ": 1108,
      "ℵ": 1109,
      "ℶ": 1110,
      "ℷ": 1111,
      "ℸ": 1112,
      "ℽ": 1113,
      "ⅆ": 1114,
      "ⅇ": 1115,
      "ⅈ": 1116,
      "ⅉ": 1117,
      "ⅎ": 1118,
      "⅐": 1119,
      "⅓": 1120,
      "⅔": 1121,
      "⅕": 1122,
      "⅖": 1123,
      "⅗": 1124,
      "⅘": 1125,
      "⅙": 1126,
      "⅛": 1127,
      "⅜": 1128,
      "⅝": 1129,
      "⅞": 1130,
      "ⅰ": 1131,
      "ⅱ": 1132,
      "ⅲ": 1133,
      "ⅳ": 1134,
      "ⅴ": 1135,
      "ⅵ": 1136,
      "ⅶ": 1137,
      "ⅷ": 1138,
      "ⅸ": 1139,
      "ⅹ": 1140,
      "ⅺ": 1141,
      "ⅻ": 1142,
      "ↆ": 1143,
      "①": 1144,
      "②": 1145,
      "③": 1146,
      "④": 1147,
      "⑤": 1148,
      "⑥": 1149,
      "⑦": 1150,
      "⑧": 1151,
      "⑨": 1152,
      "⑩": 1153,
      "⑪": 1154,
      "⑫": 1155,
      "⑬": 1156,
      "⑭": 1157,
      "⑮": 1158,
      "⑴": 1159,
      "⑵": 1160,
      "⑶": 1161,
      "⑷": 1162,
      "❶": 1163,
      "❷": 1164,
      "❸": 1165,
      "❹": 1166,
      "❺": 1167,
      "❻": 1168,
      "❼": 1169,
      "❽": 1170,
      "❾": 1171,
      "➀": 1172,
      "➁": 1173,
      "➂": 1174,
      "➃": 1175,
      "➄": 1176,
      "➅": 1177,
      "➆": 1178,
      "➇": 1179,
      "➈": 1180,
      "➉": 1181,
      "➊": 1182,
      "➋": 1183,
      "➌": 1184,
      "➍": 1185,
      "➎": 1186,
      "➏": 1187,
      "➐": 1188,
      "➑": 1189,
      "➒": 1190,
      "➓": 1191,
      "ⱡ": 1192,
      "ⱦ": 1193,
      "ⱱ": 1194,
      "ⱼ": 1195,
      "ⲅ": 1196,
      "ⴍ": 1197,
      "々": 1198,
      "〆": 1199,
      "〇": 1200,
      "あ": 1201,
      "い": 1202,
      "う": 1203,
      "え": 1204,
      "お": 1205,
      "か": 1206,
      "が": 1207,
      "き": 1208,
      "ぎ": 1209,
      "く": 1210,
      "ぐ": 1211,
      "け": 1212,
      "げ": 1213,
      "こ": 1214,
      "ご": 1215,
      "さ": 1216,
      "ざ": 1217,
      "し": 1218,
      "じ": 1219,
      "す": 1220,
      "ず": 1221,
      "せ": 1222,
      "そ": 1223,
      "ぞ": 1224,
      "た": 1225,
      "だ": 1226,
      "ち": 1227,
      "っ": 1228,
      "つ": 1229,
      "づ": 1230,
      "て": 1231,
      "で": 1232,
      "と": 1233,
      "ど": 1234,
      "な": 1235,
      "に": 1236,
      "ぬ": 1237,
      "ね": 1238,
      "の": 1239,
      "は": 1240,
      "ば": 1241,
      "び": 1242,
      "ぴ": 1243,
      "ぶ": 1244,
      "ぷ": 1245,
      "へ": 1246,
      "べ": 1247,
      "ほ": 1248,
      "ま": 1249,
      "み": 1250,
      "む": 1251,
      "め": 1252,
      "も": 1253,
      "ゃ": 1254,
      "や": 1255,
      "ゅ": 1256,
      "ゆ": 1257,
      "ょ": 1258,
      "よ": 1259,
      "ら": 1260,
      "り": 1261,
      "る": 1262,
      "れ": 1263,
      "ろ": 1264,
      "わ": 1265,
      "を": 1266,
      "ん": 1267,
      "ァ": 1268,
      "ア": 1269,
      "ィ": 1270,
      "イ": 1271,
      "ウ": 1272,
      "ェ": 1273,
      "エ": 1274,
      "ォ": 1275,
      "オ": 1276,
      "カ": 1277,
      "ガ": 1278,
      "キ": 1279,
      "ギ": 1280,
      "ク": 1281,
      "グ": 1282,
      "ケ": 1283,
      "ゲ": 1284,
      "コ": 1285,
      "ゴ": 1286,
      "サ": 1287,
      "ザ": 1288,
      "シ": 1289,
      "ジ": 1290,
      "ス": 1291,
      "ズ": 1292,
      "セ": 1293,
      "ゼ": 1294,
      "ソ": 1295,
      "ゾ": 1296,
      "タ": 1297,
      "ダ": 1298,
      "チ": 1299,
      "ッ": 1300,
      "ツ": 1301,
      "テ": 1302,
      "デ": 1303,
      "ト": 1304,
      "ド": 1305,
      "ナ": 1306,
      "ニ": 1307,
      "ネ": 1308,
      "ノ": 1309,
      "ハ": 1310,
      "バ": 1311,
      "パ": 1312,
      "ヒ": 1313,
      "ビ": 1314,
      "ピ": 1315,
      "フ": 1316,
      "ブ": 1317,
      "プ": 1318,
      "ヘ": 1319,
      "ベ": 1320,
      "ペ": 1321,
      "ホ": 1322,
      "ボ": 1323,
      "ポ": 1324,
      "マ": 1325,
      "ミ": 1326,
      "ム": 1327,
      "メ": 1328,
      "モ": 1329,
      "ャ": 1330,
      "ュ": 1331,
      "ユ": 1332,
      "ョ": 1333,
      "ヨ": 1334,
      "ラ": 1335,
      "リ": 1336,
      "ル": 1337,
      "レ": 1338,
      "ロ": 1339,
      "ワ": 1340,
      "ン": 1341,
      "ヴ": 1342,
      "ー": 1343,
      "ㆍ": 1344,
      "㊀": 1345,
      "一": 1346,
      "丁": 1347,
      "七": 1348,
      "万": 1349,
      "三": 1350,
      "上": 1351,
      "下": 1352,
      "不": 1353,
      "与": 1354,
      "专": 1355,
      "且": 1356,
      "世": 1357,
      "丘": 1358,
      "丙": 1359,
      "业": 1360,
      "东": 1361,
      "丟": 1362,
      "両": 1363,
      "丢": 1364,
      "两": 1365,
      "严": 1366,
      "並": 1367,
      "丧": 1368,
      "个": 1369,
      "中": 1370,
      "丰": 1371,
      "串": 1372,
      "临": 1373,
      "丸": 1374,
      "丹": 1375,
      "为": 1376,
      "主": 1377,
      "丽": 1378,
      "举": 1379,
      "乃": 1380,
      "乄": 1381,
      "久": 1382,
      "么": 1383,
      "义": 1384,
      "之": 1385,
      "乌": 1386,
      "乎": 1387,
      "乏": 1388,
      "乐": 1389,
      "乖": 1390,
      "乗": 1391,
      "乘": 1392,
      "乙": 1393,
      "九": 1394,
      "也": 1395,
      "习": 1396,
      "乡": 1397,
      "书": 1398,
      "买": 1399,
      "乱": 1400,
      "乳": 1401,
      "乾": 1402,
      "了": 1403,
      "予": 1404,
      "争": 1405,
      "事": 1406,
      "二": 1407,
      "于": 1408,
      "亏": 1409,
      "云": 1410,
      "互": 1411,
      "五": 1412,
      "井": 1413,
      "亚": 1414,
      "些": 1415,
      "亟": 1416,
      "亡": 1417,
      "亢": 1418,
      "交": 1419,
      "亥": 1420,
      "亦": 1421,
      "产": 1422,
      "享": 1423,
      "京": 1424,
      "亮": 1425,
      "亲": 1426,
      "人": 1427,
      "亿": 1428,
      "什": 1429,
      "仁": 1430,
      "仅": 1431,
      "今": 1432,
      "介": 1433,
      "仍": 1434,
      "从": 1435,
      "仓": 1436,
      "仔": 1437,
      "仕": 1438,
      "他": 1439,
      "仗": 1440,
      "付": 1441,
      "仙": 1442,
      "代": 1443,
      "令": 1444,
      "以": 1445,
      "仪": 1446,
      "们": 1447,
      "仮": 1448,
      "仰": 1449,
      "仲": 1450,
      "件": 1451,
      "价": 1452,
      "任": 1453,
      "份": 1454,
      "仿": 1455,
      "企": 1456,
      "伊": 1457,
      "伍": 1458,
      "伎": 1459,
      "伏": 1460,
      "休": 1461,
      "众": 1462,
      "优": 1463,
      "会": 1464,
      "伝": 1465,
      "伟": 1466,
      "传": 1467,
      "伤": 1468,
      "伦": 1469,
      "伯": 1470,
      "估": 1471,
      "伴": 1472,
      "似": 1473,
      "但": 1474,
      "位": 1475,
      "低": 1476,
      "住": 1477,
      "佑": 1478,
      "体": 1479,
      "何": 1480,
      "佗": 1481,
      "余": 1482,
      "作": 1483,
      "你": 1484,
      "佩": 1485,
      "佳": 1486,
      "併": 1487,
      "使": 1488,
      "來": 1489,
      "例": 1490,
      "供": 1491,
      "依": 1492,
      "価": 1493,
      "侣": 1494,
      "侧": 1495,
      "侯": 1496,
      "侵": 1497,
      "便": 1498,
      "係": 1499,
      "促": 1500,
      "俗": 1501,
      "保": 1502,
      "俞": 1503,
      "信": 1504,
      "修": 1505,
      "俯": 1506,
      "個": 1507,
      "倍": 1508,
      "們": 1509,
      "倒": 1510,
      "候": 1511,
      "倚": 1512,
      "借": 1513,
      "値": 1514,
      "倦": 1515,
      "倫": 1516,
      "值": 1517,
      "倾": 1518,
      "假": 1519,
      "偏": 1520,
      "偕": 1521,
      "做": 1522,
      "停": 1523,
      "健": 1524,
      "側": 1525,
      "偶": 1526,
      "偽": 1527,
      "偿": 1528,
      "備": 1529,
      "傲": 1530,
      "傳": 1531,
      "傷": 1532,
      "傾": 1533,
      "僅": 1534,
      "働": 1535,
      "像": 1536,
      "僵": 1537,
      "價": 1538,
      "儀": 1539,
      "儒": 1540,
      "優": 1541,
      "儲": 1542,
      "儿": 1543,
      "允": 1544,
      "元": 1545,
      "兄": 1546,
      "充": 1547,
      "先": 1548,
      "光": 1549,
      "克": 1550,
      "免": 1551,
      "児": 1552,
      "兒": 1553,
      "党": 1554,
      "入": 1555,
      "內": 1556,
      "全": 1557,
      "兩": 1558,
      "八": 1559,
      "公": 1560,
      "六": 1561,
      "兰": 1562,
      "共": 1563,
      "关": 1564,
      "兴": 1565,
      "其": 1566,
      "具": 1567,
      "典": 1568,
      "养": 1569,
      "兼": 1570,
      "冀": 1571,
      "内": 1572,
      "册": 1573,
      "再": 1574,
      "冒": 1575,
      "写": 1576,
      "军": 1577,
      "农": 1578,
      "冠": 1579,
      "冬": 1580,
      "冰": 1581,
      "冲": 1582,
      "决": 1583,
      "况": 1584,
      "冷": 1585,
      "冻": 1586,
      "净": 1587,
      "准": 1588,
      "凉": 1589,
      "凋": 1590,
      "凌": 1591,
      "减": 1592,
      "凝": 1593,
      "几": 1594,
      "処": 1595,
      "凯": 1596,
      "凸": 1597,
      "凹": 1598,
      "出": 1599,
      "击": 1600,
      "凿": 1601,
      "刀": 1602,
      "刂": 1603,
      "分": 1604,
      "切": 1605,
      "刊": 1606,
      "刑": 1607,
      "划": 1608,
      "列": 1609,
      "刘": 1610,
      "则": 1611,
      "刚": 1612,
      "创": 1613,
      "初": 1614,
      "判": 1615,
      "別": 1616,
      "利": 1617,
      "别": 1618,
      "到": 1619,
      "制": 1620,
      "券": 1621,
      "刺": 1622,
      "刻": 1623,
      "剁": 1624,
      "剂": 1625,
      "剃": 1626,
      "則": 1627,
      "削": 1628,
      "前": 1629,
      "剑": 1630,
      "剖": 1631,
      "剤": 1632,
      "剧": 1633,
      "剩": 1634,
      "副": 1635,
      "剰": 1636,
      "割": 1637,
      "創": 1638,
      "劃": 1639,
      "劑": 1640,
      "力": 1641,
      "办": 1642,
      "功": 1643,
      "加": 1644,
      "务": 1645,
      "劣": 1646,
      "动": 1647,
      "助": 1648,
      "努": 1649,
      "劫": 1650,
      "励": 1651,
      "劳": 1652,
      "労": 1653,
      "効": 1654,
      "势": 1655,
      "勇": 1656,
      "勉": 1657,
      "勒": 1658,
      "動": 1659,
      "勘": 1660,
      "務": 1661,
      "募": 1662,
      "勢": 1663,
      "勤": 1664,
      "勧": 1665,
      "勿": 1666,
      "匀": 1667,
      "包": 1668,
      "化": 1669,
      "北": 1670,
      "匙": 1671,
      "匮": 1672,
      "匹": 1673,
      "区": 1674,
      "医": 1675,
      "匿": 1676,
      "區": 1677,
      "十": 1678,
      "千": 1679,
      "升": 1680,
      "午": 1681,
      "半": 1682,
      "华": 1683,
      "协": 1684,
      "卒": 1685,
      "協": 1686,
      "单": 1687,
      "卖": 1688,
      "南": 1689,
      "単": 1690,
      "博": 1691,
      "卜": 1692,
      "占": 1693,
      "卡": 1694,
      "卢": 1695,
      "卧": 1696,
      "卫": 1697,
      "印": 1698,
      "危": 1699,
      "即": 1700,
      "却": 1701,
      "卵": 1702,
      "卷": 1703,
      "厅": 1704,
      "历": 1705,
      "厉": 1706,
      "压": 1707,
      "厚": 1708,
      "原": 1709,
      "厥": 1710,
      "厦": 1711,
      "厳": 1712,
      "去": 1713,
      "县": 1714,
      "参": 1715,
      "參": 1716,
      "又": 1717,
      "叉": 1718,
      "及": 1719,
      "友": 1720,
      "双": 1721,
      "反": 1722,
      "収": 1723,
      "发": 1724,
      "叔": 1725,
      "取": 1726,
      "受": 1727,
      "变": 1728,
      "叙": 1729,
      "叠": 1730,
      "口": 1731,
      "古": 1732,
      "句": 1733,
      "另": 1734,
      "只": 1735,
      "叫": 1736,
      "召": 1737,
      "可": 1738,
      "台": 1739,
      "史": 1740,
      "右": 1741,
      "叶": 1742,
      "号": 1743,
      "司": 1744,
      "吃": 1745,
      "各": 1746,
      "合": 1747,
      "吉": 1748,
      "吊": 1749,
      "同": 1750,
      "名": 1751,
      "后": 1752,
      "吐": 1753,
      "向": 1754,
      "吒": 1755,
      "吖": 1756,
      "吗": 1757,
      "君": 1758,
      "吞": 1759,
      "吡": 1760,
      "否": 1761,
      "吧": 1762,
      "含": 1763,
      "听": 1764,
      "启": 1765,
      "吲": 1766,
      "吳": 1767,
      "吴": 1768,
      "吸": 1769,
      "吹": 1770,
      "吻": 1771,
      "吾": 1772,
      "呀": 1773,
      "呈": 1774,
      "告": 1775,
      "呋": 1776,
      "呕": 1777,
      "员": 1778,
      "呢": 1779,
      "呤": 1780,
      "呦": 1781,
      "周": 1782,
      "味": 1783,
      "呼": 1784,
      "命": 1785,
      "和": 1786,
      "咨": 1787,
      "咯": 1788,
      "咳": 1789,
      "咽": 1790,
      "哀": 1791,
      "品": 1792,
      "哌": 1793,
      "响": 1794,
      "哑": 1795,
      "哚": 1796,
      "員": 1797,
      "哥": 1798,
      "哪": 1799,
      "哭": 1800,
      "哲": 1801,
      "哺": 1802,
      "唆": 1803,
      "唐": 1804,
      "唑": 1805,
      "唱": 1806,
      "唾": 1807,
      "商": 1808,
      "啊": 1809,
      "問": 1810,
      "啓": 1811,
      "啥": 1812,
      "啰": 1813,
      "啶": 1814,
      "喀": 1815,
      "喂": 1816,
      "善": 1817,
      "喉": 1818,
      "喎": 1819,
      "喘": 1820,
      "喜": 1821,
      "喝": 1822,
      "喫": 1823,
      "單": 1824,
      "営": 1825,
      "喷": 1826,
      "喹": 1827,
      "嗜": 1828,
      "嗽": 1829,
      "嘌": 1830,
      "嘔": 1831,
      "嘛": 1832,
      "嘧": 1833,
      "嘱": 1834,
      "嘶": 1835,
      "噢": 1836,
      "器": 1837,
      "噬": 1838,
      "噻": 1839,
      "嚅": 1840,
      "嚏": 1841,
      "嚢": 1842,
      "嚨": 1843,
      "嚴": 1844,
      "囊": 1845,
      "囍": 1846,
      "四": 1847,
      "回": 1848,
      "因": 1849,
      "团": 1850,
      "団": 1851,
      "园": 1852,
      "困": 1853,
      "囲": 1854,
      "図": 1855,
      "围": 1856,
      "固": 1857,
      "国": 1858,
      "图": 1859,
      "圆": 1860,
      "圈": 1861,
      "國": 1862,
      "圍": 1863,
      "園": 1864,
      "土": 1865,
      "圣": 1866,
      "圧": 1867,
      "在": 1868,
      "圭": 1869,
      "地": 1870,
      "圳": 1871,
      "场": 1872,
      "址": 1873,
      "均": 1874,
      "坊": 1875,
      "坎": 1876,
      "坏": 1877,
      "坐": 1878,
      "块": 1879,
      "坚": 1880,
      "坛": 1881,
      "坠": 1882,
      "坦": 1883,
      "垂": 1884,
      "型": 1885,
      "埃": 1886,
      "城": 1887,
      "域": 1888,
      "培": 1889,
      "基": 1890,
      "埼": 1891,
      "堂": 1892,
      "堅": 1893,
      "堰": 1894,
      "報": 1895,
      "場": 1896,
      "堵": 1897,
      "塑": 1898,
      "塞": 1899,
      "填": 1900,
      "境": 1901,
      "増": 1902,
      "墙": 1903,
      "增": 1904,
      "墨": 1905,
      "壁": 1906,
      "壅": 1907,
      "壊": 1908,
      "士": 1909,
      "壬": 1910,
      "声": 1911,
      "壳": 1912,
      "壹": 1913,
      "处": 1914,
      "备": 1915,
      "変": 1916,
      "复": 1917,
      "夏": 1918,
      "夕": 1919,
      "外": 1920,
      "多": 1921,
      "夜": 1922,
      "够": 1923,
      "夠": 1924,
      "大": 1925,
      "天": 1926,
      "太": 1927,
      "夫": 1928,
      "央": 1929,
      "失": 1930,
      "头": 1931,
      "夷": 1932,
      "夹": 1933,
      "奇": 1934,
      "奈": 1935,
      "奎": 1936,
      "奏": 1937,
      "奖": 1938,
      "套": 1939,
      "奠": 1940,
      "奥": 1941,
      "奨": 1942,
      "女": 1943,
      "奶": 1944,
      "她": 1945,
      "好": 1946,
      "如": 1947,
      "妄": 1948,
      "妇": 1949,
      "妈": 1950,
      "妊": 1951,
      "妖": 1952,
      "妙": 1953,
      "妥": 1954,
      "始": 1955,
      "姐": 1956,
      "姓": 1957,
      "委": 1958,
      "姜": 1959,
      "姻": 1960,
      "威": 1961,
      "娃": 1962,
      "娇": 1963,
      "娠": 1964,
      "娱": 1965,
      "婁": 1966,
      "婚": 1967,
      "婦": 1968,
      "婧": 1969,
      "婴": 1970,
      "媛": 1971,
      "嫌": 1972,
      "子": 1973,
      "孔": 1974,
      "孕": 1975,
      "字": 1976,
      "存": 1977,
      "孚": 1978,
      "孝": 1979,
      "孟": 1980,
      "孢": 1981,
      "季": 1982,
      "学": 1983,
      "孩": 1984,
      "孵": 1985,
      "學": 1986,
      "宁": 1987,
      "它": 1988,
      "宇": 1989,
      "守": 1990,
      "安": 1991,
      "完": 1992,
      "宏": 1993,
      "宗": 1994,
      "官": 1995,
      "定": 1996,
      "宜": 1997,
      "宝": 1998,
      "实": 1999,
      "実": 2000,
      "宠": 2001,
      "客": 2002,
      "宣": 2003,
      "室": 2004,
      "宪": 2005,
      "宫": 2006,
      "宮": 2007,
      "宰": 2008,
      "害": 2009,
      "宴": 2010,
      "家": 2011,
      "容": 2012,
      "宽": 2013,
      "宿": 2014,
      "寄": 2015,
      "寅": 2016,
      "密": 2017,
      "富": 2018,
      "寒": 2019,
      "察": 2020,
      "實": 2021,
      "寨": 2022,
      "審": 2023,
      "寸": 2024,
      "对": 2025,
      "寻": 2026,
      "导": 2027,
      "対": 2028,
      "寿": 2029,
      "封": 2030,
      "専": 2031,
      "射": 2032,
      "将": 2033,
      "將": 2034,
      "專": 2035,
      "尊": 2036,
      "尋": 2037,
      "對": 2038,
      "導": 2039,
      "小": 2040,
      "少": 2041,
      "尔": 2042,
      "尖": 2043,
      "尘": 2044,
      "尚": 2045,
      "尝": 2046,
      "尤": 2047,
      "就": 2048,
      "尸": 2049,
      "尺": 2050,
      "尼": 2051,
      "尽": 2052,
      "尾": 2053,
      "尿": 2054,
      "局": 2055,
      "层": 2056,
      "居": 2057,
      "屈": 2058,
      "屋": 2059,
      "屏": 2060,
      "展": 2061,
      "属": 2062,
      "屠": 2063,
      "屬": 2064,
      "山": 2065,
      "岁": 2066,
      "岗": 2067,
      "岡": 2068,
      "岩": 2069,
      "岷": 2070,
      "岸": 2071,
      "峨": 2072,
      "峰": 2073,
      "峻": 2074,
      "崔": 2075,
      "崩": 2076,
      "嵌": 2077,
      "嵿": 2078,
      "川": 2079,
      "州": 2080,
      "巢": 2081,
      "工": 2082,
      "左": 2083,
      "巨": 2084,
      "巩": 2085,
      "差": 2086,
      "巯": 2087,
      "己": 2088,
      "已": 2089,
      "巴": 2090,
      "巾": 2091,
      "市": 2092,
      "布": 2093,
      "师": 2094,
      "希": 2095,
      "帐": 2096,
      "帕": 2097,
      "帝": 2098,
      "帥": 2099,
      "带": 2100,
      "師": 2101,
      "席": 2102,
      "帮": 2103,
      "帰": 2104,
      "帶": 2105,
      "常": 2106,
      "帼": 2107,
      "帽": 2108,
      "幂": 2109,
      "幅": 2110,
      "幕": 2111,
      "幣": 2112,
      "幫": 2113,
      "干": 2114,
      "平": 2115,
      "年": 2116,
      "并": 2117,
      "幸": 2118,
      "幹": 2119,
      "幻": 2120,
      "幼": 2121,
      "广": 2122,
      "広": 2123,
      "庄": 2124,
      "庆": 2125,
      "庇": 2126,
      "床": 2127,
      "序": 2128,
      "库": 2129,
      "应": 2130,
      "底": 2131,
      "店": 2132,
      "府": 2133,
      "废": 2134,
      "度": 2135,
      "座": 2136,
      "庫": 2137,
      "庭": 2138,
      "康": 2139,
      "庸": 2140,
      "廉": 2141,
      "廊": 2142,
      "廟": 2143,
      "廣": 2144,
      "延": 2145,
      "廷": 2146,
      "建": 2147,
      "开": 2148,
      "异": 2149,
      "弃": 2150,
      "弊": 2151,
      "式": 2152,
      "弓": 2153,
      "引": 2154,
      "弛": 2155,
      "弟": 2156,
      "张": 2157,
      "弥": 2158,
      "弯": 2159,
      "弱": 2160,
      "張": 2161,
      "強": 2162,
      "弹": 2163,
      "强": 2164,
      "归": 2165,
      "当": 2166,
      "录": 2167,
      "形": 2168,
      "彥": 2169,
      "彪": 2170,
      "影": 2171,
      "役": 2172,
      "彻": 2173,
      "彼": 2174,
      "往": 2175,
      "征": 2176,
      "径": 2177,
      "待": 2178,
      "很": 2179,
      "律": 2180,
      "後": 2181,
      "徐": 2182,
      "従": 2183,
      "得": 2184,
      "從": 2185,
      "御": 2186,
      "復": 2187,
      "循": 2188,
      "微": 2189,
      "徳": 2190,
      "徴": 2191,
      "徵": 2192,
      "德": 2193,
      "徽": 2194,
      "心": 2195,
      "必": 2196,
      "忌": 2197,
      "忍": 2198,
      "志": 2199,
      "忘": 2200,
      "応": 2201,
      "忠": 2202,
      "忧": 2203,
      "快": 2204,
      "念": 2205,
      "忽": 2206,
      "怀": 2207,
      "态": 2208,
      "怎": 2209,
      "怒": 2210,
      "怕": 2211,
      "怖": 2212,
      "思": 2213,
      "怠": 2214,
      "急": 2215,
      "性": 2216,
      "怪": 2217,
      "总": 2218,
      "恐": 2219,
      "恒": 2220,
      "恢": 2221,
      "恥": 2222,
      "恩": 2223,
      "息": 2224,
      "恰": 2225,
      "恶": 2226,
      "恺": 2227,
      "悅": 2228,
      "悉": 2229,
      "悟": 2230,
      "悠": 2231,
      "患": 2232,
      "您": 2233,
      "悩": 2234,
      "悪": 2235,
      "悲": 2236,
      "悸": 2237,
      "情": 2238,
      "惊": 2239,
      "惕": 2240,
      "惠": 2241,
      "惡": 2242,
      "惧": 2243,
      "惭": 2244,
      "惰": 2245,
      "惱": 2246,
      "想": 2247,
      "惹": 2248,
      "愈": 2249,
      "意": 2250,
      "愚": 2251,
      "愛": 2252,
      "感": 2253,
      "愧": 2254,
      "愿": 2255,
      "慈": 2256,
      "態": 2257,
      "慌": 2258,
      "慎": 2259,
      "慢": 2260,
      "慧": 2261,
      "慨": 2262,
      "慮": 2263,
      "慶": 2264,
      "慷": 2265,
      "慾": 2266,
      "憂": 2267,
      "憋": 2268,
      "憤": 2269,
      "憶": 2270,
      "懈": 2271,
      "應": 2272,
      "懋": 2273,
      "懸": 2274,
      "懼": 2275,
      "戊": 2276,
      "戏": 2277,
      "成": 2278,
      "我": 2279,
      "戒": 2280,
      "或": 2281,
      "战": 2282,
      "戦": 2283,
      "截": 2284,
      "戲": 2285,
      "戴": 2286,
      "户": 2287,
      "戾": 2288,
      "房": 2289,
      "所": 2290,
      "扁": 2291,
      "手": 2292,
      "才": 2293,
      "扎": 2294,
      "打": 2295,
      "托": 2296,
      "扛": 2297,
      "执": 2298,
      "扩": 2299,
      "扫": 2300,
      "扬": 2301,
      "扮": 2302,
      "扰": 2303,
      "扳": 2304,
      "扶": 2305,
      "批": 2306,
      "找": 2307,
      "承": 2308,
      "技": 2309,
      "把": 2310,
      "抑": 2311,
      "抓": 2312,
      "投": 2313,
      "抖": 2314,
      "抗": 2315,
      "抛": 2316,
      "抜": 2317,
      "択": 2318,
      "抢": 2319,
      "护": 2320,
      "报": 2321,
      "抱": 2322,
      "抵": 2323,
      "押": 2324,
      "抽": 2325,
      "拂": 2326,
      "担": 2327,
      "拉": 2328,
      "拋": 2329,
      "拍": 2330,
      "拒": 2331,
      "拓": 2332,
      "拘": 2333,
      "招": 2334,
      "拟": 2335,
      "拠": 2336,
      "拡": 2337,
      "拥": 2338,
      "拨": 2339,
      "择": 2340,
      "括": 2341,
      "拭": 2342,
      "拳": 2343,
      "拶": 2344,
      "拷": 2345,
      "拾": 2346,
      "拿": 2347,
      "持": 2348,
      "挂": 2349,
      "指": 2350,
      "按": 2351,
      "挑": 2352,
      "挖": 2353,
      "挙": 2354,
      "挠": 2355,
      "挡": 2356,
      "挥": 2357,
      "挨": 2358,
      "振": 2359,
      "挽": 2360,
      "挿": 2361,
      "捕": 2362,
      "损": 2363,
      "换": 2364,
      "据": 2365,
      "捷": 2366,
      "授": 2367,
      "掉": 2368,
      "掌": 2369,
      "排": 2370,
      "掘": 2371,
      "採": 2372,
      "探": 2373,
      "接": 2374,
      "控": 2375,
      "推": 2376,
      "掩": 2377,
      "措": 2378,
      "掲": 2379,
      "揉": 2380,
      "描": 2381,
      "提": 2382,
      "插": 2383,
      "換": 2384,
      "握": 2385,
      "揭": 2386,
      "援": 2387,
      "搜": 2388,
      "搬": 2389,
      "搭": 2390,
      "携": 2391,
      "摄": 2392,
      "摘": 2393,
      "摸": 2394,
      "撑": 2395,
      "撤": 2396,
      "播": 2397,
      "撮": 2398,
      "擇": 2399,
      "操": 2400,
      "據": 2401,
      "擦": 2402,
      "擬": 2403,
      "擴": 2404,
      "攒": 2405,
      "攣": 2406,
      "支": 2407,
      "收": 2408,
      "改": 2409,
      "攻": 2410,
      "放": 2411,
      "政": 2412,
      "故": 2413,
      "效": 2414,
      "敏": 2415,
      "救": 2416,
      "敗": 2417,
      "教": 2418,
      "散": 2419,
      "敦": 2420,
      "敬": 2421,
      "数": 2422,
      "敲": 2423,
      "整": 2424,
      "數": 2425,
      "文": 2426,
      "斑": 2427,
      "斗": 2428,
      "料": 2429,
      "斜": 2430,
      "斤": 2431,
      "斥": 2432,
      "断": 2433,
      "斯": 2434,
      "新": 2435,
      "方": 2436,
      "於": 2437,
      "施": 2438,
      "旁": 2439,
      "旅": 2440,
      "旋": 2441,
      "族": 2442,
      "旗": 2443,
      "无": 2444,
      "既": 2445,
      "日": 2446,
      "旦": 2447,
      "旧": 2448,
      "旨": 2449,
      "早": 2450,
      "旬": 2451,
      "旱": 2452,
      "时": 2453,
      "昂": 2454,
      "昆": 2455,
      "昇": 2456,
      "昌": 2457,
      "明": 2458,
      "易": 2459,
      "昔": 2460,
      "星": 2461,
      "映": 2462,
      "春": 2463,
      "昧": 2464,
      "昨": 2465,
      "是": 2466,
      "昼": 2467,
      "显": 2468,
      "時": 2469,
      "晋": 2470,
      "晏": 2471,
      "晓": 2472,
      "晚": 2473,
      "普": 2474,
      "景": 2475,
      "晰": 2476,
      "晶": 2477,
      "智": 2478,
      "暂": 2479,
      "暑": 2480,
      "暖": 2481,
      "暗": 2482,
      "暦": 2483,
      "暫": 2484,
      "暮": 2485,
      "暲": 2486,
      "暳": 2487,
      "暴": 2488,
      "曒": 2489,
      "曝": 2490,
      "曟": 2491,
      "曲": 2492,
      "更": 2493,
      "書": 2494,
      "曼": 2495,
      "曾": 2496,
      "替": 2497,
      "最": 2498,
      "會": 2499,
      "月": 2500,
      "有": 2501,
      "朋": 2502,
      "服": 2503,
      "望": 2504,
      "朝": 2505,
      "期": 2506,
      "木": 2507,
      "未": 2508,
      "末": 2509,
      "本": 2510,
      "朮": 2511,
      "术": 2512,
      "朱": 2513,
      "朴": 2514,
      "朶": 2515,
      "机": 2516,
      "杀": 2517,
      "杂": 2518,
      "权": 2519,
      "李": 2520,
      "杏": 2521,
      "材": 2522,
      "村": 2523,
      "杖": 2524,
      "杜": 2525,
      "束": 2526,
      "条": 2527,
      "来": 2528,
      "杨": 2529,
      "杭": 2530,
      "杯": 2531,
      "杰": 2532,
      "東": 2533,
      "杷": 2534,
      "杼": 2535,
      "松": 2536,
      "板": 2537,
      "极": 2538,
      "构": 2539,
      "枇": 2540,
      "析": 2541,
      "林": 2542,
      "果": 2543,
      "枝": 2544,
      "枢": 2545,
      "枣": 2546,
      "枫": 2547,
      "枳": 2548,
      "架": 2549,
      "柏": 2550,
      "某": 2551,
      "染": 2552,
      "柔": 2553,
      "查": 2554,
      "柯": 2555,
      "柱": 2556,
      "柳": 2557,
      "柴": 2558,
      "査": 2559,
      "栀": 2560,
      "栄": 2561,
      "标": 2562,
      "树": 2563,
      "栓": 2564,
      "校": 2565,
      "株": 2566,
      "样": 2567,
      "核": 2568,
      "根": 2569,
      "栺": 2570,
      "栻": 2571,
      "格": 2572,
      "栽": 2573,
      "栿": 2574,
      "桂": 2575,
      "桃": 2576,
      "框": 2577,
      "案": 2578,
      "桑": 2579,
      "桔": 2580,
      "桥": 2581,
      "桶": 2582,
      "梁": 2583,
      "梅": 2584,
      "梗": 2585,
      "梢": 2586,
      "梦": 2587,
      "梨": 2588,
      "梯": 2589,
      "械": 2590,
      "检": 2591,
      "棉": 2592,
      "棋": 2593,
      "棒": 2594,
      "棗": 2595,
      "棟": 2596,
      "棣": 2597,
      "森": 2598,
      "植": 2599,
      "椎": 2600,
      "椒": 2601,
      "検": 2602,
      "椭": 2603,
      "楂": 2604,
      "楔": 2605,
      "楚": 2606,
      "業": 2607,
      "極": 2608,
      "楼": 2609,
      "概": 2610,
      "榧": 2611,
      "構": 2612,
      "様": 2613,
      "樂": 2614,
      "標": 2615,
      "樞": 2616,
      "樟": 2617,
      "模": 2618,
      "樣": 2619,
      "横": 2620,
      "橘": 2621,
      "機": 2622,
      "檀": 2623,
      "檢": 2624,
      "權": 2625,
      "欖": 2626,
      "欠": 2627,
      "次": 2628,
      "欢": 2629,
      "欧": 2630,
      "欲": 2631,
      "欺": 2632,
      "款": 2633,
      "歇": 2634,
      "歉": 2635,
      "歌": 2636,
      "止": 2637,
      "正": 2638,
      "此": 2639,
      "步": 2640,
      "武": 2641,
      "歧": 2642,
      "歩": 2643,
      "歪": 2644,
      "歳": 2645,
      "歴": 2646,
      "歸": 2647,
      "死": 2648,
      "殊": 2649,
      "残": 2650,
      "殖": 2651,
      "段": 2652,
      "殺": 2653,
      "毅": 2654,
      "母": 2655,
      "每": 2656,
      "毒": 2657,
      "比": 2658,
      "毛": 2659,
      "毭": 2660,
      "毷": 2661,
      "毺": 2662,
      "氏": 2663,
      "民": 2664,
      "气": 2665,
      "気": 2666,
      "氟": 2667,
      "氢": 2668,
      "氣": 2669,
      "氧": 2670,
      "氨": 2671,
      "氮": 2672,
      "氯": 2673,
      "水": 2674,
      "氵": 2675,
      "永": 2676,
      "汁": 2677,
      "求": 2678,
      "汇": 2679,
      "汉": 2680,
      "汗": 2681,
      "江": 2682,
      "池": 2683,
      "污": 2684,
      "汤": 2685,
      "決": 2686,
      "汾": 2687,
      "沂": 2688,
      "沈": 2689,
      "沉": 2690,
      "沒": 2691,
      "沙": 2692,
      "沟": 2693,
      "没": 2694,
      "沫": 2695,
      "沮": 2696,
      "河": 2697,
      "油": 2698,
      "治": 2699,
      "沿": 2700,
      "況": 2701,
      "泄": 2702,
      "泉": 2703,
      "泊": 2704,
      "泌": 2705,
      "法": 2706,
      "泛": 2707,
      "泡": 2708,
      "波": 2709,
      "泣": 2710,
      "泥": 2711,
      "注": 2712,
      "泰": 2713,
      "泳": 2714,
      "泵": 2715,
      "泻": 2716,
      "泼": 2717,
      "泽": 2718,
      "洁": 2719,
      "洋": 2720,
      "洒": 2721,
      "洗": 2722,
      "洛": 2723,
      "津": 2724,
      "洪": 2725,
      "洲": 2726,
      "活": 2727,
      "派": 2728,
      "流": 2729,
      "浄": 2730,
      "浅": 2731,
      "浆": 2732,
      "浊": 2733,
      "测": 2734,
      "济": 2735,
      "浓": 2736,
      "浙": 2737,
      "浜": 2738,
      "浦": 2739,
      "浩": 2740,
      "浪": 2741,
      "浮": 2742,
      "浴": 2743,
      "海": 2744,
      "浸": 2745,
      "涂": 2746,
      "消": 2747,
      "涉": 2748,
      "涌": 2749,
      "涕": 2750,
      "涛": 2751,
      "润": 2752,
      "涨": 2753,
      "液": 2754,
      "涵": 2755,
      "淀": 2756,
      "淆": 2757,
      "淋": 2758,
      "淘": 2759,
      "淡": 2760,
      "淤": 2761,
      "淨": 2762,
      "淫": 2763,
      "淮": 2764,
      "深": 2765,
      "混": 2766,
      "添": 2767,
      "清": 2768,
      "済": 2769,
      "渋": 2770,
      "渍": 2771,
      "渐": 2772,
      "渗": 2773,
      "減": 2774,
      "渠": 2775,
      "渡": 2776,
      "温": 2777,
      "測": 2778,
      "渭": 2779,
      "港": 2780,
      "游": 2781,
      "湃": 2782,
      "湖": 2783,
      "湯": 2784,
      "湾": 2785,
      "湿": 2786,
      "満": 2787,
      "溃": 2788,
      "溅": 2789,
      "溉": 2790,
      "源": 2791,
      "準": 2792,
      "溜": 2793,
      "溟": 2794,
      "溪": 2795,
      "溫": 2796,
      "溯": 2797,
      "溴": 2798,
      "溶": 2799,
      "滅": 2800,
      "滋": 2801,
      "滑": 2802,
      "滞": 2803,
      "满": 2804,
      "滤": 2805,
      "滩": 2806,
      "滴": 2807,
      "滿": 2808,
      "漁": 2809,
      "漆": 2810,
      "漏": 2811,
      "演": 2812,
      "漢": 2813,
      "漫": 2814,
      "漱": 2815,
      "漳": 2816,
      "漸": 2817,
      "潍": 2818,
      "潘": 2819,
      "潜": 2820,
      "潟": 2821,
      "潤": 2822,
      "潮": 2823,
      "潴": 2824,
      "澎": 2825,
      "澤": 2826,
      "激": 2827,
      "濃": 2828,
      "濕": 2829,
      "瀉": 2830,
      "瀑": 2831,
      "灌": 2832,
      "灣": 2833,
      "火": 2834,
      "灭": 2835,
      "灰": 2836,
      "灵": 2837,
      "灶": 2838,
      "灸": 2839,
      "灾": 2840,
      "炆": 2841,
      "炎": 2842,
      "炒": 2843,
      "炙": 2844,
      "炭": 2845,
      "点": 2846,
      "為": 2847,
      "炼": 2848,
      "烂": 2849,
      "烈": 2850,
      "烏": 2851,
      "烟": 2852,
      "烤": 2853,
      "烦": 2854,
      "烧": 2855,
      "热": 2856,
      "烯": 2857,
      "烷": 2858,
      "焕": 2859,
      "無": 2860,
      "焦": 2861,
      "然": 2862,
      "煌": 2863,
      "煎": 2864,
      "煙": 2865,
      "照": 2866,
      "煩": 2867,
      "煽": 2868,
      "熙": 2869,
      "熟": 2870,
      "熱": 2871,
      "熾": 2872,
      "燁": 2873,
      "燃": 2874,
      "燒": 2875,
      "燔": 2876,
      "燕": 2877,
      "營": 2878,
      "爆": 2879,
      "爪": 2880,
      "爬": 2881,
      "爭": 2882,
      "爱": 2883,
      "父": 2884,
      "爷": 2885,
      "爺": 2886,
      "爾": 2887,
      "片": 2888,
      "版": 2889,
      "牌": 2890,
      "牙": 2891,
      "牛": 2892,
      "牡": 2893,
      "物": 2894,
      "牲": 2895,
      "牵": 2896,
      "特": 2897,
      "牺": 2898,
      "犀": 2899,
      "犬": 2900,
      "犯": 2901,
      "状": 2902,
      "狀": 2903,
      "狂": 2904,
      "狗": 2905,
      "独": 2906,
      "狭": 2907,
      "狸": 2908,
      "狼": 2909,
      "猄": 2910,
      "猝": 2911,
      "猪": 2912,
      "猫": 2913,
      "献": 2914,
      "猴": 2915,
      "猿": 2916,
      "獣": 2917,
      "獨": 2918,
      "獲": 2919,
      "玄": 2920,
      "率": 2921,
      "玉": 2922,
      "王": 2923,
      "玩": 2924,
      "环": 2925,
      "现": 2926,
      "玲": 2927,
      "玻": 2928,
      "珍": 2929,
      "珎": 2930,
      "珠": 2931,
      "班": 2932,
      "現": 2933,
      "球": 2934,
      "理": 2935,
      "琴": 2936,
      "瑞": 2937,
      "瑭": 2938,
      "璃": 2939,
      "環": 2940,
      "瓜": 2941,
      "瓣": 2942,
      "瓶": 2943,
      "甄": 2944,
      "甘": 2945,
      "甙": 2946,
      "甚": 2947,
      "生": 2948,
      "産": 2949,
      "用": 2950,
      "田": 2951,
      "由": 2952,
      "甲": 2953,
      "申": 2954,
      "电": 2955,
      "男": 2956,
      "町": 2957,
      "画": 2958,
      "畅": 2959,
      "界": 2960,
      "畏": 2961,
      "留": 2962,
      "畜": 2963,
      "略": 2964,
      "番": 2965,
      "畫": 2966,
      "異": 2967,
      "畴": 2968,
      "畸": 2969,
      "疏": 2970,
      "疑": 2971,
      "疒": 2972,
      "疗": 2973,
      "疚": 2974,
      "疟": 2975,
      "疠": 2976,
      "疫": 2977,
      "疮": 2978,
      "疯": 2979,
      "疱": 2980,
      "疲": 2981,
      "疸": 2982,
      "疹": 2983,
      "疼": 2984,
      "疽": 2985,
      "疾": 2986,
      "病": 2987,
      "症": 2988,
      "痕": 2989,
      "痘": 2990,
      "痙": 2991,
      "痛": 2992,
      "痢": 2993,
      "痫": 2994,
      "痰": 2995,
      "痹": 2996,
      "痺": 2997,
      "瘀": 2998,
      "瘋": 2999,
      "瘟": 3000,
      "瘢": 3001,
      "瘤": 3002,
      "瘦": 3003,
      "瘧": 3004,
      "療": 3005,
      "癌": 3006,
      "癒": 3007,
      "癥": 3008,
      "癫": 3009,
      "発": 3010,
      "登": 3011,
      "發": 3012,
      "白": 3013,
      "百": 3014,
      "皂": 3015,
      "的": 3016,
      "皆": 3017,
      "皇": 3018,
      "皮": 3019,
      "盈": 3020,
      "益": 3021,
      "盐": 3022,
      "监": 3023,
      "盒": 3024,
      "盖": 3025,
      "盗": 3026,
      "盘": 3027,
      "盟": 3028,
      "盡": 3029,
      "目": 3030,
      "盲": 3031,
      "直": 3032,
      "相": 3033,
      "盾": 3034,
      "省": 3035,
      "眉": 3036,
      "看": 3037,
      "県": 3038,
      "真": 3039,
      "眠": 3040,
      "眼": 3041,
      "眾": 3042,
      "着": 3043,
      "睡": 3044,
      "督": 3045,
      "睦": 3046,
      "瞻": 3047,
      "矛": 3048,
      "知": 3049,
      "短": 3050,
      "矮": 3051,
      "石": 3052,
      "码": 3053,
      "砂": 3054,
      "砍": 3055,
      "研": 3056,
      "砖": 3057,
      "破": 3058,
      "础": 3059,
      "硅": 3060,
      "硬": 3061,
      "确": 3062,
      "碍": 3063,
      "碎": 3064,
      "碑": 3065,
      "碗": 3066,
      "碘": 3067,
      "碰": 3068,
      "碱": 3069,
      "碳": 3070,
      "確": 3071,
      "磁": 3072,
      "磨": 3073,
      "磷": 3074,
      "磺": 3075,
      "礎": 3076,
      "示": 3077,
      "礼": 3078,
      "社": 3079,
      "祖": 3080,
      "祛": 3081,
      "祝": 3082,
      "神": 3083,
      "祠": 3084,
      "票": 3085,
      "祯": 3086,
      "禁": 3087,
      "禄": 3088,
      "禍": 3089,
      "福": 3090,
      "禮": 3091,
      "离": 3092,
      "禽": 3093,
      "禾": 3094,
      "秀": 3095,
      "私": 3096,
      "秋": 3097,
      "种": 3098,
      "科": 3099,
      "秒": 3100,
      "秘": 3101,
      "租": 3102,
      "秦": 3103,
      "积": 3104,
      "称": 3105,
      "移": 3106,
      "稀": 3107,
      "程": 3108,
      "稍": 3109,
      "税": 3110,
      "稚": 3111,
      "種": 3112,
      "稳": 3113,
      "稽": 3114,
      "稿": 3115,
      "積": 3116,
      "穗": 3117,
      "穴": 3118,
      "究": 3119,
      "穹": 3120,
      "空": 3121,
      "穿": 3122,
      "突": 3123,
      "窄": 3124,
      "窒": 3125,
      "窓": 3126,
      "窗": 3127,
      "窘": 3128,
      "窝": 3129,
      "窦": 3130,
      "窮": 3131,
      "立": 3132,
      "站": 3133,
      "竟": 3134,
      "章": 3135,
      "童": 3136,
      "竭": 3137,
      "端": 3138,
      "竹": 3139,
      "竺": 3140,
      "笑": 3141,
      "符": 3142,
      "第": 3143,
      "笳": 3144,
      "等": 3145,
      "筋": 3146,
      "筑": 3147,
      "答": 3148,
      "策": 3149,
      "筛": 3150,
      "签": 3151,
      "简": 3152,
      "算": 3153,
      "管": 3154,
      "節": 3155,
      "範": 3156,
      "篇": 3157,
      "築": 3158,
      "篤": 3159,
      "篷": 3160,
      "簇": 3161,
      "簡": 3162,
      "簧": 3163,
      "籌": 3164,
      "籍": 3165,
      "籲": 3166,
      "米": 3167,
      "类": 3168,
      "粉": 3169,
      "粒": 3170,
      "粗": 3171,
      "粘": 3172,
      "粥": 3173,
      "粪": 3174,
      "粮": 3175,
      "精": 3176,
      "糖": 3177,
      "系": 3178,
      "紀": 3179,
      "約": 3180,
      "紅": 3181,
      "紊": 3182,
      "純": 3183,
      "紙": 3184,
      "素": 3185,
      "索": 3186,
      "紧": 3187,
      "紫": 3188,
      "累": 3189,
      "細": 3190,
      "紹": 3191,
      "終": 3192,
      "組": 3193,
      "経": 3194,
      "結": 3195,
      "絡": 3196,
      "給": 3197,
      "絮": 3198,
      "絲": 3199,
      "絵": 3200,
      "絶": 3201,
      "經": 3202,
      "継": 3203,
      "続": 3204,
      "綢": 3205,
      "維": 3206,
      "綱": 3207,
      "緊": 3208,
      "総": 3209,
      "線": 3210,
      "締": 3211,
      "編": 3212,
      "緩": 3213,
      "練": 3214,
      "縁": 3215,
      "縮": 3216,
      "總": 3217,
      "績": 3218,
      "繁": 3219,
      "繰": 3220,
      "續": 3221,
      "纓": 3222,
      "纠": 3223,
      "红": 3224,
      "纤": 3225,
      "约": 3226,
      "级": 3227,
      "纪": 3228,
      "纯": 3229,
      "纲": 3230,
      "纳": 3231,
      "纵": 3232,
      "纷": 3233,
      "纸": 3234,
      "纹": 3235,
      "纽": 3236,
      "线": 3237,
      "绀": 3238,
      "练": 3239,
      "组": 3240,
      "细": 3241,
      "织": 3242,
      "终": 3243,
      "绍": 3244,
      "经": 3245,
      "绒": 3246,
      "结": 3247,
      "绘": 3248,
      "给": 3249,
      "绛": 3250,
      "络": 3251,
      "绝": 3252,
      "绞": 3253,
      "统": 3254,
      "继": 3255,
      "绩": 3256,
      "绪": 3257,
      "续": 3258,
      "维": 3259,
      "绵": 3260,
      "综": 3261,
      "绿": 3262,
      "缓": 3263,
      "缔": 3264,
      "编": 3265,
      "缘": 3266,
      "缩": 3267,
      "缬": 3268,
      "缺": 3269,
      "网": 3270,
      "罕": 3271,
      "罗": 3272,
      "罩": 3273,
      "罪": 3274,
      "置": 3275,
      "罰": 3276,
      "署": 3277,
      "罹": 3278,
      "羅": 3279,
      "羊": 3280,
      "羌": 3281,
      "美": 3282,
      "羞": 3283,
      "羟": 3284,
      "群": 3285,
      "義": 3286,
      "羽": 3287,
      "翅": 3288,
      "翌": 3289,
      "習": 3290,
      "翘": 3291,
      "翠": 3292,
      "翹": 3293,
      "翻": 3294,
      "翼": 3295,
      "老": 3296,
      "考": 3297,
      "者": 3298,
      "耆": 3299,
      "而": 3300,
      "耐": 3301,
      "耗": 3302,
      "耠": 3303,
      "耳": 3304,
      "耻": 3305,
      "聂": 3306,
      "聊": 3307,
      "职": 3308,
      "联": 3309,
      "聚": 3310,
      "聞": 3311,
      "聪": 3312,
      "聯": 3313,
      "聴": 3314,
      "職": 3315,
      "肅": 3316,
      "肉": 3317,
      "肌": 3318,
      "肓": 3319,
      "肘": 3320,
      "肚": 3321,
      "肝": 3322,
      "肠": 3323,
      "股": 3324,
      "肢": 3325,
      "肤": 3326,
      "肥": 3327,
      "肩": 3328,
      "肯": 3329,
      "育": 3330,
      "肺": 3331,
      "肼": 3332,
      "肽": 3333,
      "肾": 3334,
      "肿": 3335,
      "胀": 3336,
      "胁": 3337,
      "胃": 3338,
      "胆": 3339,
      "背": 3340,
      "胎": 3341,
      "胖": 3342,
      "胚": 3343,
      "胜": 3344,
      "胞": 3345,
      "胡": 3346,
      "胯": 3347,
      "胰": 3348,
      "胱": 3349,
      "胶": 3350,
      "胸": 3351,
      "胺": 3352,
      "能": 3353,
      "脂": 3354,
      "脅": 3355,
      "脆": 3356,
      "脈": 3357,
      "脉": 3358,
      "脊": 3359,
      "脏": 3360,
      "脑": 3361,
      "脓": 3362,
      "脘": 3363,
      "脚": 3364,
      "脱": 3365,
      "脲": 3366,
      "脳": 3367,
      "脸": 3368,
      "脾": 3369,
      "腋": 3370,
      "腎": 3371,
      "腐": 3372,
      "腑": 3373,
      "腔": 3374,
      "腕": 3375,
      "腥": 3376,
      "腦": 3377,
      "腫": 3378,
      "腰": 3379,
      "腸": 3380,
      "腹": 3381,
      "腺": 3382,
      "腿": 3383,
      "膀": 3384,
      "膈": 3385,
      "膏": 3386,
      "膚": 3387,
      "膜": 3388,
      "膝": 3389,
      "膠": 3390,
      "膦": 3391,
      "膨": 3392,
      "膻": 3393,
      "膽": 3394,
      "臂": 3395,
      "臉": 3396,
      "臓": 3397,
      "臟": 3398,
      "臣": 3399,
      "臥": 3400,
      "臧": 3401,
      "臨": 3402,
      "自": 3403,
      "至": 3404,
      "致": 3405,
      "舃": 3406,
      "舅": 3407,
      "舆": 3408,
      "與": 3409,
      "興": 3410,
      "舉": 3411,
      "舌": 3412,
      "舍": 3413,
      "舒": 3414,
      "舔": 3415,
      "舞": 3416,
      "舟": 3417,
      "航": 3418,
      "般": 3419,
      "舱": 3420,
      "船": 3421,
      "艙": 3422,
      "艠": 3423,
      "良": 3424,
      "色": 3425,
      "艳": 3426,
      "艺": 3427,
      "艾": 3428,
      "节": 3429,
      "芍": 3430,
      "芎": 3431,
      "芥": 3432,
      "芦": 3433,
      "芩": 3434,
      "芪": 3435,
      "芬": 3436,
      "芯": 3437,
      "花": 3438,
      "芳": 3439,
      "芷": 3440,
      "芽": 3441,
      "苈": 3442,
      "苍": 3443,
      "苏": 3444,
      "苑": 3445,
      "苓": 3446,
      "苔": 3447,
      "苗": 3448,
      "苞": 3449,
      "苡": 3450,
      "若": 3451,
      "苦": 3452,
      "苯": 3453,
      "英": 3454,
      "苷": 3455,
      "范": 3456,
      "茅": 3457,
      "茯": 3458,
      "茵": 3459,
      "茶": 3460,
      "茹": 3461,
      "荆": 3462,
      "草": 3463,
      "荊": 3464,
      "荐": 3465,
      "荣": 3466,
      "荤": 3467,
      "荧": 3468,
      "荨": 3469,
      "药": 3470,
      "荷": 3471,
      "莔": 3472,
      "莠": 3473,
      "莪": 3474,
      "莫": 3475,
      "莱": 3476,
      "莲": 3477,
      "获": 3478,
      "莹": 3479,
      "菀": 3480,
      "菁": 3481,
      "菇": 3482,
      "菊": 3483,
      "菌": 3484,
      "菓": 3485,
      "菖": 3486,
      "菜": 3487,
      "華": 3488,
      "萄": 3489,
      "萌": 3490,
      "营": 3491,
      "萬": 3492,
      "落": 3493,
      "葉": 3494,
      "著": 3495,
      "葛": 3496,
      "葡": 3497,
      "董": 3498,
      "葦": 3499,
      "葶": 3500,
      "蒂": 3501,
      "蒋": 3502,
      "蒌": 3503,
      "蒜": 3504,
      "蒟": 3505,
      "蒡": 3506,
      "蒲": 3507,
      "蒺": 3508,
      "蒿": 3509,
      "蓄": 3510,
      "蓝": 3511,
      "蓮": 3512,
      "蓼": 3513,
      "蔓": 3514,
      "蔥": 3515,
      "蔻": 3516,
      "蕈": 3517,
      "蕴": 3518,
      "蕺": 3519,
      "蕾": 3520,
      "薄": 3521,
      "薏": 3522,
      "薑": 3523,
      "薛": 3524,
      "薬": 3525,
      "藉": 3526,
      "藍": 3527,
      "藏": 3528,
      "藜": 3529,
      "藝": 3530,
      "藤": 3531,
      "藥": 3532,
      "藿": 3533,
      "蘇": 3534,
      "蘊": 3535,
      "虎": 3536,
      "虏": 3537,
      "虑": 3538,
      "處": 3539,
      "虚": 3540,
      "虛": 3541,
      "虫": 3542,
      "虹": 3543,
      "虻": 3544,
      "虽": 3545,
      "蚊": 3546,
      "蚕": 3547,
      "蚧": 3548,
      "蛇": 3549,
      "蛊": 3550,
      "蛋": 3551,
      "蛎": 3552,
      "蛤": 3553,
      "蛮": 3554,
      "蛾": 3555,
      "蜀": 3556,
      "蜂": 3557,
      "蜜": 3558,
      "蝗": 3559,
      "蝙": 3560,
      "蝠": 3561,
      "蝦": 3562,
      "蝶": 3563,
      "融": 3564,
      "螺": 3565,
      "蟲": 3566,
      "血": 3567,
      "行": 3568,
      "衍": 3569,
      "術": 3570,
      "街": 3571,
      "衛": 3572,
      "衡": 3573,
      "衢": 3574,
      "衣": 3575,
      "补": 3576,
      "表": 3577,
      "衰": 3578,
      "袋": 3579,
      "袖": 3580,
      "袜": 3581,
      "袢": 3582,
      "袪": 3583,
      "被": 3584,
      "袭": 3585,
      "裁": 3586,
      "裂": 3587,
      "装": 3588,
      "裕": 3589,
      "補": 3590,
      "裹": 3591,
      "製": 3592,
      "複": 3593,
      "褲": 3594,
      "襲": 3595,
      "西": 3596,
      "要": 3597,
      "覆": 3598,
      "見": 3599,
      "規": 3600,
      "視": 3601,
      "覚": 3602,
      "観": 3603,
      "觀": 3604,
      "见": 3605,
      "观": 3606,
      "规": 3607,
      "视": 3608,
      "览": 3609,
      "角": 3610,
      "解": 3611,
      "触": 3612,
      "觸": 3613,
      "言": 3614,
      "計": 3615,
      "訊": 3616,
      "討": 3617,
      "託": 3618,
      "記": 3619,
      "設": 3620,
      "許": 3621,
      "訳": 3622,
      "訴": 3623,
      "訶": 3624,
      "診": 3625,
      "証": 3626,
      "詐": 3627,
      "評": 3628,
      "試": 3629,
      "話": 3630,
      "該": 3631,
      "詳": 3632,
      "詵": 3633,
      "誉": 3634,
      "誌": 3635,
      "認": 3636,
      "誘": 3637,
      "語": 3638,
      "誠": 3639,
      "說": 3640,
      "説": 3641,
      "誰": 3642,
      "課": 3643,
      "調": 3644,
      "談": 3645,
      "請": 3646,
      "論": 3647,
      "諧": 3648,
      "諸": 3649,
      "諾": 3650,
      "講": 3651,
      "謝": 3652,
      "謹": 3653,
      "證": 3654,
      "識": 3655,
      "警": 3656,
      "議": 3657,
      "護": 3658,
      "變": 3659,
      "讓": 3660,
      "计": 3661,
      "订": 3662,
      "认": 3663,
      "讨": 3664,
      "让": 3665,
      "训": 3666,
      "议": 3667,
      "记": 3668,
      "讲": 3669,
      "许": 3670,
      "论": 3671,
      "讼": 3672,
      "讽": 3673,
      "设": 3674,
      "访": 3675,
      "证": 3676,
      "评": 3677,
      "识": 3678,
      "诈": 3679,
      "诉": 3680,
      "诊": 3681,
      "词": 3682,
      "试": 3683,
      "诚": 3684,
      "话": 3685,
      "询": 3686,
      "该": 3687,
      "详": 3688,
      "语": 3689,
      "误": 3690,
      "诱": 3691,
      "说": 3692,
      "请": 3693,
      "诸": 3694,
      "诺": 3695,
      "读": 3696,
      "课": 3697,
      "调": 3698,
      "谋": 3699,
      "谢": 3700,
      "谣": 3701,
      "谦": 3702,
      "谨": 3703,
      "谱": 3704,
      "谷": 3705,
      "豆": 3706,
      "豉": 3707,
      "豊": 3708,
      "豐": 3709,
      "象": 3710,
      "豬": 3711,
      "負": 3712,
      "貢": 3713,
      "貨": 3714,
      "貯": 3715,
      "貴": 3716,
      "費": 3717,
      "資": 3718,
      "質": 3719,
      "贝": 3720,
      "贞": 3721,
      "负": 3722,
      "贡": 3723,
      "财": 3724,
      "责": 3725,
      "败": 3726,
      "货": 3727,
      "质": 3728,
      "贩": 3729,
      "贫": 3730,
      "购": 3731,
      "贯": 3732,
      "贴": 3733,
      "贵": 3734,
      "贸": 3735,
      "费": 3736,
      "贾": 3737,
      "赁": 3738,
      "资": 3739,
      "赊": 3740,
      "赏": 3741,
      "赔": 3742,
      "赖": 3743,
      "赛": 3744,
      "赞": 3745,
      "赢": 3746,
      "赤": 3747,
      "走": 3748,
      "赴": 3749,
      "赵": 3750,
      "起": 3751,
      "超": 3752,
      "越": 3753,
      "趋": 3754,
      "趙": 3755,
      "趣": 3756,
      "趨": 3757,
      "足": 3758,
      "趴": 3759,
      "趾": 3760,
      "跃": 3761,
      "跌": 3762,
      "跑": 3763,
      "距": 3764,
      "跟": 3765,
      "跡": 3766,
      "跨": 3767,
      "路": 3768,
      "跳": 3769,
      "践": 3770,
      "踏": 3771,
      "踪": 3772,
      "蹠": 3773,
      "蹤": 3774,
      "躁": 3775,
      "躍": 3776,
      "身": 3777,
      "躯": 3778,
      "車": 3779,
      "軋": 3780,
      "軟": 3781,
      "転": 3782,
      "軽": 3783,
      "較": 3784,
      "載": 3785,
      "輯": 3786,
      "輸": 3787,
      "轢": 3788,
      "车": 3789,
      "轨": 3790,
      "转": 3791,
      "软": 3792,
      "轶": 3793,
      "轻": 3794,
      "轼": 3795,
      "载": 3796,
      "较": 3797,
      "辅": 3798,
      "辆": 3799,
      "辐": 3800,
      "辑": 3801,
      "输": 3802,
      "辖": 3803,
      "辛": 3804,
      "辜": 3805,
      "辟": 3806,
      "辣": 3807,
      "辦": 3808,
      "辨": 3809,
      "辱": 3810,
      "農": 3811,
      "边": 3812,
      "达": 3813,
      "迁": 3814,
      "迄": 3815,
      "迅": 3816,
      "过": 3817,
      "迈": 3818,
      "运": 3819,
      "近": 3820,
      "返": 3821,
      "还": 3822,
      "这": 3823,
      "进": 3824,
      "远": 3825,
      "违": 3826,
      "连": 3827,
      "迟": 3828,
      "迫": 3829,
      "述": 3830,
      "迹": 3831,
      "追": 3832,
      "退": 3833,
      "送": 3834,
      "适": 3835,
      "逃": 3836,
      "逆": 3837,
      "选": 3838,
      "逍": 3839,
      "透": 3840,
      "逐": 3841,
      "递": 3842,
      "途": 3843,
      "逗": 3844,
      "這": 3845,
      "通": 3846,
      "速": 3847,
      "造": 3848,
      "連": 3849,
      "逮": 3850,
      "週": 3851,
      "進": 3852,
      "逻": 3853,
      "遂": 3854,
      "遅": 3855,
      "遇": 3856,
      "遊": 3857,
      "運": 3858,
      "遍": 3859,
      "過": 3860,
      "遏": 3861,
      "道": 3862,
      "達": 3863,
      "違": 3864,
      "遗": 3865,
      "遠": 3866,
      "遣": 3867,
      "遥": 3868,
      "適": 3869,
      "遭": 3870,
      "遮": 3871,
      "遵": 3872,
      "遷": 3873,
      "選": 3874,
      "遺": 3875,
      "避": 3876,
      "邀": 3877,
      "還": 3878,
      "邑": 3879,
      "邓": 3880,
      "那": 3881,
      "邦": 3882,
      "邪": 3883,
      "邮": 3884,
      "邸": 3885,
      "邻": 3886,
      "郁": 3887,
      "郄": 3888,
      "郎": 3889,
      "郑": 3890,
      "郝": 3891,
      "郡": 3892,
      "部": 3893,
      "都": 3894,
      "鄂": 3895,
      "酌": 3896,
      "配": 3897,
      "酐": 3898,
      "酒": 3899,
      "酔": 3900,
      "酚": 3901,
      "酪": 3902,
      "酮": 3903,
      "酯": 3904,
      "酰": 3905,
      "酵": 3906,
      "酶": 3907,
      "酸": 3908,
      "醇": 3909,
      "醋": 3910,
      "醒": 3911,
      "醫": 3912,
      "采": 3913,
      "释": 3914,
      "釋": 3915,
      "里": 3916,
      "重": 3917,
      "野": 3918,
      "量": 3919,
      "釐": 3920,
      "金": 3921,
      "釜": 3922,
      "針": 3923,
      "鉢": 3924,
      "鉴": 3925,
      "錢": 3926,
      "鍵": 3927,
      "鎮": 3928,
      "鏟": 3929,
      "鏡": 3930,
      "鐘": 3931,
      "针": 3932,
      "钙": 3933,
      "钟": 3934,
      "钠": 3935,
      "钩": 3936,
      "钱": 3937,
      "铁": 3938,
      "铂": 3939,
      "银": 3940,
      "链": 3941,
      "锋": 3942,
      "锐": 3943,
      "错": 3944,
      "锡": 3945,
      "锦": 3946,
      "键": 3947,
      "锻": 3948,
      "镜": 3949,
      "镰": 3950,
      "長": 3951,
      "长": 3952,
      "門": 3953,
      "閉": 3954,
      "開": 3955,
      "間": 3956,
      "関": 3957,
      "閣": 3958,
      "閱": 3959,
      "關": 3960,
      "门": 3961,
      "闭": 3962,
      "问": 3963,
      "间": 3964,
      "闷": 3965,
      "闸": 3966,
      "闻": 3967,
      "阀": 3968,
      "阅": 3969,
      "阐": 3970,
      "阙": 3971,
      "队": 3972,
      "防": 3973,
      "阳": 3974,
      "阴": 3975,
      "阵": 3976,
      "阶": 3977,
      "阻": 3978,
      "阿": 3979,
      "附": 3980,
      "际": 3981,
      "陆": 3982,
      "陈": 3983,
      "降": 3984,
      "限": 3985,
      "陕": 3986,
      "院": 3987,
      "除": 3988,
      "陥": 3989,
      "险": 3990,
      "陪": 3991,
      "陰": 3992,
      "陳": 3993,
      "陵": 3994,
      "陶": 3995,
      "陷": 3996,
      "険": 3997,
      "陽": 3998,
      "隆": 3999,
      "階": 4000,
      "随": 4001,
      "隐": 4002,
      "隔": 4003,
      "際": 4004,
      "障": 4005,
      "隧": 4006,
      "隨": 4007,
      "隱": 4008,
      "难": 4009,
      "雁": 4010,
      "雄": 4011,
      "雅": 4012,
      "集": 4013,
      "雇": 4014,
      "雑": 4015,
      "雙": 4016,
      "雜": 4017,
      "離": 4018,
      "難": 4019,
      "雪": 4020,
      "雲": 4021,
      "雷": 4022,
      "電": 4023,
      "雾": 4024,
      "需": 4025,
      "震": 4026,
      "霉": 4027,
      "霍": 4028,
      "霜": 4029,
      "露": 4030,
      "靈": 4031,
      "青": 4032,
      "靖": 4033,
      "静": 4034,
      "靛": 4035,
      "靜": 4036,
      "非": 4037,
      "靠": 4038,
      "面": 4039,
      "革": 4040,
      "靶": 4041,
      "鞋": 4042,
      "鞑": 4043,
      "鞘": 4044,
      "鞭": 4045,
      "韓": 4046,
      "韦": 4047,
      "韧": 4048,
      "韩": 4049,
      "音": 4050,
      "響": 4051,
      "頂": 4052,
      "項": 4053,
      "須": 4054,
      "預": 4055,
      "頓": 4056,
      "領": 4057,
      "頚": 4058,
      "頤": 4059,
      "頭": 4060,
      "頻": 4061,
      "顆": 4062,
      "題": 4063,
      "顕": 4064,
      "願": 4065,
      "類": 4066,
      "顧": 4067,
      "页": 4068,
      "顶": 4069,
      "项": 4070,
      "顺": 4071,
      "须": 4072,
      "顾": 4073,
      "顿": 4074,
      "颁": 4075,
      "预": 4076,
      "颅": 4077,
      "领": 4078,
      "颇": 4079,
      "颈": 4080,
      "频": 4081,
      "颗": 4082,
      "题": 4083,
      "额": 4084,
      "風": 4085,
      "风": 4086,
      "飛": 4087,
      "飞": 4088,
      "食": 4089,
      "飯": 4090,
      "飲": 4091,
      "飽": 4092,
      "飾": 4093,
      "養": 4094,
      "餐": 4095,
      "餓": 4096,
      "饭": 4097,
      "饮": 4098,
      "饰": 4099,
      "饱": 4100,
      "饲": 4101,
      "馆": 4102,
      "馈": 4103,
      "首": 4104,
      "香": 4105,
      "馬": 4106,
      "駄": 4107,
      "駐": 4108,
      "験": 4109,
      "驗": 4110,
      "驟": 4111,
      "马": 4112,
      "驱": 4113,
      "驷": 4114,
      "验": 4115,
      "骗": 4116,
      "骤": 4117,
      "骨": 4118,
      "髓": 4119,
      "體": 4120,
      "高": 4121,
      "髮": 4122,
      "鬚": 4123,
      "鬱": 4124,
      "鬼": 4125,
      "魂": 4126,
      "魅": 4127,
      "魔": 4128,
      "魚": 4129,
      "鯪": 4130,
      "鯽": 4131,
      "鱔": 4132,
      "鱼": 4133,
      "鲁": 4134,
      "鲜": 4135,
      "鳞": 4136,
      "鳩": 4137,
      "鶴": 4138,
      "鸟": 4139,
      "鸡": 4140,
      "鸭": 4141,
      "鹊": 4142,
      "鹏": 4143,
      "鹿": 4144,
      "麝": 4145,
      "麟": 4146,
      "麦": 4147,
      "麻": 4148,
      "麼": 4149,
      "黃": 4150,
      "黄": 4151,
      "黎": 4152,
      "黏": 4153,
      "黑": 4154,
      "黛": 4155,
      "鼎": 4156,
      "鼓": 4157,
      "鼠": 4158,
      "鼻": 4159,
      "齐": 4160,
      "齢": 4161,
      "齿": 4162,
      "龄": 4163,
      "龍": 4164,
      "龙": 4165,
      "龟": 4166,
      "ꓗ": 4167,
      "ꓞ": 4168,
      "ꓥ": 4169,
      "ꓦ": 4170,
      "ꙇ": 4171,
      "ꚛ": 4172,
      "ꝉ": 4173,
      "ꝩ": 4174,
      "ꞌ": 4175,
      "ꞏ": 4176,
      "ꞵ": 4177,
      "ꟷ": 4178,
      "ꭓ": 4179,
      "ꭕ": 4180,
      "ꭞ": 4181,
      "ꭽ": 4182,
      "ꭿ": 4183,
      "ꮃ": 4184,
      "가": 4185,
      "간": 4186,
      "감": 4187,
      "값": 4188,
      "강": 4189,
      "갖": 4190,
      "같": 4191,
      "개": 4192,
      "객": 4193,
      "거": 4194,
      "걱": 4195,
      "건": 4196,
      "검": 4197,
      "것": 4198,
      "게": 4199,
      "격": 4200,
      "결": 4201,
      "경": 4202,
      "계": 4203,
      "고": 4204,
      "공": 4205,
      "과": 4206,
      "관": 4207,
      "광": 4208,
      "괴": 4209,
      "교": 4210,
      "구": 4211,
      "국": 4212,
      "군": 4213,
      "굿": 4214,
      "궁": 4215,
      "규": 4216,
      "근": 4217,
      "금": 4218,
      "급": 4219,
      "기": 4220,
      "긴": 4221,
      "길": 4222,
      "김": 4223,
      "까": 4224,
      "꽉": 4225,
      "나": 4226,
      "난": 4227,
      "남": 4228,
      "내": 4229,
      "네": 4230,
      "년": 4231,
      "노": 4232,
      "농": 4233,
      "높": 4234,
      "뇽": 4235,
      "누": 4236,
      "뉴": 4237,
      "는": 4238,
      "늘": 4239,
      "능": 4240,
      "늬": 4241,
      "니": 4242,
      "님": 4243,
      "다": 4244,
      "닥": 4245,
      "단": 4246,
      "달": 4247,
      "담": 4248,
      "당": 4249,
      "대": 4250,
      "데": 4251,
      "도": 4252,
      "독": 4253,
      "동": 4254,
      "되": 4255,
      "된": 4256,
      "두": 4257,
      "드": 4258,
      "들": 4259,
      "디": 4260,
      "똑": 4261,
      "라": 4262,
      "랑": 4263,
      "러": 4264,
      "런": 4265,
      "렉": 4266,
      "력": 4267,
      "련": 4268,
      "렴": 4269,
      "령": 4270,
      "례": 4271,
      "로": 4272,
      "록": 4273,
      "롱": 4274,
      "뢰": 4275,
      "료": 4276,
      "루": 4277,
      "류": 4278,
      "률": 4279,
      "르": 4280,
      "른": 4281,
      "를": 4282,
      "름": 4283,
      "리": 4284,
      "린": 4285,
      "림": 4286,
      "립": 4287,
      "마": 4288,
      "막": 4289,
      "만": 4290,
      "말": 4291,
      "매": 4292,
      "먹": 4293,
      "메": 4294,
      "면": 4295,
      "명": 4296,
      "모": 4297,
      "목": 4298,
      "몫": 4299,
      "몰": 4300,
      "무": 4301,
      "묶": 4302,
      "문": 4303,
      "물": 4304,
      "미": 4305,
      "믹": 4306,
      "민": 4307,
      "밀": 4308,
      "및": 4309,
      "바": 4310,
      "받": 4311,
      "발": 4312,
      "방": 4313,
      "밭": 4314,
      "배": 4315,
      "백": 4316,
      "뱃": 4317,
      "번": 4318,
      "범": 4319,
      "법": 4320,
      "베": 4321,
      "별": 4322,
      "병": 4323,
      "보": 4324,
      "복": 4325,
      "본": 4326,
      "볼": 4327,
      "봉": 4328,
      "부": 4329,
      "분": 4330,
      "불": 4331,
      "뷰": 4332,
      "블": 4333,
      "비": 4334,
      "빈": 4335,
      "빠": 4336,
      "빨": 4337,
      "뿔": 4338,
      "사": 4339,
      "산": 4340,
      "상": 4341,
      "생": 4342,
      "서": 4343,
      "석": 4344,
      "선": 4345,
      "설": 4346,
      "성": 4347,
      "세": 4348,
      "소": 4349,
      "속": 4350,
      "송": 4351,
      "수": 4352,
      "순": 4353,
      "술": 4354,
      "숨": 4355,
      "슈": 4356,
      "스": 4357,
      "승": 4358,
      "시": 4359,
      "식": 4360,
      "신": 4361,
      "실": 4362,
      "심": 4363,
      "싸": 4364,
      "쑤": 4365,
      "아": 4366,
      "안": 4367,
      "앙": 4368,
      "야": 4369,
      "약": 4370,
      "어": 4371,
      "억": 4372,
      "언": 4373,
      "업": 4374,
      "없": 4375,
      "었": 4376,
      "에": 4377,
      "엑": 4378,
      "여": 4379,
      "역": 4380,
      "연": 4381,
      "열": 4382,
      "염": 4383,
      "였": 4384,
      "영": 4385,
      "예": 4386,
      "온": 4387,
      "외": 4388,
      "요": 4389,
      "용": 4390,
      "우": 4391,
      "운": 4392,
      "울": 4393,
      "움": 4394,
      "워": 4395,
      "원": 4396,
      "월": 4397,
      "위": 4398,
      "유": 4399,
      "육": 4400,
      "윤": 4401,
      "으": 4402,
      "은": 4403,
      "을": 4404,
      "음": 4405,
      "응": 4406,
      "의": 4407,
      "이": 4408,
      "인": 4409,
      "일": 4410,
      "임": 4411,
      "입": 4412,
      "있": 4413,
      "자": 4414,
      "작": 4415,
      "잡": 4416,
      "장": 4417,
      "재": 4418,
      "적": 4419,
      "전": 4420,
      "점": 4421,
      "접": 4422,
      "정": 4423,
      "제": 4424,
      "조": 4425,
      "존": 4426,
      "종": 4427,
      "주": 4428,
      "준": 4429,
      "중": 4430,
      "증": 4431,
      "지": 4432,
      "직": 4433,
      "진": 4434,
      "질": 4435,
      "집": 4436,
      "째": 4437,
      "차": 4438,
      "책": 4439,
      "처": 4440,
      "천": 4441,
      "철": 4442,
      "청": 4443,
      "체": 4444,
      "촉": 4445,
      "추": 4446,
      "축": 4447,
      "출": 4448,
      "취": 4449,
      "츠": 4450,
      "치": 4451,
      "침": 4452,
      "카": 4453,
      "커": 4454,
      "케": 4455,
      "코": 4456,
      "콘": 4457,
      "쾌": 4458,
      "크": 4459,
      "키": 4460,
      "타": 4461,
      "터": 4462,
      "털": 4463,
      "텃": 4464,
      "테": 4465,
      "텐": 4466,
      "톤": 4467,
      "통": 4468,
      "튜": 4469,
      "트": 4470,
      "특": 4471,
      "티": 4472,
      "팅": 4473,
      "파": 4474,
      "판": 4475,
      "팔": 4476,
      "팬": 4477,
      "페": 4478,
      "평": 4479,
      "폐": 4480,
      "포": 4481,
      "퐶": 4482,
      "퐼": 4483,
      "푂": 4484,
      "푃": 4485,
      "푄": 4486,
      "푈": 4487,
      "푌": 4488,
      "푍": 4489,
      "푗": 4490,
      "푛": 4491,
      "표": 4492,
      "푤": 4493,
      "푥": 4494,
      "품": 4495,
      "풙": 4496,
      "풳": 4497,
      "퓗": 4498,
      "플": 4499,
      "피": 4500,
      "하": 4501,
      "학": 4502,
      "한": 4503,
      "할": 4504,
      "함": 4505,
      "합": 4506,
      "항": 4507,
      "해": 4508,
      "핵": 4509,
      "행": 4510,
      "허": 4511,
      "험": 4512,
      "혁": 4513,
      "현": 4514,
      "협": 4515,
      "혜": 4516,
      "호": 4517,
      "혹": 4518,
      "홍": 4519,
      "화": 4520,
      "확": 4521,
      "환": 4522,
      "활": 4523,
      "황": 4524,
      "회": 4525,
      "후": 4526,
      "훥": 4527,
      "훼": 4528,
      "훽": 4529,
      "훾": 4530,
      "훿": 4531,
      "휃": 4532,
      "휇": 4533,
      "휎": 4534,
      "휏": 4535,
      "휒": 4536,
      "휓": 4537,
      "휘": 4538,
      "휴": 4539,
      "휶": 4540,
      "흀": 4541,
      "흡": 4542,
      "흥": 4543,
      "흰": 4544,
      "흱": 4545,
      "히": 4546,
      "힌": 4547,
      "泌": 4548,
      "量": 4549,
      "年": 4550,
      "尿": 4551,
      "ﬀ": 4552,
      "ﬁ": 4553,
      "ﬂ": 4554,
      "ﬃ": 4555,
      "ﬄ": 4556,
      "ﭖ": 4557,
      "ﭪ": 4558,
      "ﭭ": 4559,
      "ﭺ": 4560,
      "ﭼ": 4561,
      "ﮊ": 4562,
      "ﮐ": 4563,
      "ﮒ": 4564,
      "ﮔ": 4565,
      "ﮟ": 4566,
      "ﮨ": 4567,
      "ﮫ": 4568,
      "ﮯ": 4569,
      "ﯿ": 4570,
      "ﳍ": 4571,
      "ﷺ": 4572,
      "ﺀ": 4573,
      "ﺃ": 4574,
      "ﺄ": 4575,
      "ﺆ": 4576,
      "ﺇ": 4577,
      "ﺈ": 4578,
      "ﺉ": 4579,
      "ﺋ": 4580,
      "ﺌ": 4581,
      "ﺍ": 4582,
      "ﺎ": 4583,
      "ﺏ": 4584,
      "ﺐ": 4585,
      "ﺑ": 4586,
      "ﺒ": 4587,
      "ﺓ": 4588,
      "ﺔ": 4589,
      "ﺕ": 4590,
      "ﺖ": 4591,
      "ﺗ": 4592,
      "ﺘ": 4593,
      "ﺙ": 4594,
      "ﺚ": 4595,
      "ﺛ": 4596,
      "ﺜ": 4597,
      "ﺝ": 4598,
      "ﺞ": 4599,
      "ﺟ": 4600,
      "ﺠ": 4601,
      "ﺡ": 4602,
      "ﺢ": 4603,
      "ﺣ": 4604,
      "ﺤ": 4605,
      "ﺧ": 4606,
      "ﺨ": 4607,
      "ﺩ": 4608,
      "ﺪ": 4609,
      "ﺫ": 4610,
      "ﺬ": 4611,
      "ﺭ": 4612,
      "ﺮ": 4613,
      "ﺯ": 4614,
      "ﺰ": 4615,
      "ﺱ": 4616,
      "ﺲ": 4617,
      "ﺳ": 4618,
      "ﺴ": 4619,
      "ﺵ": 4620,
      "ﺷ": 4621,
      "ﺸ": 4622,
      "ﺹ": 4623,
      "ﺺ": 4624,
      "ﺻ": 4625,
      "ﺼ": 4626,
      "ﺽ": 4627,
      "ﺾ": 4628,
      "ﺿ": 4629,
      "ﻀ": 4630,
      "ﻁ": 4631,
      "ﻂ": 4632,
      "ﻃ": 4633,
      "ﻄ": 4634,
      "ﻅ": 4635,
      "ﻇ": 4636,
      "ﻈ": 4637,
      "ﻉ": 4638,
      "ﻊ": 4639,
      "ﻋ": 4640,
      "ﻌ": 4641,
      "ﻏ": 4642,
      "ﻐ": 4643,
      "ﻑ": 4644,
      "ﻒ": 4645,
      "ﻓ": 4646,
      "ﻔ": 4647,
      "ﻕ": 4648,
      "ﻖ": 4649,
      "ﻗ": 4650,
      "ﻘ": 4651,
      "ﻙ": 4652,
      "ﻚ": 4653,
      "ﻛ": 4654,
      "ﻜ": 4655,
      "ﻝ": 4656,
      "ﻞ": 4657,
      "ﻟ": 4658,
      "ﻠ": 4659,
      "ﻡ": 4660,
      "ﻢ": 4661,
      "ﻣ": 4662,
      "ﻤ": 4663,
      "ﻥ": 4664,
      "ﻦ": 4665,
      "ﻧ": 4666,
      "ﻨ": 4667,
      "ﻩ": 4668,
      "ﻪ": 4669,
      "ﻫ": 4670,
      "ﻬ": 4671,
      "ﻭ": 4672,
      "ﻮ": 4673,
      "ﻯ": 4674,
      "ﻰ": 4675,
      "ﻱ": 4676,
      "ﻲ": 4677,
      "ﻳ": 4678,
      "ﻴ": 4679,
      "ﻷ": 4680,
      "ﻸ": 4681,
      "ﻹ": 4682,
      "ﻺ": 4683,
      "ﻻ": 4684,
      "ﻼ": 4685,
      "１": 4686,
      "２": 4687,
      "３": 4688,
      "４": 4689,
      "５": 4690,
      "６": 4691,
      "８": 4692,
      "ｄ": 4693,
      "ｇ": 4694,
      "ｍ": 4695,
      "ｎ": 4696,
      "ｑ": 4697,
      "ｔ": 4698,
      "ｖ": 4699,
      "ｘ": 4700,
      "𝐂": 4701,
      "𝐅": 4702,
      "𝐆": 4703,
      "𝐇": 4704,
      "𝐈": 4705,
      "𝐍": 4706,
      "𝐔": 4707,
      "𝐗": 4708,
      "𝐚": 4709,
      "𝐛": 4710,
      "𝐜": 4711,
      "𝐝": 4712,
      "𝐞": 4713,
      "𝐠": 4714,
      "𝐩": 4715,
      "𝐫": 4716,
      "𝐬": 4717,
      "𝐳": 4718,
      "𝐷": 4719,
      "𝐸": 4720,
      "𝐺": 4721,
      "𝐾": 4722,
      "𝐿": 4723,
      "𝑁": 4724,
      "𝑃": 4725,
      "𝑅": 4726,
      "𝑆": 4727,
      "𝑉": 4728,
      "𝑍": 4729,
      "𝑎": 4730,
      "𝑐": 4731,
      "𝑑": 4732,
      "𝑒": 4733,
      "𝑓": 4734,
      "𝑖": 4735,
      "𝑗": 4736,
      "𝑛": 4737,
      "𝑞": 4738,
      "𝑟": 4739,
      "𝑡": 4740,
      "𝑢": 4741,
      "𝑣": 4742,
      "𝑥": 4743,
      "𝑦": 4744,
      "𝒑": 4745,
      "𝒜": 4746,
      "𝒞": 4747,
      "𝒟": 4748,
      "𝒢": 4749,
      "𝒥": 4750,
      "𝒩": 4751,
      "𝒪": 4752,
      "𝒫": 4753,
      "𝒬": 4754,
      "𝒮": 4755,
      "𝒯": 4756,
      "𝒰": 4757,
      "𝒱": 4758,
      "𝒲": 4759,
      "𝒳": 4760,
      "𝒴": 4761,
      "𝒶": 4762,
      "𝓉": 4763,
      "𝓋": 4764,
      "𝓍": 4765,
      "𝓎": 4766,
      "𝓏": 4767,
      "𝓕": 4768,
      "𝓖": 4769,
      "𝓜": 4770,
      "𝓧": 4771,
      "𝓨": 4772,
      "𝔏": 4773,
      "𝔐": 4774,
      "𝔹": 4775,
      "𝔻": 4776,
      "𝔼": 4777,
      "𝔽": 4778,
      "𝕀": 4779,
      "𝕃": 4780,
      "𝕊": 4781,
      "𝕋": 4782,
      "𝕌": 4783,
      "𝕍": 4784,
      "𝕎": 4785,
      "𝚲": 4786,
      "𝛂": 4787,
      "𝛃": 4788,
      "𝛅": 4789,
      "𝛆": 4790,
      "𝛈": 4791,
      "𝛉": 4792,
      "𝛼": 4793,
      "𝛽": 4794,
      "𝛾": 4795,
      "𝛿": 4796,
      "𝜀": 4797,
      "𝜂": 4798,
      "𝜃": 4799,
      "𝜅": 4800,
      "𝜇": 4801,
      "𝜎": 4802,
      "𝜏": 4803,
      "𝜑": 4804,
      "𝜒": 4805,
      "𝜖": 4806,
      "𝜗": 4807,
      "𝜙": 4808,
      "𝜽": 4809,
      "𝝳": 4810,
      "𝞪": 4811,
      "𝟙": 4812,
      "th": 4813,
      "in": 4814,
      "re": 4815,
      "on": 4816,
      "an": 4817,
      "ti": 4818,
      "the": 4819,
      "en": 4820,
      "al": 4821,
      "er": 4822,
      "ed": 4823,
      "or": 4824,
      "es": 4825,
      "at": 4826,
      "as": 4827,
      "of": 4828,
      "is": 4829,
      "and": 4830,
      "tion": 4831,
      "ar": 4832,
      "to": 4833,
      "ro": 4834,
      "ic": 4835,
      "ing": 4836,
      "ac": 4837,
      "co": 4838,
      "st": 4839,
      "ent": 4840,
      "le": 4841,
      "it": 4842,
      "se": 4843,
      "de": 4844,
      "ve": 4845,
      "ation": 4846,
      "ly": 4847,
      "ec": 4848,
      "us": 4849,
      "si": 4850,
      "vi": 4851,
      "we": 4852,
      "for": 4853,
      "ul": 4854,
      "un": 4855,
      "ce": 4856,
      "res": 4857,
      "ur": 4858,
      "be": 4859,
      "lo": 4860,
      "wi": 4861,
      "di": 4862,
      "mp": 4863,
      "ch": 4864,
      "con": 4865,
      "pro": 4866,
      "me": 4867,
      "with": 4868,
      "ag": 4869,
      "mo": 4870,
      "ho": 4871,
      "tr": 4872,
      "ter": 4873,
      "ab": 4874,
      "il": 4875,
      "po": 4876,
      "are": 4877,
      "ig": 4878,
      "su": 4879,
      "ad": 4880,
      "ati": 4881,
      "ment": 4882,
      "no": 4883,
      "ut": 4884,
      "ver": 4885,
      "ex": 4886,
      "ts": 4887,
      "so": 4888,
      "that": 4889,
      "20": 4890,
      "ap": 4891,
      "ity": 4892,
      "ll": 4893,
      "am": 4894,
      "li": 4895,
      "ted": 4896,
      "ma": 4897,
      "was": 4898,
      "per": 4899,
      "ate": 4900,
      "ated": 4901,
      "he": 4902,
      "ir": 4903,
      "cl": 4904,
      "sp": 4905,
      "qu": 4906,
      "ff": 4907,
      "et": 4908,
      "te": 4909,
      "by": 4910,
      "tic": 4911,
      "du": 4912,
      "were": 4913,
      "id": 4914,
      "ol": 4915,
      "um": 4916,
      "ther": 4917,
      "im": 4918,
      "inf": 4919,
      "dis": 4920,
      "age": 4921,
      "gen": 4922,
      "wh": 4923,
      "vir": 4924,
      "ne": 4925,
      "do": 4926,
      "rom": 4927,
      "19": 4928,
      "ents": 4929,
      "this": 4930,
      "use": 4931,
      "if": 4932,
      "ess": 4933,
      "em": 4934,
      "ical": 4935,
      "ud": 4936,
      "ain": 4937,
      "der": 4938,
      "sy": 4939,
      "ase": 4940,
      "ci": 4941,
      "from": 4942,
      "igh": 4943,
      "pre": 4944,
      "comp": 4945,
      "ha": 4946,
      "ure": 4947,
      "ri": 4948,
      "ine": 4949,
      "ren": 4950,
      "ant": 4951,
      "pati": 4952,
      "pl": 4953,
      "ay": 4954,
      "vid": 4955,
      "str": 4956,
      "tive": 4957,
      "par": 4958,
      "all": 4959,
      "od": 4960,
      "pres": 4961,
      "ct": 4962,
      "med": 4963,
      "able": 4964,
      "fo": 4965,
      "ge": 4966,
      "not": 4967,
      "com": 4968,
      "pe": 4969,
      "up": 4970,
      "ack": 4971,
      "est": 4972,
      "low": 4973,
      "ich": 4974,
      "infec": 4975,
      "ations": 4976,
      "ort": 4977,
      "ph": 4978,
      "00": 4979,
      "cre": 4980,
      "sion": 4981,
      "cell": 4982,
      "sis": 4983,
      "patients": 4984,
      "act": 4985,
      "resp": 4986,
      "cont": 4987,
      "can": 4988,
      "tions": 4989,
      "ers": 4990,
      "ence": 4991,
      "out": 4992,
      "ug": 4993,
      "have": 4994,
      "imp": 4995,
      "ten": 4996,
      "iz": 4997,
      "covid": 4998,
      "virus": 4999,
      "sho": 5000,
      "val": 5001,
      "min": 5002,
      "bo": 5003,
      "ser": 5004,
      "ib": 5005,
      "which": 5006,
      "ans": 5007,
      "ke": 5008,
      "duc": 5009,
      "pr": 5010,
      "cy": 5011,
      "ally": 5012,
      "log": 5013,
      "ous": 5014,
      "red": 5015,
      "ach": 5016,
      "alth": 5017,
      "inter": 5018,
      "ding": 5019,
      "form": 5020,
      "gn": 5021,
      "cor": 5022,
      "sa": 5023,
      "anti": 5024,
      "wor": 5025,
      "one": 5026,
      "ven": 5027,
      "fe": 5028,
      "stud": 5029,
      "ary": 5030,
      "ies": 5031,
      "high": 5032,
      "ion": 5033,
      "10": 5034,
      "ory": 5035,
      "ars": 5036,
      "und": 5037,
      "dat": 5038,
      "other": 5039,
      "has": 5040,
      "mon": 5041,
      "ific": 5042,
      "eff": 5043,
      "ved": 5044,
      "ance": 5045,
      "uld": 5046,
      "more": 5047,
      "gr": 5048,
      "diff": 5049,
      "op": 5050,
      "ors": 5051,
      "pack": 5052,
      "these": 5053,
      "ass": 5054,
      "spec": 5055,
      "ong": 5056,
      "ased": 5057,
      "package": 5058,
      "ari": 5059,
      "mic": 5060,
      "ob": 5061,
      "wo": 5062,
      "bet": 5063,
      "soci": 5064,
      "usepackage": 5065,
      "des": 5066,
      "lu": 5067,
      "tec": 5068,
      "also": 5069,
      "reg": 5070,
      "man": 5071,
      "rel": 5072,
      "gro": 5073,
      "ative": 5074,
      "study": 5075,
      "mun": 5076,
      "health": 5077,
      "our": 5078,
      "bi": 5079,
      "del": 5080,
      "lic": 5081,
      "sign": 5082,
      "cent": 5083,
      "ty": 5084,
      "end": 5085,
      "por": 5086,
      "ip": 5087,
      "aly": 5088,
      "cr": 5089,
      "ia": 5090,
      "wn": 5091,
      "ms": 5092,
      "used": 5093,
      "tiv": 5094,
      "fig": 5095,
      "ases": 5096,
      "data": 5097,
      "been": 5098,
      "eren": 5099,
      "over": 5100,
      "na": 5101,
      "enti": 5102,
      "ugh": 5103,
      "ath": 5104,
      "12": 5105,
      "prote": 5106,
      "acc": 5107,
      "may": 5108,
      "fi": 5109,
      "incl": 5110,
      "resul": 5111,
      "differen": 5112,
      "there": 5113,
      "cul": 5114,
      "their": 5115,
      "cov": 5116,
      "vel": 5117,
      "af": 5118,
      "tre": 5119,
      "fin": 5120,
      "ting": 5121,
      "dise": 5122,
      "pt": 5123,
      "als": 5124,
      "cells": 5125,
      "ber": 5126,
      "respon": 5127,
      "ates": 5128,
      "analy": 5129,
      "ace": 5130,
      "iti": 5131,
      "ces": 5132,
      "using": 5133,
      "work": 5134,
      "effec": 5135,
      "trans": 5136,
      "sub": 5137,
      "ction": 5138,
      "ta": 5139,
      "ca": 5140,
      "incre": 5141,
      "ep": 5142,
      "protein": 5143,
      "sur": 5144,
      "ween": 5145,
      "ility": 5146,
      "between": 5147,
      "les": 5148,
      "its": 5149,
      "atory": 5150,
      "cal": 5151,
      "dies": 5152,
      "cur": 5153,
      "ub": 5154,
      "peri": 5155,
      "tim": 5156,
      "mar": 5157,
      "such": 5158,
      "ang": 5159,
      "cri": 5160,
      "than": 5161,
      "valu": 5162,
      "dur": 5163,
      "el": 5164,
      "model": 5165,
      "sars": 5166,
      "infection": 5167,
      "fir": 5168,
      "ree": 5169,
      "dic": 5170,
      "time": 5171,
      "au": 5172,
      "201": 5173,
      "hy": 5174,
      "stem": 5175,
      "ams": 5176,
      "br": 5177,
      "group": 5178,
      "ds": 5179,
      "ast": 5180,
      "av": 5181,
      "int": 5182,
      "under": 5183,
      "vari": 5184,
      "ris": 5185,
      "pos": 5186,
      "olog": 5187,
      "ight": 5188,
      "sup": 5189,
      "coun": 5190,
      "system": 5191,
      "level": 5192,
      "partic": 5193,
      "includ": 5194,
      "who": 5195,
      "ble": 5196,
      "velo": 5197,
      "cu": 5198,
      "immun": 5199,
      "clin": 5200,
      "stu": 5201,
      "present": 5202,
      "inv": 5203,
      "sh": 5204,
      "but": 5205,
      "disease": 5206,
      "num": 5207,
      "fol": 5208,
      "2020": 5209,
      "ating": 5210,
      "care": 5211,
      "ays": 5212,
      "signific": 5213,
      "during": 5214,
      "most": 5215,
      "col": 5216,
      "dr": 5217,
      "cle": 5218,
      "whe": 5219,
      "mil": 5220,
      "200": 5221,
      "mis": 5222,
      "velop": 5223,
      "fact": 5224,
      "viral": 5225,
      "requ": 5226,
      "after": 5227,
      "mit": 5228,
      "set": 5229,
      "dition": 5230,
      "ial": 5231,
      "ments": 5232,
      "bin": 5233,
      "cer": 5234,
      "arch": 5235,
      "develop": 5236,
      "usepackageams": 5237,
      "ures": 5238,
      "repor": 5239,
      "ulation": 5240,
      "activ": 5241,
      "main": 5242,
      "car": 5243,
      "eng": 5244,
      "posi": 5245,
      "significant": 5246,
      "two": 5247,
      "om": 5248,
      "appro": 5249,
      "based": 5250,
      "show": 5251,
      "11": 5252,
      "stru": 5253,
      "studies": 5254,
      "ak": 5255,
      "associ": 5256,
      "fore": 5257,
      "they": 5258,
      "port": 5259,
      "sequ": 5260,
      "hosp": 5261,
      "samp": 5262,
      "risk": 5263,
      "tho": 5264,
      "gener": 5265,
      "will": 5266,
      "ater": 5267,
      "ye": 5268,
      "15": 5269,
      "ses": 5270,
      "ular": 5271,
      "hum": 5272,
      "results": 5273,
      "ital": 5274,
      "ants": 5275,
      "treat": 5276,
      "fic": 5277,
      "howe": 5278,
      "however": 5279,
      "mal": 5280,
      "search": 5281,
      "side": 5282,
      "clinical": 5283,
      "had": 5284,
      "ra": 5285,
      "indi": 5286,
      "some": 5287,
      "follow": 5288,
      "thod": 5289,
      "fun": 5290,
      "ared": 5291,
      "contro": 5292,
      "ust": 5293,
      "ability": 5294,
      "cess": 5295,
      "ist": 5296,
      "docu": 5297,
      "well": 5298,
      "path": 5299,
      "only": 5300,
      "ile": 5301,
      "pop": 5302,
      "number": 5303,
      "ality": 5304,
      "ck": 5305,
      "different": 5306,
      "test": 5307,
      "ized": 5308,
      "ss": 5309,
      "identi": 5310,
      "both": 5311,
      "cases": 5312,
      "14": 5313,
      "like": 5314,
      "mul": 5315,
      "when": 5316,
      "ational": 5317,
      "document": 5318,
      "gg": 5319,
      "ple": 5320,
      "13": 5321,
      "ail": 5322,
      "vacc": 5323,
      "analysis": 5324,
      "each": 5325,
      "acter": 5326,
      "reported": 5327,
      "tes": 5328,
      "os": 5329,
      "non": 5330,
      "ines": 5331,
      "pand": 5332,
      "iv": 5333,
      "table": 5334,
      "thro": 5335,
      "meas": 5336,
      "lec": 5337,
      "ish": 5338,
      "la": 5339,
      "ard": 5340,
      "into": 5341,
      "line": 5342,
      "aff": 5343,
      "first": 5344,
      "ill": 5345,
      "ung": 5346,
      "ld": 5347,
      "sti": 5348,
      "ide": 5349,
      "emic": 5350,
      "fur": 5351,
      "jec": 5352,
      "ties": 5353,
      "tain": 5354,
      "expres": 5355,
      "very": 5356,
      "formation": 5357,
      "ite": 5358,
      "trib": 5359,
      "treatment": 5360,
      "comple": 5361,
      "pub": 5362,
      "ew": 5363,
      "addition": 5364,
      "could": 5365,
      "research": 5366,
      "ful": 5367,
      "new": 5368,
      "ced": 5369,
      "mpto": 5370,
      "fer": 5371,
      "patient": 5372,
      "specific": 5373,
      "ens": 5374,
      "obser": 5375,
      "oc": 5376,
      "ie": 5377,
      "detec": 5378,
      "ute": 5379,
      "kno": 5380,
      "further": 5381,
      "pandemic": 5382,
      "arg": 5383,
      "pec": 5384,
      "fied": 5385,
      "dep": 5386,
      "16": 5387,
      "import": 5388,
      "produc": 5389,
      "where": 5390,
      "figure": 5391,
      "tical": 5392,
      "ution": 5393,
      "view": 5394,
      "found": 5395,
      "experi": 5396,
      "vidu": 5397,
      "org": 5398,
      "human": 5399,
      "individu": 5400,
      "han": 5401,
      "control": 5402,
      "associated": 5403,
      "ici": 5404,
      "sed": 5405,
      "action": 5406,
      "go": 5407,
      "need": 5408,
      "stand": 5409,
      "gene": 5410,
      "gin": 5411,
      "gi": 5412,
      "particip": 5413,
      "hib": 5414,
      "men": 5415,
      "18": 5416,
      "cap": 5417,
      "positive": 5418,
      "related": 5419,
      "medi": 5420,
      "sing": 5421,
      "ange": 5422,
      "25": 5423,
      "ization": 5424,
      "rece": 5425,
      "phy": 5426,
      "arge": 5427,
      "atic": 5428,
      "ev": 5429,
      "read": 5430,
      "due": 5431,
      "rna": 5432,
      "while": 5433,
      "including": 5434,
      "fr": 5435,
      "ign": 5436,
      "amp": 5437,
      "pri": 5438,
      "ature": 5439,
      "mb": 5440,
      "tial": 5441,
      "should": 5442,
      "indic": 5443,
      "app": 5444,
      "poten": 5445,
      "higher": 5446,
      "vis": 5447,
      "struct": 5448,
      "amin": 5449,
      "bio": 5450,
      "30": 5451,
      "son": 5452,
      "method": 5453,
      "plic": 5454,
      "17": 5455,
      "nor": 5456,
      "ves": 5457,
      "through": 5458,
      "tra": 5459,
      "blo": 5460,
      "dro": 5461,
      "hospital": 5462,
      "sever": 5463,
      "mission": 5464,
      "tal": 5465,
      "process": 5466,
      "less": 5467,
      "ological": 5468,
      "simil": 5469,
      "ities": 5470,
      "sympto": 5471,
      "math": 5472,
      "inte": 5473,
      "reduc": 5474,
      "enz": 5475,
      "tis": 5476,
      "those": 5477,
      "respir": 5478,
      "formed": 5479,
      "function": 5480,
      "ded": 5481,
      "sugg": 5482,
      "amm": 5483,
      "diag": 5484,
      "viruses": 5485,
      "mi": 5486,
      "air": 5487,
      "king": 5488,
      "50": 5489,
      "influ": 5490,
      "ving": 5491,
      "mental": 5492,
      "among": 5493,
      "bre": 5494,
      "arly": 5495,
      "vere": 5496,
      "ps": 5497,
      "sco": 5498,
      "long": 5499,
      "cd": 5500,
      "curren": 5501,
      "24": 5502,
      "led": 5503,
      "ning": 5504,
      "many": 5505,
      "compared": 5506,
      "tech": 5507,
      "vic": 5508,
      "centr": 5509,
      "diagno": 5510,
      "therap": 5511,
      "multi": 5512,
      "information": 5513,
      "ness": 5514,
      "sive": 5515,
      "ateg": 5516,
      "respiratory": 5517,
      "ages": 5518,
      "requi": 5519,
      "levels": 5520,
      "any": 5521,
      "important": 5522,
      "social": 5523,
      "sure": 5524,
      "syn": 5525,
      "cus": 5526,
      "vious": 5527,
      "type": 5528,
      "countr": 5529,
      "increased": 5530,
      "infected": 5531,
      "public": 5532,
      "ety": 5533,
      "case": 5534,
      "about": 5535,
      "severe": 5536,
      "rs": 5537,
      "response": 5538,
      "bec": 5539,
      "bed": 5540,
      "avail": 5541,
      "infl": 5542,
      "population": 5543,
      "sen": 5544,
      "sin": 5545,
      "ext": 5546,
      "inhib": 5547,
      "sible": 5548,
      "sch": 5549,
      "ild": 5550,
      "ogen": 5551,
      "usion": 5552,
      "rate": 5553,
      "shown": 5554,
      "cyto": 5555,
      "descri": 5556,
      "gu": 5557,
      "ef": 5558,
      "tively": 5559,
      "organ": 5560,
      "three": 5561,
      "ual": 5562,
      "micro": 5563,
      "tern": 5564,
      "rect": 5565,
      "within": 5566,
      "deter": 5567,
      "vers": 5568,
      "days": 5569,
      "class": 5570,
      "commun": 5571,
      "ze": 5572,
      "ural": 5573,
      "then": 5574,
      "ks": 5575,
      "sel": 5576,
      "assess": 5577,
      "aining": 5578,
      "activity": 5579,
      "limit": 5580,
      "again": 5581,
      "den": 5582,
      "inc": 5583,
      "ques": 5584,
      "ough": 5585,
      "ona": 5586,
      "previous": 5587,
      "typ": 5588,
      "tics": 5589,
      "inflamm": 5590,
      "imal": 5591,
      "char": 5592,
      "depend": 5593,
      "order": 5594,
      "come": 5595,
      "beca": 5596,
      "ress": 5597,
      "21": 5598,
      "respec": 5599,
      "nec": 5600,
      "neg": 5601,
      "current": 5602,
      "predic": 5603,
      "effect": 5604,
      "region": 5605,
      "post": 5606,
      "observed": 5607,
      "fac": 5608,
      "secon": 5609,
      "impro": 5610,
      "would": 5611,
      "ily": 5612,
      "tt": 5613,
      "mer": 5614,
      "ople": 5615,
      "prim": 5616,
      "lead": 5617,
      "23": 5618,
      "drug": 5619,
      "child": 5620,
      "dist": 5621,
      "evalu": 5622,
      "expression": 5623,
      "people": 5624,
      "grap": 5625,
      "rest": 5626,
      "yo": 5627,
      "similar": 5628,
      "gre": 5629,
      "day": 5630,
      "them": 5631,
      "sm": 5632,
      "showed": 5633,
      "being": 5634,
      "second": 5635,
      "100": 5636,
      "emp": 5637,
      "lin": 5638,
      "clo": 5639,
      "potential": 5640,
      "lish": 5641,
      "years": 5642,
      "40": 5643,
      "chang": 5644,
      "nu": 5645,
      "ric": 5646,
      "eg": 5647,
      "eu": 5648,
      "part": 5649,
      "person": 5650,
      "provid": 5651,
      "ody": 5652,
      "bal": 5653,
      "initi": 5654,
      "ii": 5655,
      "net": 5656,
      "ox": 5657,
      "iter": 5658,
      "22": 5659,
      "immune": 5660,
      "samples": 5661,
      "way": 5662,
      "ane": 5663,
      "approach": 5664,
      "tig": 5665,
      "equ": 5666,
      "mem": 5667,
      "national": 5668,
      "available": 5669,
      "review": 5670,
      "ters": 5671,
      "period": 5672,
      "acro": 5673,
      "groups": 5674,
      "because": 5675,
      "ism": 5676,
      "neu": 5677,
      "cular": 5678,
      "dy": 5679,
      "performed": 5680,
      "mec": 5681,
      "face": 5682,
      "temp": 5683,
      "tran": 5684,
      "effects": 5685,
      "against": 5686,
      "symptoms": 5687,
      "body": 5688,
      "recent": 5689,
      "auth": 5690,
      "ude": 5691,
      "medical": 5692,
      "glo": 5693,
      "participants": 5694,
      "corona": 5695,
      "proteins": 5696,
      "mat": 5697,
      "mark": 5698,
      "therefore": 5699,
      "negative": 5700,
      "ture": 5701,
      "factors": 5702,
      "lected": 5703,
      "character": 5704,
      "thus": 5705,
      "increase": 5706,
      "several": 5707,
      "til": 5708,
      "invol": 5709,
      "pti": 5710,
      "ived": 5711,
      "reco": 5712,
      "cis": 5713,
      "common": 5714,
      "ences": 5715,
      "following": 5716,
      "estim": 5717,
      "although": 5718,
      "atis": 5719,
      "ently": 5720,
      "measure": 5721,
      "uni": 5722,
      "same": 5723,
      "ound": 5724,
      "total": 5725,
      "95": 5726,
      "mechan": 5727,
      "acy": 5728,
      "provi": 5729,
      "affec": 5730,
      "combin": 5731,
      "erg": 5732,
      "protec": 5733,
      "lung": 5734,
      "da": 5735,
      "acti": 5736,
      "plas": 5737,
      "down": 5738,
      "tri": 5739,
      "ame": 5740,
      "support": 5741,
      "lower": 5742,
      "duce": 5743,
      "resi": 5744,
      "stit": 5745,
      "ency": 5746,
      "obtain": 5747,
      "wee": 5748,
      "death": 5749,
      "large": 5750,
      "pcr": 5751,
      "finding": 5752,
      "ically": 5753,
      "decre": 5754,
      "zed": 5755,
      "26": 5756,
      "28": 5757,
      "development": 5758,
      "isol": 5759,
      "induc": 5760,
      "infections": 5761,
      "evid": 5762,
      "leng": 5763,
      "vention": 5764,
      "fy": 5765,
      "role": 5766,
      "abor": 5767,
      "ele": 5768,
      "individuals": 5769,
      "compar": 5770,
      "ited": 5771,
      "inves": 5772,
      "mole": 5773,
      "69": 5774,
      "ina": 5775,
      "sider": 5776,
      "examp": 5777,
      "small": 5778,
      "blood": 5779,
      "countries": 5780,
      "hip": 5781,
      "investig": 5782,
      "ately": 5783,
      "confir": 5784,
      "27": 5785,
      "hel": 5786,
      "rele": 5787,
      "accor": 5788,
      "sit": 5789,
      "consider": 5790,
      "000": 5791,
      "29": 5792,
      "mean": 5793,
      "omic": 5794,
      "poly": 5795,
      "break": 5796,
      "que": 5797,
      "defin": 5798,
      "fs": 5799,
      "did": 5800,
      "without": 5801,
      "jor": 5802,
      "pi": 5803,
      "significantly": 5804,
      "how": 5805,
      "design": 5806,
      "ml": 5807,
      "ns": 5808,
      "pathogen": 5809,
      "2019": 5810,
      "known": 5811,
      "demon": 5812,
      "begin": 5813,
      "gree": 5814,
      "prof": 5815,
      "identified": 5816,
      "demonstr": 5817,
      "epide": 5818,
      "fication": 5819,
      "sist": 5820,
      "strateg": 5821,
      "ger": 5822,
      "strain": 5823,
      "contin": 5824,
      "uc": 5825,
      "ben": 5826,
      "even": 5827,
      "included": 5828,
      "met": 5829,
      "normal": 5830,
      "acid": 5831,
      "see": 5832,
      "mort": 5833,
      "graph": 5834,
      "fam": 5835,
      "play": 5836,
      "given": 5837,
      "oid": 5838,
      "value": 5839,
      "state": 5840,
      "concentr": 5841,
      "major": 5842,
      "since": 5843,
      "phys": 5844,
      "likely": 5845,
      "children": 5846,
      "enza": 5847,
      "acute": 5848,
      "bacter": 5849,
      "vaccine": 5850,
      "mut": 5851,
      "models": 5852,
      "particular": 5853,
      "world": 5854,
      "sample": 5855,
      "ics": 5856,
      "host": 5857,
      "surve": 5858,
      "allow": 5859,
      "occur": 5860,
      "binding": 5861,
      "respectively": 5862,
      "logy": 5863,
      "cs": 5864,
      "influenza": 5865,
      "possible": 5866,
      "conside": 5867,
      "considered": 5868,
      "ons": 5869,
      "values": 5870,
      "pur": 5871,
      "ards": 5872,
      "sto": 5873,
      "ult": 5874,
      "direct": 5875,
      "posed": 5876,
      "mu": 5877,
      "before": 5878,
      "perform": 5879,
      "mortality": 5880,
      "active": 5881,
      "ption": 5882,
      "continu": 5883,
      "inhibit": 5884,
      "37": 5885,
      "interest": 5886,
      "sus": 5887,
      "arm": 5888,
      "according": 5889,
      "servic": 5890,
      "ner": 5891,
      "xim": 5892,
      "flu": 5893,
      "viron": 5894,
      "comes": 5895,
      "exp": 5896,
      "environ": 5897,
      "cardi": 5898,
      "transmission": 5899,
      "impact": 5900,
      "cing": 5901,
      "remain": 5902,
      "diseases": 5903,
      "changes": 5904,
      "35": 5905,
      "complex": 5906,
      "frequ": 5907,
      "abs": 5908,
      "mm": 5909,
      "general": 5910,
      "arget": 5911,
      "distrib": 5912,
      "represent": 5913,
      "actions": 5914,
      "target": 5915,
      "evidence": 5916,
      "early": 5917,
      "lear": 5918,
      "example": 5919,
      "recept": 5920,
      "cat": 5921,
      "pat": 5922,
      "ained": 5923,
      "199": 5924,
      "py": 5925,
      "described": 5926,
      "bu": 5927,
      "minis": 5928,
      "inal": 5929,
      "bility": 5930,
      "kin": 5931,
      "loc": 5932,
      "vant": 5933,
      "self": 5934,
      "sci": 5935,
      "result": 5936,
      "plication": 5937,
      "tur": 5938,
      "econ": 5939,
      "ator": 5940,
      "wer": 5941,
      "ition": 5942,
      "vo": 5943,
      "nucle": 5944,
      "ables": 5945,
      "coronavirus": 5946,
      "beha": 5947,
      "ome": 5948,
      "change": 5949,
      "inflammatory": 5950,
      "outbreak": 5951,
      "oper": 5952,
      "ditions": 5953,
      "my": 5954,
      "provide": 5955,
      "methods": 5956,
      "art": 5957,
      "ni": 5958,
      "ology": 5959,
      "behavi": 5960,
      "dependent": 5961,
      "testing": 5962,
      "tivity": 5963,
      "vol": 5964,
      "60": 5965,
      "measures": 5966,
      "contrib": 5967,
      "conditions": 5968,
      "mice": 5969,
      "matic": 5970,
      "statis": 5971,
      "onic": 5972,
      "hol": 5973,
      "know": 5974,
      "local": 5975,
      "sugges": 5976,
      "might": 5977,
      "cles": 5978,
      "vent": 5979,
      "mes": 5980,
      "agement": 5981,
      "month": 5982,
      "34": 5983,
      "spread": 5984,
      "network": 5985,
      "multiple": 5986,
      "verse": 5987,
      "four": 5988,
      "ste": 5989,
      "range": 5990,
      "determin": 5991,
      "ade": 5992,
      "medic": 5993,
      "inten": 5994,
      "her": 5995,
      "hand": 5996,
      "relations": 5997,
      "tro": 5998,
      "report": 5999,
      "findings": 6000,
      "therapy": 6001,
      "uted": 6002,
      "lack": 6003,
      "pa": 6004,
      "effici": 6005,
      "verage": 6006,
      "life": 6007,
      "yl": 6008,
      "production": 6009,
      "wide": 6010,
      "scal": 6011,
      "tissu": 6012,
      "trac": 6013,
      "endo": 6014,
      "mas": 6015,
      "progr": 6016,
      "minimal": 6017,
      "ise": 6018,
      "ked": 6019,
      "bodies": 6020,
      "psy": 6021,
      "parame": 6022,
      "cost": 6023,
      "techno": 6024,
      "single": 6025,
      "chall": 6026,
      "transp": 6027,
      "obtained": 6028,
      "developed": 6029,
      "mor": 6030,
      "lished": 6031,
      "overn": 6032,
      "sensi": 6033,
      "prior": 6034,
      "rap": 6035,
      "33": 6036,
      "margin": 6037,
      "types": 6038,
      "systems": 6039,
      "point": 6040,
      "suggest": 6041,
      "rt": 6042,
      "effective": 6043,
      "comm": 6044,
      "cour": 6045,
      "asing": 6046,
      "ken": 6047,
      "ination": 6048,
      "individual": 6049,
      "ref": 6050,
      "grow": 6051,
      "polic": 6052,
      "lement": 6053,
      "regul": 6054,
      "ive": 6055,
      "vs": 6056,
      "nas": 6057,
      "proble": 6058,
      "tious": 6059,
      "ori": 6060,
      "put": 6061,
      "detection": 6062,
      "structure": 6063,
      "colle": 6064,
      "cept": 6065,
      "quality": 6066,
      "45": 6067,
      "hc": 6068,
      "key": 6069,
      "improve": 6070,
      "gl": 6071,
      "sol": 6072,
      "relative": 6073,
      "nam": 6074,
      "auto": 6075,
      "size": 6076,
      "prog": 6077,
      "contr": 6078,
      "sym": 6079,
      "stat": 6080,
      "38": 6081,
      "36": 6082,
      "prob": 6083,
      "understand": 6084,
      "ually": 6085,
      "cro": 6086,
      "factor": 6087,
      "made": 6088,
      "another": 6089,
      "48": 6090,
      "feren": 6091,
      "whether": 6092,
      "ways": 6093,
      "membr": 6094,
      "implement": 6095,
      "times": 6096,
      "fon": 6097,
      "educ": 6098,
      "ins": 6099,
      "include": 6100,
      "cial": 6101,
      "genes": 6102,
      "labor": 6103,
      "infectious": 6104,
      "cancer": 6105,
      "arr": 6106,
      "dna": 6107,
      "hypo": 6108,
      "responses": 6109,
      "appe": 6110,
      "sequence": 6111,
      "symb": 6112,
      "bas": 6113,
      "expl": 6114,
      "real": 6115,
      "antibody": 6116,
      "various": 6117,
      "confirmed": 6118,
      "abo": 6119,
      "adminis": 6120,
      "differences": 6121,
      "certain": 6122,
      "subjec": 6123,
      "bro": 6124,
      "psych": 6125,
      "his": 6126,
      "govern": 6127,
      "ga": 6128,
      "ino": 6129,
      "antibodies": 6130,
      "gly": 6131,
      "neum": 6132,
      "tail": 6133,
      "presence": 6134,
      "solu": 6135,
      "ither": 6136,
      "back": 6137,
      "sw": 6138,
      "place": 6139,
      "inde": 6140,
      "recomm": 6141,
      "vas": 6142,
      "oral": 6143,
      "try": 6144,
      "ize": 6145,
      "nat": 6146,
      "help": 6147,
      "across": 6148,
      "domain": 6149,
      "students": 6150,
      "recommend": 6151,
      "expec": 6152,
      "calcul": 6153,
      "antigen": 6154,
      "ry": 6155,
      "aging": 6156,
      "outcomes": 6157,
      "aren": 6158,
      "top": 6159,
      "80": 6160,
      "global": 6161,
      "concer": 6162,
      "ling": 6163,
      "neumon": 6164,
      "strong": 6165,
      "greek": 6166,
      "china": 6167,
      "chr": 6168,
      "hydro": 6169,
      "right": 6170,
      "immuno": 6171,
      "via": 6172,
      "sequences": 6173,
      "ticles": 6174,
      "stric": 6175,
      "ions": 6176,
      "required": 6177,
      "fut": 6178,
      "fonts": 6179,
      "management": 6180,
      "usepackagemath": 6181,
      "sour": 6182,
      "mater": 6183,
      "usepackageamssymb": 6184,
      "usepackageamsfonts": 6185,
      "die": 6186,
      "community": 6187,
      "rsfs": 6188,
      "bsy": 6189,
      "wasy": 6190,
      "usepackagewasy": 6191,
      "usepackageamsbsy": 6192,
      "usepackagewasysym": 6193,
      "12pt": 6194,
      "usepackagemathrsfs": 6195,
      "class12pt": 6196,
      "class12ptminimal": 6197,
      "usepackageamsmath": 6198,
      "ledge": 6199,
      "cons": 6200,
      "supple": 6201,
      "dside": 6202,
      "dsidemargin": 6203,
      "upgreek": 6204,
      "setleng": 6205,
      "tw": 6206,
      "thoddsidemargin": 6207,
      "69pt": 6208,
      "setlengthoddsidemargin": 6209,
      "usepackageupgreek": 6210,
      "rates": 6211,
      "primary": 6212,
      "induced": 6213,
      "instit": 6214,
      "ctions": 6215,
      "mg": 6216,
      "ially": 6217,
      "pneumon": 6218,
      "activation": 6219,
      "hyper": 6220,
      "tically": 6221,
      "documentclass12ptminimal": 6222,
      "epi": 6223,
      "diagnosis": 6224,
      "atten": 6225,
      "access": 6226,
      "characteris": 6227,
      "rapid": 6228,
      "emer": 6229,
      "31": 6230,
      "bs": 6231,
      "future": 6232,
      "healthcare": 6233,
      "identify": 6234,
      "reduced": 6235,
      "often": 6236,
      "relationship": 6237,
      "don": 6238,
      "expo": 6239,
      "pan": 6240,
      "isms": 6241,
      "cir": 6242,
      "treated": 6243,
      "what": 6244,
      "emo": 6245,
      "version": 6246,
      "detected": 6247,
      "ential": 6248,
      "just": 6249,
      "pepti": 6250,
      "year": 6251,
      "contact": 6252,
      "survey": 6253,
      "stress": 6254,
      "epidemic": 6255,
      "term": 6256,
      "home": 6257,
      "sum": 6258,
      "cc": 6259,
      "step": 6260,
      "limited": 6261,
      "scre": 6262,
      "conduc": 6263,
      "vit": 6264,
      "resour": 6265,
      "discus": 6266,
      "emplo": 6267,
      "pap": 6268,
      "tration": 6269,
      "learning": 6270,
      "aim": 6271,
      "ression": 6272,
      "deli": 6273,
      "sal": 6274,
      "ators": 6275,
      "light": 6276,
      "ero": 6277,
      "clear": 6278,
      "tox": 6279,
      "short": 6280,
      "overall": 6281,
      "ening": 6282,
      "family": 6283,
      "mid": 6284,
      "additional": 6285,
      "species": 6286,
      "sc": 6287,
      "still": 6288,
      "estab": 6289,
      "variables": 6290,
      "assi": 6291,
      "standard": 6292,
      "knowledge": 6293,
      "ably": 6294,
      "proced": 6295,
      "above": 6296,
      "section": 6297,
      "70": 6298,
      "land": 6299,
      "idence": 6300,
      "chem": 6301,
      "39": 6302,
      "pul": 6303,
      "lymp": 6304,
      "pneumonia": 6305,
      "issu": 6306,
      "here": 6307,
      "quanti": 6308,
      "conf": 6309,
      "begindocument": 6310,
      "remo": 6311,
      "tested": 6312,
      "ano": 6313,
      "water": 6314,
      "examin": 6315,
      "food": 6316,
      "ace2": 6317,
      "eth": 6318,
      "wa": 6319,
      "print": 6320,
      "cytok": 6321,
      "versity": 6322,
      "provided": 6323,
      "demonstrated": 6324,
      "collected": 6325,
      "economic": 6326,
      "average": 6327,
      "espec": 6328,
      "ists": 6329,
      "preval": 6330,
      "32": 6331,
      "reve": 6332,
      "question": 6333,
      "rand": 6334,
      "hr": 6335,
      "previously": 6336,
      "ian": 6337,
      "either": 6338,
      "conducted": 6339,
      "mod": 6340,
      "emergen": 6341,
      "assay": 6342,
      "cas": 6343,
      "radi": 6344,
      "score": 6345,
      "ko": 6346,
      "distribution": 6347,
      "least": 6348,
      "fail": 6349,
      "suff": 6350,
      "receptor": 6351,
      "ue": 6352,
      "increasing": 6353,
      "author": 6354,
      "promo": 6355,
      "theli": 6356,
      "signal": 6357,
      "cause": 6358,
      "tests": 6359,
      "dri": 6360,
      "critical": 6361,
      "tric": 6362,
      "cho": 6363,
      "take": 6364,
      "exten": 6365,
      "aged": 6366,
      "presented": 6367,
      "phase": 6368,
      "optim": 6369,
      "ied": 6370,
      "better": 6371,
      "ifn": 6372,
      "especially": 6373,
      "scale": 6374,
      "az": 6375,
      "defined": 6376,
      "ice": 6377,
      "recogn": 6378,
      "ped": 6379,
      "necess": 6380,
      "transcri": 6381,
      "hal": 6382,
      "itor": 6383,
      "initial": 6384,
      "exposure": 6385,
      "complete": 6386,
      "enddocument": 6387,
      "hist": 6388,
      "off": 6389,
      "add": 6390,
      "training": 6391,
      "eld": 6392,
      "ason": 6393,
      "pd": 6394,
      "io": 6395,
      "authors": 6396,
      "van": 6397,
      "tool": 6398,
      "membrane": 6399,
      "modi": 6400,
      "physical": 6401,
      "states": 6402,
      "international": 6403,
      "lied": 6404,
      "facil": 6405,
      "classi": 6406,
      "atures": 6407,
      "proto": 6408,
      "ft": 6409,
      "cru": 6410,
      "ense": 6411,
      "hiv": 6412,
      "call": 6413,
      "2018": 6414,
      "proper": 6415,
      "bur": 6416,
      "prevent": 6417,
      "services": 6418,
      "serum": 6419,
      "ward": 6420,
      "load": 6421,
      "concl": 6422,
      "preprint": 6423,
      "pen": 6424,
      "phen": 6425,
      "lock": 6426,
      "areas": 6427,
      "highly": 6428,
      "surface": 6429,
      "ban": 6430,
      "pattern": 6431,
      "flow": 6432,
      "survi": 6433,
      "synthe": 6434,
      "base": 6435,
      "eric": 6436,
      "old": 6437,
      "phil": 6438,
      "setting": 6439,
      "require": 6440,
      "fec": 6441,
      "resist": 6442,
      "tered": 6443,
      "suc": 6444,
      "bar": 6445,
      "orig": 6446,
      "growth": 6447,
      "recor": 6448,
      "dose": 6449,
      "vities": 6450,
      "relation": 6451,
      "temper": 6452,
      "reveal": 6453,
      "drome": 6454,
      "integr": 6455,
      "consist": 6456,
      "culture": 6457,
      "uses": 6458,
      "practi": 6459,
      "lat": 6460,
      "bil": 6461,
      "valid": 6462,
      "does": 6463,
      "months": 6464,
      "supplement": 6465,
      "now": 6466,
      "44": 6467,
      "xi": 6468,
      "site": 6469,
      "achie": 6470,
      "dents": 6471,
      "acts": 6472,
      "syndrome": 6473,
      "let": 6474,
      "75": 6475,
      "liter": 6476,
      "lect": 6477,
      "fil": 6478,
      "asy": 6479,
      "mers": 6480,
      "cytes": 6481,
      "tissue": 6482,
      "90": 6483,
      "shows": 6484,
      "moreover": 6485,
      "att": 6486,
      "bor": 6487,
      "adap": 6488,
      "decis": 6489,
      "aw": 6490,
      "furthermore": 6491,
      "involved": 6492,
      "difference": 6493,
      "reduce": 6494,
      "neuro": 6495,
      "random": 6496,
      "diffic": 6497,
      "accur": 6498,
      "performance": 6499,
      "nal": 6500,
      "perce": 6501,
      "bl": 6502,
      "rati": 6503,
      "must": 6504,
      "situ": 6505,
      "compound": 6506,
      "amo": 6507,
      "benef": 6508,
      "portion": 6509,
      "stic": 6510,
      "reduction": 6511,
      "chronic": 6512,
      "clust": 6513,
      "online": 6514,
      "followed": 6515,
      "count": 6516,
      "molecular": 6517,
      "categ": 6518,
      "ick": 6519,
      "alg": 6520,
      "free": 6521,
      "activities": 6522,
      "46": 6523,
      "ctor": 6524,
      "greater": 6525,
      "women": 6526,
      "parameters": 6527,
      "week": 6528,
      "replication": 6529,
      "dynam": 6530,
      "interaction": 6531,
      "area": 6532,
      "pho": 6533,
      "dig": 6534,
      "arding": 6535,
      "caused": 6536,
      "rit": 6537,
      "drugs": 6538,
      "compon": 6539,
      "49": 6540,
      "prevalence": 6541,
      "concentration": 6542,
      "good": 6543,
      "47": 6544,
      "proposed": 6545,
      "laboratory": 6546,
      "coh": 6547,
      "ai": 6548,
      "fib": 6549,
      "2017": 6550,
      "pression": 6551,
      "excl": 6552,
      "izing": 6553,
      "tral": 6554,
      "strategies": 6555,
      "challeng": 6556,
      "analyses": 6557,
      "terms": 6558,
      "status": 6559,
      "detail": 6560,
      "observ": 6561,
      "stim": 6562,
      "duct": 6563,
      "ventil": 6564,
      "contain": 6565,
      "correspon": 6566,
      "65": 6567,
      "success": 6568,
      "restric": 6569,
      "ession": 6570,
      "ury": 6571,
      "plan": 6572,
      "mitted": 6573,
      "affected": 6574,
      "vaccines": 6575,
      "super": 6576,
      "inj": 6577,
      "scho": 6578,
      "tially": 6579,
      "characteristics": 6580,
      "enzy": 6581,
      "severity": 6582,
      "igg": 6583,
      "ls": 6584,
      "regions": 6585,
      "employ": 6586,
      "saf": 6587,
      "position": 6588,
      "logical": 6589,
      "appropri": 6590,
      "fra": 6591,
      "intro": 6592,
      "moder": 6593,
      "context": 6594,
      "ae": 6595,
      "mix": 6596,
      "lled": 6597,
      "ems": 6598,
      "extr": 6599,
      "grad": 6600,
      "utions": 6601,
      "bon": 6602,
      "much": 6603,
      "fl": 6604,
      "ised": 6605,
      "events": 6606,
      "ference": 6607,
      "intr": 6608,
      "anim": 6609,
      "cm": 6610,
      "subsequ": 6611,
      "vascular": 6612,
      "vaccination": 6613,
      "ats": 6614,
      "seen": 6615,
      "regarding": 6616,
      "criter": 6617,
      "abil": 6618,
      "comparis": 6619,
      "five": 6620,
      "block": 6621,
      "55": 6622,
      "assu": 6623,
      "expected": 6624,
      "ler": 6625,
      "tor": 6626,
      "nur": 6627,
      "icu": 6628,
      "ok": 6629,
      "close": 6630,
      "school": 6631,
      "determined": 6632,
      "safety": 6633,
      "genome": 6634,
      "incub": 6635,
      "macro": 6636,
      "2016": 6637,
      "specif": 6638,
      "sensitivity": 6639,
      "poin": 6640,
      "staff": 6641,
      "died": 6642,
      "daily": 6643,
      "display": 6644,
      "education": 6645,
      "experience": 6646,
      "weeks": 6647,
      "monary": 6648,
      "throm": 6649,
      "novel": 6650,
      "mine": 6651,
      "genetic": 6652,
      "lockdown": 6653,
      "lympho": 6654,
      "communic": 6655,
      "protocol": 6656,
      "association": 6657,
      "plac": 6658,
      "ings": 6659,
      "thir": 6660,
      "elec": 6661,
      "cross": 6662,
      "icity": 6663,
      "dia": 6664,
      "fully": 6665,
      "complic": 6666,
      "43": 6667,
      "oxy": 6668,
      "intervention": 6669,
      "techni": 6670,
      "ulations": 6671,
      "connec": 6672,
      "larg": 6673,
      "few": 6674,
      "spi": 6675,
      "workers": 6676,
      "olution": 6677,
      "stre": 6678,
      "needed": 6679,
      "ax": 6680,
      "environment": 6681,
      "pp": 6682,
      "animals": 6683,
      "around": 6684,
      "gs": 6685,
      "2015": 6686,
      "percent": 6687,
      "particularly": 6688,
      "simp": 6689,
      "bacterial": 6690,
      "features": 6691,
      "ances": 6692,
      "41": 6693,
      "taken": 6694,
      "loss": 6695,
      "therapeu": 6696,
      "lying": 6697,
      "deaths": 6698,
      "proportion": 6699,
      "cellular": 6700,
      "admission": 6701,
      "applied": 6702,
      "ones": 6703,
      "lation": 6704,
      "policy": 6705,
      "media": 6706,
      "vered": 6707,
      "temperature": 6708,
      "uk": 6709,
      "recently": 6710,
      "sof": 6711,
      "though": 6712,
      "every": 6713,
      "resources": 6714,
      "containing": 6715,
      "carri": 6716,
      "condition": 6717,
      "hold": 6718,
      "ergy": 6719,
      "star": 6720,
      "urs": 6721,
      "enced": 6722,
      "prac": 6723,
      "euro": 6724,
      "march": 6725,
      "technology": 6726,
      "chain": 6727,
      "particles": 6728,
      "targe": 6729,
      "relevant": 6730,
      "fusion": 6731,
      "plasma": 6732,
      "agg": 6733,
      "expressed": 6734,
      "desp": 6735,
      "literature": 6736,
      "domin": 6737,
      "approxim": 6738,
      "effic": 6739,
      "utes": 6740,
      "ders": 6741,
      "antiviral": 6742,
      "interactions": 6743,
      "program": 6744,
      "monitor": 6745,
      "pharm": 6746,
      "ible": 6747,
      "susce": 6748,
      "fa": 6749,
      "country": 6750,
      "practice": 6751,
      "dem": 6752,
      "thelial": 6753,
      "government": 6754,
      "outcome": 6755,
      "rh": 6756,
      "usa": 6757,
      "s1": 6758,
      "ious": 6759,
      "amino": 6760,
      "uth": 6761,
      "profession": 6762,
      "scienti": 6763,
      "unt": 6764,
      "inflammation": 6765,
      "selected": 6766,
      "dam": 6767,
      "cies": 6768,
      "suscepti": 6769,
      "best": 6770,
      "objec": 6771,
      "measured": 6772,
      "determine": 6773,
      "phosp": 6774,
      "despite": 6775,
      "focus": 6776,
      "sites": 6777,
      "uary": 6778,
      "trials": 6779,
      "istic": 6780,
      "assessment": 6781,
      "analyzed": 6782,
      "ster": 6783,
      "42": 6784,
      "exis": 6785,
      "necessary": 6786,
      "illness": 6787,
      "htt": 6788,
      "essential": 6789,
      "sions": 6790,
      "tum": 6791,
      "bd": 6792,
      "combination": 6793,
      "decreased": 6794,
      "capac": 6795,
      "received": 6796,
      "lig": 6797,
      "coll": 6798,
      "course": 6799,
      "revealed": 6800,
      "pulmonary": 6801,
      "animal": 6802,
      "reach": 6803,
      "tele": 6804,
      "finally": 6805,
      "indicated": 6806,
      "strains": 6807,
      "personal": 6808,
      "tas": 6809,
      "forms": 6810,
      "paren": 6811,
      "inst": 6812,
      "nf": 6813,
      "appropriate": 6814,
      "nm": 6815,
      "explo": 6816,
      "pose": 6817,
      "transfer": 6818,
      "reli": 6819,
      "itis": 6820,
      "reports": 6821,
      "open": 6822,
      "make": 6823,
      "maint": 6824,
      "lion": 6825,
      "others": 6826,
      "ratio": 6827,
      "2014": 6828,
      "anxi": 6829,
      "ire": 6830,
      "simul": 6831,
      "minim": 6832,
      "consistent": 6833,
      "she": 6834,
      "separ": 6835,
      "whereas": 6836,
      "having": 6837,
      "05": 6838,
      "cris": 6839,
      "unit": 6840,
      "lit": 6841,
      "turn": 6842,
      "andor": 6843,
      "projec": 6844,
      "neutral": 6845,
      "mechanisms": 6846,
      "emergency": 6847,
      "tu": 6848,
      "fem": 6849,
      "jo": 6850,
      "abol": 6851,
      "incidence": 6852,
      "last": 6853,
      "gal": 6854,
      "secondary": 6855,
      "fit": 6856,
      "005": 6857,
      "mus": 6858,
      "introduc": 6859,
      "lip": 6860,
      "spective": 6861,
      "estimated": 6862,
      "trial": 6863,
      "sig": 6864,
      "ws": 6865,
      "sibility": 6866,
      "orith": 6867,
      "algorith": 6868,
      "efficacy": 6869,
      "strategy": 6870,
      "agents": 6871,
      "pic": 6872,
      "gran": 6873,
      "bes": 6874,
      "published": 6875,
      "suggested": 6876,
      "understanding": 6877,
      "ring": 6878,
      "emerg": 6879,
      "pressure": 6880,
      "frame": 6881,
      "decrease": 6882,
      "calculated": 6883,
      "criteria": 6884,
      "currently": 6885,
      "university": 6886,
      "graphic": 6887,
      "populations": 6888,
      "avoid": 6889,
      "contrast": 6890,
      "uti": 6891,
      "gui": 6892,
      "later": 6893,
      "stage": 6894,
      "ot": 6895,
      "index": 6896,
      "memb": 6897,
      "198": 6898,
      "resulting": 6899,
      "quar": 6900,
      "members": 6901,
      "lor": 6902,
      "encing": 6903,
      "adul": 6904,
      "56": 6905,
      "residu": 6906,
      "hypothe": 6907,
      "field": 6908,
      "consis": 6909,
      "medicine": 6910,
      "paper": 6911,
      "subst": 6912,
      "license": 6913,
      "median": 6914,
      "weight": 6915,
      "altern": 6916,
      "anxiety": 6917,
      "europe": 6918,
      "liver": 6919,
      "screening": 6920,
      "ulated": 6921,
      "poor": 6922,
      "jun": 6923,
      "needs": 6924,
      "failure": 6925,
      "plat": 6926,
      "prin": 6927,
      "interven": 6928,
      "hu": 6929,
      "house": 6930,
      "energy": 6931,
      "bri": 6932,
      "points": 6933,
      "functional": 6934,
      "2013": 6935,
      "vement": 6936,
      "mechanism": 6937,
      "directly": 6938,
      "third": 6939,
      "iat": 6940,
      "evaluated": 6941,
      "57": 6942,
      "guidel": 6943,
      "mediated": 6944,
      "fever": 6945,
      "chemical": 6946,
      "las": 6947,
      "reaction": 6948,
      "termin": 6949,
      "full": 6950,
      "sk": 6951,
      "lay": 6952,
      "derived": 6953,
      "decl": 6954,
      "rather": 6955,
      "cum": 6956,
      "ering": 6957,
      "hs": 6958,
      "101": 6959,
      "young": 6960,
      "ear": 6961,
      "toge": 6962,
      "together": 6963,
      "six": 6964,
      "suppor": 6965,
      "get": 6966,
      "rup": 6967,
      "correlation": 6968,
      "evaluation": 6969,
      "wards": 6970,
      "protection": 6971,
      "left": 6972,
      "natural": 6973,
      "existing": 6974,
      "adjust": 6975,
      "capacity": 6976,
      "solution": 6977,
      "scores": 6978,
      "effor": 6979,
      "diagnostic": 6980,
      "tle": 6981,
      "sex": 6982,
      "therapeutic": 6983,
      "oxygen": 6984,
      "ready": 6985,
      "length": 6986,
      "ier": 6987,
      "disorder": 6988,
      "2012": 6989,
      "power": 6990,
      "event": 6991,
      "special": 6992,
      "presents": 6993,
      "independent": 6994,
      "biological": 6995,
      "statistical": 6996,
      "injury": 6997,
      "indu": 6998,
      "leading": 6999,
      "far": 7000,
      "brain": 7001,
      "adults": 7002,
      "prevention": 7003,
      "metabol": 7004,
      "ume": 7005,
      "next": 7006,
      "prep": 7007,
      "final": 7008,
      "kes": 7009,
      "products": 7010,
      "ground": 7011,
      "history": 7012,
      "generated": 7013,
      "constru": 7014,
      "suffici": 7015,
      "mild": 7016,
      "humans": 7017,
      "structural": 7018,
      "68": 7019,
      "har": 7020,
      "become": 7021,
      "healthy": 7022,
      "ww": 7023,
      "older": 7024,
      "2009": 7025,
      "ju": 7026,
      "categor": 7027,
      "aa": 7028,
      "interventions": 7029,
      "aring": 7030,
      "comparison": 7031,
      "instru": 7032,
      "central": 7033,
      "making": 7034,
      "isolation": 7035,
      "ran": 7036,
      "mono": 7037,
      "immunity": 7038,
      "onset": 7039,
      "importance": 7040,
      "frequency": 7041,
      "sep": 7042,
      "mber": 7043,
      "peak": 7044,
      "bers": 7045,
      "problem": 7046,
      "means": 7047,
      "pathogens": 7048,
      "67": 7049,
      "femal": 7050,
      "ids": 7051,
      "rang": 7052,
      "dire": 7053,
      "icians": 7054,
      "ered": 7055,
      "59": 7056,
      "protective": 7057,
      "along": 7058,
      "date": 7059,
      "glyco": 7060,
      "utili": 7061,
      "questions": 7062,
      "broad": 7063,
      "fat": 7064,
      "administration": 7065,
      "enhan": 7066,
      "demo": 7067,
      "influence": 7068,
      "adi": 7069,
      "xiv": 7070,
      "ht": 7071,
      "variable": 7072,
      "gt": 7073,
      "cohort": 7074,
      "poli": 7075,
      "va": 7076,
      "ney": 7077,
      "bul": 7078,
      "2010": 7079,
      "concentrations": 7080,
      "city": 7081,
      "vitro": 7082,
      "source": 7083,
      "zo": 7084,
      "applic": 7085,
      "facilit": 7086,
      "aneous": 7087,
      "own": 7088,
      "assessed": 7089,
      "pass": 7090,
      "adop": 7091,
      "copy": 7092,
      "alle": 7093,
      "nt": 7094,
      "you": 7095,
      "great": 7096,
      "devic": 7097,
      "efficient": 7098,
      "58": 7099,
      "che": 7100,
      "mass": 7101,
      "working": 7102,
      "upon": 7103,
      "lr": 7104,
      "ene": 7105,
      "interesting": 7106,
      "phosph": 7107,
      "decision": 7108,
      "isolated": 7109,
      "highest": 7110,
      "location": 7111,
      "antibio": 7112,
      "intest": 7113,
      "room": 7114,
      "labe": 7115,
      "datab": 7116,
      "maxim": 7117,
      "n1": 7118,
      "established": 7119,
      "affect": 7120,
      "mag": 7121,
      "ights": 7122,
      "yet": 7123,
      "spe": 7124,
      "lection": 7125,
      "cted": 7126,
      "compounds": 7127,
      "provides": 7128,
      "cules": 7129,
      "reason": 7130,
      "err": 7131,
      "approaches": 7132,
      "note": 7133,
      "added": 7134,
      "regression": 7135,
      "subjects": 7136,
      "americ": 7137,
      "np": 7138,
      "ik": 7139,
      "78": 7140,
      "conclusion": 7141,
      "apr": 7142,
      "amine": 7143,
      "processes": 7144,
      "until": 7145,
      "guidelines": 7146,
      "approximately": 7147,
      "supplementary": 7148,
      "lot": 7149,
      "late": 7150,
      "wash": 7151,
      "supp": 7152,
      "relatively": 7153,
      "acqu": 7154,
      "foc": 7155,
      "oti": 7156,
      "rich": 7157,
      "volume": 7158,
      "collection": 7159,
      "tract": 7160,
      "already": 7161,
      "veness": 7162,
      "itation": 7163,
      "bound": 7164,
      "sition": 7165,
      "problems": 7166,
      "cut": 7167,
      "pet": 7168,
      "service": 7169,
      "molecules": 7170,
      "finan": 7171,
      "resistance": 7172,
      "itals": 7173,
      "corresponding": 7174,
      "nano": 7175,
      "sens": 7176,
      "pathway": 7177,
      "beli": 7178,
      "psychological": 7179,
      "delivery": 7180,
      "increases": 7181,
      "surger": 7182,
      "numbers": 7183,
      "cult": 7184,
      "elev": 7185,
      "series": 7186,
      "stri": 7187,
      "teach": 7188,
      "medr": 7189,
      "anes": 7190,
      "001": 7191,
      "specifically": 7192,
      "nel": 7193,
      "medrxiv": 7194,
      "2011": 7195,
      "issues": 7196,
      "usually": 7197,
      "hospitals": 7198,
      "scen": 7199,
      "experiments": 7200,
      "secre": 7201,
      "epidemi": 7202,
      "ired": 7203,
      "53": 7204,
      "cp": 7205,
      "tren": 7206,
      "mention": 7207,
      "macroph": 7208,
      "ein": 7209,
      "peptide": 7210,
      "duration": 7211,
      "ands": 7212,
      "chlor": 7213,
      "feed": 7214,
      "asympto": 7215,
      "oxid": 7216,
      "99": 7217,
      "monitoring": 7218,
      "structures": 7219,
      "aps": 7220,
      "useful": 7221,
      "hen": 7222,
      "microbi": 7223,
      "majority": 7224,
      "afric": 7225,
      "behavior": 7226,
      "spike": 7227,
      "produced": 7228,
      "exer": 7229,
      "hours": 7230,
      "suggests": 7231,
      "thre": 7232,
      "hood": 7233,
      "environmental": 7234,
      "survival": 7235,
      "refer": 7236,
      "glu": 7237,
      "dens": 7238,
      "united": 7239,
      "plate": 7240,
      "million": 7241,
      "mainly": 7242,
      "smo": 7243,
      "consu": 7244,
      "scientific": 7245,
      "artic": 7246,
      "indicate": 7247,
      "heter": 7248,
      "improved": 7249,
      "aspec": 7250,
      "scenari": 7251,
      "xy": 7252,
      "transcription": 7253,
      "additionally": 7254,
      "agen": 7255,
      "homo": 7256,
      "ified": 7257,
      "fici": 7258,
      "entry": 7259,
      "mption": 7260,
      "arily": 7261,
      "potentially": 7262,
      "transport": 7263,
      "procedures": 7264,
      "lim": 7265,
      "advant": 7266,
      "baseline": 7267,
      "ord": 7268,
      "interval": 7269,
      "head": 7270,
      "ventilation": 7271,
      "difficult": 7272,
      "pair": 7273,
      "generation": 7274,
      "lant": 7275,
      "interpre": 7276,
      "agree": 7277,
      "0001": 7278,
      "application": 7279,
      "ctors": 7280,
      "ior": 7281,
      "functions": 7282,
      "72": 7283,
      "heart": 7284,
      "properties": 7285,
      "exhib": 7286,
      "63": 7287,
      "cannot": 7288,
      "dys": 7289,
      "below": 7290,
      "repe": 7291,
      "betes": 7292,
      "assays": 7293,
      "ker": 7294,
      "diabetes": 7295,
      "mig": 7296,
      "atives": 7297,
      "ores": 7298,
      "def": 7299,
      "ficial": 7300,
      "evaluate": 7301,
      "tware": 7302,
      "experimental": 7303,
      "lines": 7304,
      "cin": 7305,
      "depart": 7306,
      "vision": 7307,
      "inhibition": 7308,
      "bid": 7309,
      "bacteria": 7310,
      "cardio": 7311,
      "uded": 7312,
      "elect": 7313,
      "bus": 7314,
      "surg": 7315,
      "run": 7316,
      "developing": 7317,
      "opport": 7318,
      "regulation": 7319,
      "ned": 7320,
      "ont": 7321,
      "opportun": 7322,
      "software": 7323,
      "01": 7324,
      "corpor": 7325,
      "los": 7326,
      "team": 7327,
      "nature": 7328,
      "sd": 7329,
      "enter": 7330,
      "regard": 7331,
      "thrombo": 7332,
      "suggesting": 7333,
      "reference": 7334,
      "april": 7335,
      "practic": 7336,
      "situation": 7337,
      "electr": 7338,
      "pal": 7339,
      "designed": 7340,
      "lling": 7341,
      "mouse": 7342,
      "align": 7343,
      "md": 7344,
      "fold": 7345,
      "challenges": 7346,
      "probability": 7347,
      "cise": 7348,
      "lex": 7349,
      "damage": 7350,
      "tumor": 7351,
      "market": 7352,
      "content": 7353,
      "crisis": 7354,
      "iatric": 7355,
      "https": 7356,
      "alternative": 7357,
      "omy": 7358,
      "images": 7359,
      "ba": 7360,
      "51": 7361,
      "travel": 7362,
      "linear": 7363,
      "respondents": 7364,
      "medium": 7365,
      "activated": 7366,
      "onal": 7367,
      "studied": 7368,
      "buil": 7369,
      "famil": 7370,
      "continuous": 7371,
      "generally": 7372,
      "cytokines": 7373,
      "material": 7374,
      "extrac": 7375,
      "absence": 7376,
      "pregn": 7377,
      "communication": 7378,
      "kg": 7379,
      "space": 7380,
      "ancy": 7381,
      "2008": 7382,
      "remains": 7383,
      "astro": 7384,
      "52": 7385,
      "predict": 7386,
      "residues": 7387,
      "dent": 7388,
      "signaling": 7389,
      "physi": 7390,
      "pm": 7391,
      "lt": 7392,
      "degree": 7393,
      "amount": 7394,
      "nit": 7395,
      "bir": 7396,
      "cyte": 7397,
      "questionna": 7398,
      "wise": 7399,
      "cytokine": 7400,
      "center": 7401,
      "bron": 7402,
      "tation": 7403,
      "enge": 7404,
      "account": 7405,
      "yi": 7406,
      "asymptomatic": 7407,
      "polymer": 7408,
      "similarly": 7409,
      "surgery": 7410,
      "mrna": 7411,
      "mutations": 7412,
      "hence": 7413,
      "whole": 7414,
      "iting": 7415,
      "recru": 7416,
      "2003": 7417,
      "logies": 7418,
      "components": 7419,
      "find": 7420,
      "79": 7421,
      "pts": 7422,
      "approved": 7423,
      "larger": 7424,
      "tives": 7425,
      "seg": 7426,
      "linked": 7427,
      "iness": 7428,
      "selection": 7429,
      "release": 7430,
      "ancing": 7431,
      "moderate": 7432,
      "dimen": 7433,
      "electro": 7434,
      "jan": 7435,
      "agent": 7436,
      "appear": 7437,
      "match": 7438,
      "framework": 7439,
      "ensure": 7440,
      "nsp": 7441,
      "surgical": 7442,
      "vin": 7443,
      "sust": 7444,
      "ampli": 7445,
      "meth": 7446,
      "depression": 7447,
      "iving": 7448,
      "implementation": 7449,
      "qual": 7450,
      "limin": 7451,
      "64": 7452,
      "imaging": 7453,
      "oph": 7454,
      "ides": 7455,
      "enco": 7456,
      "investigated": 7457,
      "causes": 7458,
      "bei": 7459,
      "ges": 7460,
      "surveill": 7461,
      "eral": 7462,
      "challenge": 7463,
      "rsv": 7464,
      "cand": 7465,
      "inform": 7466,
      "doi": 7467,
      "never": 7468,
      "predicted": 7469,
      "pain": 7470,
      "ending": 7471,
      "financial": 7472,
      "patterns": 7473,
      "surveillance": 7474,
      "nc": 7475,
      "researchers": 7476,
      "ore": 7477,
      "meet": 7478,
      "mir": 7479,
      "carried": 7480,
      "vul": 7481,
      "adverse": 7482,
      "controls": 7483,
      "recommended": 7484,
      "conser": 7485,
      "soli": 7486,
      "buff": 7487,
      "pig": 7488,
      "pot": 7489,
      "detect": 7490,
      "princi": 7491,
      "54": 7492,
      "2021": 7493,
      "pto": 7494,
      "zing": 7495,
      "2000": 7496,
      "attention": 7497,
      "inhibitors": 7498,
      "evolution": 7499,
      "synthesis": 7500,
      "article": 7501,
      "complications": 7502,
      "66": 7503,
      "unique": 7504,
      "utro": 7505,
      "origin": 7506,
      "sufficient": 7507,
      "bat": 7508,
      "once": 7509,
      "2007": 7510,
      "noted": 7511,
      "ras": 7512,
      "visual": 7513,
      "zation": 7514,
      "2005": 7515,
      "retro": 7516,
      "concept": 7517,
      "migr": 7518,
      "exper": 7519,
      "distance": 7520,
      "receptors": 7521,
      "stren": 7522,
      "graphy": 7523,
      "cv": 7524,
      "contamin": 7525,
      "writ": 7526,
      "identification": 7527,
      "neutro": 7528,
      "exposed": 7529,
      "pathways": 7530,
      "sets": 7531,
      "enzyme": 7532,
      "rbd": 7533,
      "recovery": 7534,
      "gf": 7535,
      "invas": 7536,
      "ón": 7537,
      "manu": 7538,
      "gml": 7539,
      "institution": 7540,
      "specim": 7541,
      "tional": 7542,
      "2006": 7543,
      "prepared": 7544,
      "streng": 7545,
      "limitations": 7546,
      "chest": 7547,
      "examined": 7548,
      "confirm": 7549,
      "attrib": 7550,
      "eas": 7551,
      "past": 7552,
      "nd": 7553,
      "ann": 7554,
      "mentioned": 7555,
      "hetero": 7556,
      "intestinal": 7557,
      "tru": 7558,
      "done": 7559,
      "income": 7560,
      "safe": 7561,
      "emia": 7562,
      "accuracy": 7563,
      "implic": 7564,
      "dec": 7565,
      "tin": 7566,
      "combined": 7567,
      "cop": 7568,
      "chec": 7569,
      "cry": 7570,
      "digital": 7571,
      "satis": 7572,
      "vector": 7573,
      "resulted": 7574,
      "wild": 7575,
      "organization": 7576,
      "longer": 7577,
      "users": 7578,
      "wu": 7579,
      "force": 7580,
      "cf": 7581,
      "sero": 7582,
      "kid": 7583,
      "rout": 7584,
      "08": 7585,
      "gender": 7586,
      "esis": 7587,
      "hepati": 7588,
      "vivo": 7589,
      "fix": 7590,
      "percentage": 7591,
      "datas": 7592,
      "units": 7593,
      "quarant": 7594,
      "77": 7595,
      "markers": 7596,
      "urban": 7597,
      "substanti": 7598,
      "manufact": 7599,
      "subsequent": 7600,
      "tradition": 7601,
      "circul": 7602,
      "candid": 7603,
      "called": 7604,
      "procedure": 7605,
      "considering": 7606,
      "half": 7607,
      "algorithm": 7608,
      "delay": 7609,
      "distancing": 7610,
      "differenti": 7611,
      "mediate": 7612,
      "reporting": 7613,
      "ito": 7614,
      "tit": 7615,
      "ules": 7616,
      "2004": 7617,
      "contribute": 7618,
      "dataset": 7619,
      "sources": 7620,
      "aryn": 7621,
      "ulate": 7622,
      "towards": 7623,
      "stable": 7624,
      "priv": 7625,
      "stay": 7626,
      "signs": 7627,
      "mr": 7628,
      "transplant": 7629,
      "itive": 7630,
      "suppres": 7631,
      "og": 7632,
      "providing": 7633,
      "benefit": 7634,
      "vide": 7635,
      "techniques": 7636,
      "bc": 7637,
      "perceived": 7638,
      "ising": 7639,
      "commit": 7640,
      "osis": 7641,
      "controlled": 7642,
      "interview": 7643,
      "characterized": 7644,
      "stead": 7645,
      "acell": 7646,
      "responsible": 7647,
      "bp": 7648,
      "produce": 7649,
      "cardiac": 7650,
      "chemo": 7651,
      "bol": 7652,
      "secur": 7653,
      "doub": 7654,
      "inary": 7655,
      "text": 7656,
      "ah": 7657,
      "occurred": 7658,
      "tools": 7659,
      "barri": 7660,
      "density": 7661,
      "product": 7662,
      "kidney": 7663,
      "isation": 7664,
      "stor": 7665,
      "indeed": 7666,
      "efficiency": 7667,
      "s2": 7668,
      "geo": 7669,
      "coag": 7670,
      "specificity": 7671,
      "mach": 7672,
      "includes": 7673,
      "squ": 7674,
      "maximum": 7675,
      "cence": 7676,
      "mia": 7677,
      "ials": 7678,
      "reducing": 7679,
      "requires": 7680,
      "acellular": 7681,
      "tiveness": 7682,
      "disco": 7683,
      "defici": 7684,
      "tissues": 7685,
      "equip": 7686,
      "indicating": 7687,
      "mode": 7688,
      "practices": 7689,
      "injec": 7690,
      "basis": 7691,
      "almost": 7692,
      "systemic": 7693,
      "pharmac": 7694,
      "exce": 7695,
      "items": 7696,
      "lang": 7697,
      "disch": 7698,
      "win": 7699,
      "comor": 7700,
      "62": 7701,
      "lis": 7702,
      "iii": 7703,
      "conver": 7704,
      "shif": 7705,
      "bias": 7706,
      "gas": 7707,
      "settings": 7708,
      "focused": 7709,
      "establish": 7710,
      "leu": 7711,
      "uncertain": 7712,
      "fund": 7713,
      "microbial": 7714,
      "ery": 7715,
      "scan": 7716,
      "living": 7717,
      "eti": 7718,
      "underlying": 7719,
      "highl": 7720,
      "opath": 7721,
      "susceptible": 7722,
      "chen": 7723,
      "aden": 7724,
      "cough": 7725,
      "internal": 7726,
      "database": 7727,
      "efforts": 7728,
      "commonly": 7729,
      "enh": 7730,
      "71": 7731,
      "hea": 7732,
      "nov": 7733,
      "male": 7734,
      "vaccin": 7735,
      "policies": 7736,
      "experiment": 7737,
      "frag": 7738,
      "09": 7739,
      "oids": 7740,
      "neur": 7741,
      "hor": 7742,
      "aci": 7743,
      "image": 7744,
      "semb": 7745,
      "oles": 7746,
      "alone": 7747,
      "covid19": 7748,
      "discussed": 7749,
      "granted": 7750,
      "estimate": 7751,
      "sense": 7752,
      "address": 7753,
      "statistically": 7754,
      "outbreaks": 7755,
      "rapidly": 7756,
      "lies": 7757,
      "dynamics": 7758,
      "ton": 7759,
      "security": 7760,
      "vulner": 7761,
      "holder": 7762,
      "basic": 7763,
      "implemented": 7764,
      "mely": 7765,
      "follows": 7766,
      "macrophages": 7767,
      "accept": 7768,
      "ium": 7769,
      "manif": 7770,
      "frequently": 7771,
      "intra": 7772,
      "exist": 7773,
      "hout": 7774,
      "processing": 7775,
      "vary": 7776,
      "south": 7777,
      "enhance": 7778,
      "uring": 7779,
      "aero": 7780,
      "88": 7781,
      "neutrophil": 7782,
      "lier": 7783,
      "numer": 7784,
      "regis": 7785,
      "aus": 7786,
      "rix": 7787,
      "input": 7788,
      "elevated": 7789,
      "located": 7790,
      "recorded": 7791,
      "risks": 7792,
      "thres": 7793,
      "benefits": 7794,
      "estimates": 7795,
      "funder": 7796,
      "heren": 7797,
      "cycle": 7798,
      "ose": 7799,
      "san": 7800,
      "ues": 7801,
      "sim": 7802,
      "improvement": 7803,
      "asth": 7804,
      "none": 7805,
      "aware": 7806,
      "61": 7807,
      "extre": 7808,
      "fibro": 7809,
      "science": 7810,
      "advan": 7811,
      "concerns": 7812,
      "1a": 7813,
      "intensive": 7814,
      "coc": 7815,
      "lar": 7816,
      "networks": 7817,
      "metho": 7818,
      "sampling": 7819,
      "orf": 7820,
      "renal": 7821,
      "peptides": 7822,
      "row": 7823,
      "pool": 7824,
      "arter": 7825,
      "izations": 7826,
      "classification": 7827,
      "uity": 7828,
      "peer": 7829,
      "targets": 7830,
      "represents": 7831,
      "epithelial": 7832,
      "effectiveness": 7833,
      "placed": 7834,
      "technologies": 7835,
      "dle": 7836,
      "incubated": 7837,
      "pha": 7838,
      "commer": 7839,
      "chines": 7840,
      "taking": 7841,
      "allowed": 7842,
      "consent": 7843,
      "routine": 7844,
      "optimal": 7845,
      "january": 7846,
      "pv": 7847,
      "histo": 7848,
      "cogn": 7849,
      "matrix": 7850,
      "availability": 7851,
      "throug": 7852,
      "worldwide": 7853,
      "thin": 7854,
      "stream": 7855,
      "throughout": 7856,
      "panel": 7857,
      "ades": 7858,
      "chinese": 7859,
      "74": 7860,
      "map": 7861,
      "kit": 7862,
      "cd4": 7863,
      "disorders": 7864,
      "allows": 7865,
      "ru": 7866,
      "live": 7867,
      "diagnosed": 7868,
      "threat": 7869,
      "sequencing": 7870,
      "suspec": 7871,
      "society": 7872,
      "relationships": 7873,
      "phag": 7874,
      "widely": 7875,
      "ato": 7876,
      "sle": 7877,
      "prediction": 7878,
      "regular": 7879,
      "cd8": 7880,
      "theless": 7881,
      "weak": 7882,
      "collabor": 7883,
      "colon": 7884,
      "fu": 7885,
      "fal": 7886,
      "incorpor": 7887,
      "distin": 7888,
      "pes": 7889,
      "quantit": 7890,
      "indicates": 7891,
      "persist": 7892,
      "quate": 7893,
      "fas": 7894,
      "fluores": 7895,
      "fav": 7896,
      "bv": 7897,
      "virt": 7898,
      "affin": 7899,
      "replic": 7900,
      "sensitive": 7901,
      "systematic": 7902,
      "reviewed": 7903,
      "chan": 7904,
      "ologic": 7905,
      "copyright": 7906,
      "cup": 7907,
      "programs": 7908,
      "distress": 7909,
      "female": 7910,
      "nic": 7911,
      "dominant": 7912,
      "feature": 7913,
      "96": 7914,
      "const": 7915,
      "materials": 7916,
      "authorfunder": 7917,
      "core": 7918,
      "aries": 7919,
      "questionnaire": 7920,
      "skin": 7921,
      "feel": 7922,
      "mask": 7923,
      "leads": 7924,
      "acce": 7925,
      "acids": 7926,
      "project": 7927,
      "compan": 7928,
      "inhibitor": 7929,
      "tension": 7930,
      "occurs": 7931,
      "gp": 7932,
      "compet": 7933,
      "emerging": 7934,
      "ond": 7935,
      "uter": 7936,
      "counter": 7937,
      "enhanced": 7938,
      "induce": 7939,
      "otype": 7940,
      "entire": 7941,
      "apop": 7942,
      "solid": 7943,
      "tnf": 7944,
      "rd": 7945,
      "demand": 7946,
      "bronch": 7947,
      "apopto": 7948,
      "upper": 7949,
      "gluco": 7950,
      "disrup": 7951,
      "bit": 7952,
      "versus": 7953,
      "asons": 7954,
      "rare": 7955,
      "rob": 7956,
      "serious": 7957,
      "dece": 7958,
      "inn": 7959,
      "correct": 7960,
      "concern": 7961,
      "73": 7962,
      "zu": 7963,
      "summar": 7964,
      "achieved": 7965,
      "sor": 7966,
      "hd": 7967,
      "methyl": 7968,
      "experienced": 7969,
      "assign": 7970,
      "european": 7971,
      "traditional": 7972,
      "parameter": 7973,
      "tee": 7974,
      "constit": 7975,
      "quantitative": 7976,
      "recombin": 7977,
      "olar": 7978,
      "spati": 7979,
      "aspects": 7980,
      "lla": 7981,
      "abnormal": 7982,
      "addres": 7983,
      "adult": 7984,
      "toxicity": 7985,
      "nutri": 7986,
      "lesions": 7987,
      "skill": 7988,
      "deep": 7989,
      "mutation": 7990,
      "guid": 7991,
      "articles": 7992,
      "buffer": 7993,
      "myo": 7994,
      "diarr": 7995,
      "perpet": 7996,
      "hospitalized": 7997,
      "communities": 7998,
      "trig": 7999,
      "fraction": 8000,
      "uration": 8001,
      "unknown": 8002,
      "mechanical": 8003,
      "original": 8004,
      "recommendations": 8005,
      "burden": 8006,
      "middle": 8007,
      "proli": 8008,
      "gc": 8009,
      "nucleoti": 8010,
      "illu": 8011,
      "war": 8012,
      "76": 8013,
      "alter": 8014,
      "demographic": 8015,
      "applications": 8016,
      "seven": 8017,
      "provin": 8018,
      "phone": 8019,
      "modified": 8020,
      "possibility": 8021,
      "obes": 8022,
      "illustr": 8023,
      "dynamic": 8024,
      "symptom": 8025,
      "acting": 8026,
      "ono": 8027,
      "instance": 8028,
      "costs": 8029,
      "max": 8030,
      "camp": 8031,
      "explain": 8032,
      "terminal": 8033,
      "isa": 8034,
      "extent": 8035,
      "genomic": 8036,
      "user": 8037,
      "capture": 8038,
      "ighted": 8039,
      "counts": 8040,
      "targeting": 8041,
      "behaviour": 8042,
      "hypothesis": 8043,
      "platform": 8044,
      "alve": 8045,
      "treatments": 8046,
      "supply": 8047,
      "toxic": 8048,
      "sil": 8049,
      "employed": 8050,
      "ka": 8051,
      "correlated": 8052,
      "socio": 8053,
      "tb": 8054,
      "informed": 8055,
      "bidity": 8056,
      "outside": 8057,
      "complement": 8058,
      "extensive": 8059,
      "department": 8060,
      "hes": 8061,
      "list": 8062,
      "tc": 8063,
      "prolifer": 8064,
      "acade": 8065,
      "facilities": 8066,
      "progression": 8067,
      "hospitalization": 8068,
      "link": 8069,
      "accum": 8070,
      "investigate": 8071,
      "screen": 8072,
      "strongly": 8073,
      "shap": 8074,
      "cript": 8075,
      "ovirus": 8076,
      "significance": 8077,
      "wuhan": 8078,
      "rin": 8079,
      "quarantine": 8080,
      "cluster": 8081,
      "investigation": 8082,
      "interestingly": 8083,
      "85": 8084,
      "issue": 8085,
      "instead": 8086,
      "thy": 8087,
      "prepar": 8088,
      "fluid": 8089,
      "domains": 8090,
      "comput": 8091,
      "generate": 8092,
      "von": 8093,
      "rab": 8094,
      "examination": 8095,
      "subsequently": 8096,
      "business": 8097,
      "consumption": 8098,
      "season": 8099,
      "etc": 8100,
      "variation": 8101,
      "mito": 8102,
      "coronaviruses": 8103,
      "component": 8104,
      "fall": 8105,
      "ners": 8106,
      "lipid": 8107,
      "admitted": 8108,
      "white": 8109,
      "little": 8110,
      "asthma": 8111,
      "sized": 8112,
      "layer": 8113,
      "reflect": 8114,
      "variants": 8115,
      "sts": 8116,
      "families": 8117,
      "bidi": 8118,
      "variety": 8119,
      "detailed": 8120,
      "robust": 8121,
      "trust": 8122,
      "promis": 8123,
      "supported": 8124,
      "posted": 8125,
      "pbs": 8126,
      "sity": 8127,
      "recombinant": 8128,
      "ada": 8129,
      "extracted": 8130,
      "equipment": 8131,
      "divid": 8132,
      "assemb": 8133,
      "gd": 8134,
      "typically": 8135,
      "political": 8136,
      "suspected": 8137,
      "targeted": 8138,
      "alpha": 8139,
      "appen": 8140,
      "2002": 8141,
      "occup": 8142,
      "poll": 8143,
      "bidities": 8144,
      "itable": 8145,
      "perpetuity": 8146,
      "constant": 8147,
      "fish": 8148,
      "nasal": 8149,
      "itig": 8150,
      "h1": 8151,
      "belie": 8152,
      "administered": 8153,
      "muco": 8154,
      "simple": 8155,
      "confidence": 8156,
      "abilities": 8157,
      "98": 8158,
      "gam": 8159,
      "sid": 8160,
      "reverse": 8161,
      "distinct": 8162,
      "wes": 8163,
      "asis": 8164,
      "bm": 8165,
      "ardi": 8166,
      "crucial": 8167,
      "masks": 8168,
      "ibility": 8169,
      "bov": 8170,
      "green": 8171,
      "background": 8172,
      "lungs": 8173,
      "too": 8174,
      "attemp": 8175,
      "compre": 8176,
      "2a": 8177,
      "respect": 8178,
      "coord": 8179,
      "pse": 8180,
      "bac": 8181,
      "coming": 8182,
      "bey": 8183,
      "ites": 8184,
      "threshold": 8185,
      "involvement": 8186,
      "hab": 8187,
      "reser": 8188,
      "adv": 8189,
      "cardiovascular": 8190,
      "achieve": 8191,
      "symptomatic": 8192,
      "μl": 8193,
      "langu": 8194,
      "contacts": 8195,
      "excluded": 8196,
      "oing": 8197,
      "contains": 8198,
      "promote": 8199,
      "periph": 8200,
      "purpose": 8201,
      "ros": 8202,
      "tun": 8203,
      "meta": 8204,
      "stry": 8205,
      "reasons": 8206,
      "degrad": 8207,
      "recognition": 8208,
      "wave": 8209,
      "stability": 8210,
      "simulation": 8211,
      "jap": 8212,
      "conflic": 8213,
      "coli": 8214,
      "1b": 8215,
      "para": 8216,
      "inclusion": 8217,
      "gent": 8218,
      "corti": 8219,
      "appears": 8220,
      "manifest": 8221,
      "fixed": 8222,
      "stages": 8223,
      "innov": 8224,
      "mitig": 8225,
      "methodo": 8226,
      "persons": 8227,
      "convention": 8228,
      "specimens": 8229,
      "iring": 8230,
      "centers": 8231,
      "theore": 8232,
      "progno": 8233,
      "hi": 8234,
      "residents": 8235,
      "ongoing": 8236,
      "start": 8237,
      "aug": 8238,
      "earlier": 8239,
      "febr": 8240,
      "mixed": 8241,
      "3d": 8242,
      "regional": 8243,
      "aft": 8244,
      "steps": 8245,
      "ught": 8246,
      "500": 8247,
      "aerosol": 8248,
      "nn": 8249,
      "stimul": 8250,
      "box": 8251,
      "brief": 8252,
      "tified": 8253,
      "dimension": 8254,
      "angio": 8255,
      "heterogene": 8256,
      "comprehen": 8257,
      "wel": 8258,
      "subject": 8259,
      "inocul": 8260,
      "technique": 8261,
      "seems": 8262,
      "reci": 8263,
      "invasive": 8264,
      "big": 8265,
      "incubation": 8266,
      "hin": 8267,
      "successful": 8268,
      "aggreg": 8269,
      "lective": 8270,
      "stro": 8271,
      "interfer": 8272,
      "transfec": 8273,
      "february": 8274,
      "providers": 8275,
      "ressive": 8276,
      "nurses": 8277,
      "venous": 8278,
      "words": 8279,
      "consult": 8280,
      "true": 8281,
      "task": 8282,
      "ost": 8283,
      "continue": 8284,
      "slight": 8285,
      "sustain": 8286,
      "chloro": 8287,
      "dm": 8288,
      "equal": 8289,
      "adjusted": 8290,
      "auf": 8291,
      "diversity": 8292,
      "thor": 8293,
      "substr": 8294,
      "jour": 8295,
      "professionals": 8296,
      "always": 8297,
      "acer": 8298,
      "share": 8299,
      "regulatory": 8300,
      "resistant": 8301,
      "receiving": 8302,
      "protease": 8303,
      "diet": 8304,
      "lated": 8305,
      "polymerase": 8306,
      "physicians": 8307,
      "udo": 8308,
      "clearly": 8309,
      "emphas": 8310,
      "bone": 8311,
      "output": 8312,
      "italy": 8313,
      "thing": 8314,
      "devices": 8315,
      "endothelial": 8316,
      "parents": 8317,
      "innate": 8318,
      "experiences": 8319,
      "compos": 8320,
      "89": 8321,
      "hypertension": 8322,
      "manufacture": 8323,
      "web": 8324,
      "eco": 8325,
      "microsco": 8326,
      "pu": 8327,
      "categories": 8328,
      "possi": 8329,
      "affinity": 8330,
      "professional": 8331,
      "avage": 8332,
      "zy": 8333,
      "valent": 8334,
      "consequences": 8335,
      "visits": 8336,
      "compare": 8337,
      "bene": 8338,
      "difficul": 8339,
      "nodes": 8340,
      "antigens": 8341,
      "phal": 8342,
      "intensity": 8343,
      "showing": 8344,
      "building": 8345,
      "sleep": 8346,
      "elements": 8347,
      "introduced": 8348,
      "zes": 8349,
      "ema": 8350,
      "reactions": 8351,
      "prop": 8352,
      "gastro": 8353,
      "asked": 8354,
      "lab": 8355,
      "mh": 8356,
      "return": 8357,
      "beyond": 8358,
      "cognitive": 8359,
      "demonstrate": 8360,
      "breath": 8361,
      "vitamin": 8362,
      "visit": 8363,
      "presentation": 8364,
      "ray": 8365,
      "1000": 8366,
      "kers": 8367,
      "compris": 8368,
      "pc": 8369,
      "epidemiological": 8370,
      "invest": 8371,
      "objective": 8372,
      "currence": 8373,
      "scenario": 8374,
      "insig": 8375,
      "shared": 8376,
      "substit": 8377,
      "dysfunction": 8378,
      "keep": 8379,
      "prolong": 8380,
      "created": 8381,
      "techn": 8382,
      "airway": 8383,
      "urine": 8384,
      "curve": 8385,
      "3a": 8386,
      "black": 8387,
      "frequent": 8388,
      "offer": 8389,
      "drople": 8390,
      "ki": 8391,
      "omes": 8392,
      "quick": 8393,
      "leg": 8394,
      "toward": 8395,
      "regulated": 8396,
      "pas": 8397,
      "devi": 8398,
      "represented": 8399,
      "elimin": 8400,
      "neutralizing": 8401,
      "extern": 8402,
      "assist": 8403,
      "virtual": 8404,
      "cil": 8405,
      "classified": 8406,
      "error": 8407,
      "organisms": 8408,
      "maintain": 8409,
      "theory": 8410,
      "doses": 8411,
      "enro": 8412,
      "solutions": 8413,
      "ensus": 8414,
      "institutions": 8415,
      "mol": 8416,
      "alveolar": 8417,
      "video": 8418,
      "gel": 8419,
      "plays": 8420,
      "june": 8421,
      "trend": 8422,
      "initially": 8423,
      "fear": 8424,
      "ppe": 8425,
      "rogen": 8426,
      "induction": 8427,
      "spatial": 8428,
      "africa": 8429,
      "student": 8430,
      "describe": 8431,
      "observation": 8432,
      "encies": 8433,
      "nk": 8434,
      "compo": 8435,
      "usive": 8436,
      "pseudo": 8437,
      "except": 8438,
      "strand": 8439,
      "india": 8440,
      "rac": 8441,
      "observations": 8442,
      "details": 8443,
      "mess": 8444,
      "tlr": 8445,
      "fü": 8446,
      "geal": 8447,
      "manus": 8448,
      "receive": 8449,
      "aria": 8450,
      "depending": 8451,
      "particle": 8452,
      "das": 8453,
      "flex": 8454,
      "somes": 8455,
      "cx": 8456,
      "prescri": 8457,
      "resource": 8458,
      "job": 8459,
      "aryngeal": 8460,
      "restrictions": 8461,
      "track": 8462,
      "operation": 8463,
      "comorbidities": 8464,
      "encour": 8465,
      "resolution": 8466,
      "parts": 8467,
      "expand": 8468,
      "bic": 8469,
      "reactive": 8470,
      "wal": 8471,
      "belong": 8472,
      "isolates": 8473,
      "changed": 8474,
      "lihood": 8475,
      "poses": 8476,
      "continued": 8477,
      "industry": 8478,
      "quine": 8479,
      "2b": 8480,
      "holds": 8481,
      "elder": 8482,
      "μm": 8483,
      "exercise": 8484,
      "accurate": 8485,
      "participant": 8486,
      "smaller": 8487,
      "peripheral": 8488,
      "american": 8489,
      "acted": 8490,
      "shock": 8491,
      "bile": 8492,
      "ification": 8493,
      "western": 8494,
      "luc": 8495,
      "completed": 8496,
      "your": 8497,
      "tax": 8498,
      "gram": 8499,
      "rig": 8500,
      "selves": 8501,
      "draw": 8502,
      "jug": 8503,
      "muscle": 8504,
      "comprehensive": 8505,
      "going": 8506,
      "thal": 8507,
      "consequ": 8508,
      "iso": 8509,
      "ples": 8510,
      "recognized": 8511,
      "pay": 8512,
      "hcv": 8513,
      "crim": 8514,
      "seem": 8515,
      "committee": 8516,
      "behaviors": 8517,
      "create": 8518,
      "aimed": 8519,
      "apping": 8520,
      "conventional": 8521,
      "conce": 8522,
      "neigh": 8523,
      "eine": 8524,
      "memory": 8525,
      "ptions": 8526,
      "explained": 8527,
      "glut": 8528,
      "measurement": 8529,
      "academic": 8530,
      "120": 8531,
      "conduct": 8532,
      "agon": 8533,
      "near": 8534,
      "profile": 8535,
      "olig": 8536,
      "hepatitis": 8537,
      "plant": 8538,
      "elisa": 8539,
      "trained": 8540,
      "faces": 8541,
      "cities": 8542,
      "remote": 8543,
      "remaining": 8544,
      "chon": 8545,
      "facilitate": 8546,
      "fed": 8547,
      "nps": 8548,
      "agreement": 8549,
      "household": 8550,
      "strength": 8551,
      "eding": 8552,
      "lac": 8553,
      "bly": 8554,
      "tour": 8555,
      "balance": 8556,
      "fill": 8557,
      "offic": 8558,
      "transition": 8559,
      "eight": 8560,
      "commercial": 8561,
      "december": 8562,
      "wt": 8563,
      "sia": 8564,
      "primarily": 8565,
      "started": 8566,
      "arent": 8567,
      "modeling": 8568,
      "brid": 8569,
      "advantage": 8570,
      "germany": 8571,
      "evol": 8572,
      "2001": 8573,
      "removed": 8574,
      "colum": 8575,
      "institutional": 8576,
      "ician": 8577,
      "member": 8578,
      "mostly": 8579,
      "false": 8580,
      "susceptibility": 8581,
      "decisions": 8582,
      "metry": 8583,
      "plus": 8584,
      "era": 8585,
      "discussion": 8586,
      "divided": 8587,
      "external": 8588,
      "deno": 8589,
      "clonal": 8590,
      "nevertheless": 8591,
      "causing": 8592,
      "remained": 8593,
      "preci": 8594,
      "recovered": 8595,
      "code": 8596,
      "plasmid": 8597,
      "tom": 8598,
      "emotional": 8599,
      "minimum": 8600,
      "caus": 8601,
      "sec": 8602,
      "periods": 8603,
      "antibiotics": 8604,
      "typical": 8605,
      "sepsis": 8606,
      "onto": 8607,
      "trum": 8608,
      "wall": 8609,
      "cultures": 8610,
      "02": 8611,
      "birth": 8612,
      "effectively": 8613,
      "sent": 8614,
      "examine": 8615,
      "acquired": 8616,
      "lets": 8617,
      "explore": 8618,
      "manner": 8619,
      "involving": 8620,
      "300": 8621,
      "sures": 8622,
      "coverage": 8623,
      "mc": 8624,
      "cover": 8625,
      "summ": 8626,
      "anal": 8627,
      "recruit": 8628,
      "adequate": 8629,
      "elds": 8630,
      "beta": 8631,
      "indirect": 8632,
      "absor": 8633,
      "itative": 8634,
      "impacts": 8635,
      "asp": 8636,
      "substantial": 8637,
      "unding": 8638,
      "antibiotic": 8639,
      "minor": 8640,
      "diverse": 8641,
      "definition": 8642,
      "exacer": 8643,
      "umab": 8644,
      "etal": 8645,
      "bind": 8646,
      "manuscript": 8647,
      "clean": 8648,
      "dance": 8649,
      "probably": 8650,
      "meaning": 8651,
      "language": 8652,
      "choice": 8653,
      "chloroquine": 8654,
      "omen": 8655,
      "ranging": 8656,
      "len": 8657,
      "measurements": 8658,
      "elderly": 8659,
      "exacerb": 8660,
      "extraction": 8661,
      "statistics": 8662,
      "cam": 8663,
      "gue": 8664,
      "cou": 8665,
      "protect": 8666,
      "stock": 8667,
      "lich": 8668,
      "actual": 8669,
      "mt": 8670,
      "sul": 8671,
      "compli": 8672,
      "cataly": 8673,
      "expect": 8674,
      "latter": 8675,
      "lysis": 8676,
      "grade": 8677,
      "cule": 8678,
      "antic": 8679,
      "validation": 8680,
      "connected": 8681,
      "nucleic": 8682,
      "dock": 8683,
      "eq": 8684,
      "apoptosis": 8685,
      "itself": 8686,
      "formal": 8687,
      "150": 8688,
      "ali": 8689,
      "advanced": 8690,
      "mart": 8691,
      "uncertainty": 8692,
      "myocardi": 8693,
      "double": 8694,
      "cli": 8695,
      "waste": 8696,
      "semin": 8697,
      "sector": 8698,
      "spectrum": 8699,
      "obesity": 8700,
      "private": 8701,
      "marked": 8702,
      "mobility": 8703,
      "clusters": 8704,
      "pathogenesis": 8705,
      "paras": 8706,
      "alco": 8707,
      "skills": 8708,
      "whose": 8709,
      "motiv": 8710,
      "repeated": 8711,
      "fri": 8712,
      "94": 8713,
      "cdc": 8714,
      "attit": 8715,
      "libr": 8716,
      "filter": 8717,
      "fast": 8718,
      "dele": 8719,
      "infil": 8720,
      "hemo": 8721,
      "zen": 8722,
      "molecule": 8723,
      "roles": 8724,
      "makes": 8725,
      "83": 8726,
      "attach": 8727,
      "give": 8728,
      "marker": 8729,
      "metabolic": 8730,
      "educational": 8731,
      "mous": 8732,
      "variant": 8733,
      "thereby": 8734,
      "segment": 8735,
      "documented": 8736,
      "hydrogen": 8737,
      "device": 8738,
      "cryst": 8739,
      "enrich": 8740,
      "conjug": 8741,
      "clinically": 8742,
      "fc": 8743,
      "beginning": 8744,
      "hydroxy": 8745,
      "ify": 8746,
      "discharge": 8747,
      "necro": 8748,
      "dimer": 8749,
      "extended": 8750,
      "cere": 8751,
      "cats": 8752,
      "exact": 8753,
      "goal": 8754,
      "requiring": 8755,
      "likelihood": 8756,
      "protocols": 8757,
      "dium": 8758,
      "participation": 8759,
      "physiological": 8760,
      "04": 8761,
      "ended": 8762,
      "udes": 8763,
      "distributed": 8764,
      "themselves": 8765,
      "suitable": 8766,
      "figures": 8767,
      "rv": 8768,
      "vised": 8769,
      "composition": 8770,
      "glucose": 8771,
      "purified": 8772,
      "hard": 8773,
      "bot": 8774,
      "photo": 8775,
      "easily": 8776,
      "sat": 8777,
      "ivir": 8778,
      "starting": 8779,
      "umin": 8780,
      "rights": 8781,
      "comparing": 8782,
      "abund": 8783,
      "vulnerable": 8784,
      "deriv": 8785,
      "leaders": 8786,
      "thought": 8787,
      "forward": 8788,
      "orts": 8789,
      "numerous": 8790,
      "sta": 8791,
      "prophy": 8792,
      "carbon": 8793,
      "pediatric": 8794,
      "lives": 8795,
      "gan": 8796,
      "internet": 8797,
      "nursing": 8798,
      "introduction": 8799,
      "slow": 8800,
      "adaptive": 8801,
      "82": 8802,
      "loop": 8803,
      "engine": 8804,
      "84": 8805,
      "lps": 8806,
      "dilu": 8807,
      "titers": 8808,
      "125": 8809,
      "classes": 8810,
      "breast": 8811,
      "otherap": 8812,
      "infect": 8813,
      "prefer": 8814,
      "constrain": 8815,
      "deficiency": 8816,
      "ula": 8817,
      "tg": 8818,
      "qualitative": 8819,
      "doiorg": 8820,
      "requirements": 8821,
      "ana": 8822,
      "chondri": 8823,
      "clim": 8824,
      "planning": 8825,
      "expressing": 8826,
      "clinic": 8827,
      "check": 8828,
      "randomized": 8829,
      "therapies": 8830,
      "81": 8831,
      "ado": 8832,
      "supporting": 8833,
      "ches": 8834,
      "industri": 8835,
      "ethical": 8836,
      "topes": 8837,
      "law": 8838,
      "promising": 8839,
      "acces": 8840,
      "var": 8841,
      "conserved": 8842,
      "nation": 8843,
      "radio": 8844,
      "emis": 8845,
      "toler": 8846,
      "nucleotide": 8847,
      "aligned": 8848,
      "morbidity": 8849,
      "inser": 8850,
      "completely": 8851,
      "partial": 8852,
      "dogs": 8853,
      "infants": 8854,
      "why": 8855,
      "perspective": 8856,
      "austr": 8857,
      "equi": 8858,
      "lands": 8859,
      "intracellular": 8860,
      "je": 8861,
      "empir": 8862,
      "identifying": 8863,
      "profil": 8864,
      "attack": 8865,
      "neumo": 8866,
      "mac": 8867,
      "ices": 8868,
      "cycl": 8869,
      "overl": 8870,
      "simult": 8871,
      "izes": 8872,
      "disci": 8873,
      "vation": 8874,
      "news": 8875,
      "phenomen": 8876,
      "examples": 8877,
      "httpsdoiorg": 8878,
      "operative": 8879,
      "equation": 8880,
      "mitochondri": 8881,
      "opathy": 8882,
      "aims": 8883,
      "movement": 8884,
      "blu": 8885,
      "discipl": 8886,
      "resili": 8887,
      "mel": 8888,
      "amplification": 8889,
      "cov2": 8890,
      "diarrhea": 8891,
      "86": 8892,
      "teaching": 8893,
      "asets": 8894,
      "lipo": 8895,
      "swab": 8896,
      "somal": 8897,
      "borne": 8898,
      "genomes": 8899,
      "proliferation": 8900,
      "datasets": 8901,
      "simultaneous": 8902,
      "schools": 8903,
      "vaccinated": 8904,
      "ata": 8905,
      "bank": 8906,
      "lymphocytes": 8907,
      "critically": 8908,
      "versi": 8909,
      "ligand": 8910,
      "door": 8911,
      "adopted": 8912,
      "engagement": 8913,
      "largely": 8914,
      "tub": 8915,
      "bing": 8916,
      "attenu": 8917,
      "integrated": 8918,
      "phylo": 8919,
      "disas": 8920,
      "uish": 8921,
      "shed": 8922,
      "epitopes": 8923,
      "select": 8924,
      "mann": 8925,
      "ham": 8926,
      "ret": 8927,
      "pathogenic": 8928,
      "rad": 8929,
      "differential": 8930,
      "metric": 8931,
      "certified": 8932,
      "beneficial": 8933,
      "cts": 8934,
      "enough": 8935,
      "impair": 8936,
      "category": 8937,
      "allowing": 8938,
      "ave": 8939,
      "feas": 8940,
      "employment": 8941,
      "ulin": 8942,
      "tinguish": 8943,
      "chi": 8944,
      "satisf": 8945,
      "translation": 8946,
      "mobile": 8947,
      "lam": 8948,
      "node": 8949,
      "dil": 8950,
      "move": 8951,
      "resol": 8952,
      "domes": 8953,
      "nuclear": 8954,
      "orient": 8955,
      "ende": 8956,
      "separate": 8957,
      "organizations": 8958,
      "board": 8959,
      "dix": 8960,
      "cleavage": 8961,
      "rural": 8962,
      "technical": 8963,
      "independ": 8964,
      "climate": 8965,
      "array": 8966,
      "contamination": 8967,
      "ulative": 8968,
      "austral": 8969,
      "ends": 8970,
      "aid": 8971,
      "employe": 8972,
      "pregnancy": 8973,
      "hypox": 8974,
      "cher": 8975,
      "possibly": 8976,
      "wan": 8977,
      "reed": 8978,
      "cture": 8979,
      "driven": 8980,
      "speed": 8981,
      "enzymes": 8982,
      "closed": 8983,
      "hcov": 8984,
      "argu": 8985,
      "recipi": 8986,
      "p1": 8987,
      "gain": 8988,
      "appeared": 8989,
      "hn": 8990,
      "colleag": 8991,
      "distinguish": 8992,
      "surro": 8993,
      "tility": 8994,
      "lif": 8995,
      "comprom": 8996,
      "ram": 8997,
      "atg": 8998,
      "growing": 8999,
      "summary": 9000,
      "87": 9001,
      "genous": 9002,
      "successfully": 9003,
      "ral": 9004,
      "deal": 9005,
      "tend": 9006,
      "phosphory": 9007,
      "retrospective": 9008,
      "roo": 9009,
      "avi": 9010,
      "cultural": 9011,
      "tomy": 9012,
      "construct": 9013,
      "antimicrobial": 9014,
      "degradation": 9015,
      "carry": 9016,
      "ucle": 9017,
      "mother": 9018,
      "reached": 9019,
      "explan": 9020,
      "hl": 9021,
      "identity": 9022,
      "institute": 9023,
      "osen": 9024,
      "kine": 9025,
      "swit": 9026,
      "records": 9027,
      "closely": 9028,
      "trim": 9029,
      "mv": 9030,
      "direction": 9031,
      "opharyngeal": 9032,
      "favor": 9033,
      "bt": 9034,
      "norm": 9035,
      "shift": 9036,
      "alcohol": 9037,
      "ateral": 9038,
      "sections": 9039,
      "respective": 9040,
      "domestic": 9041,
      "slightly": 9042,
      "injection": 9043,
      "comparable": 9044,
      "opportunity": 9045,
      "opportunities": 9046,
      "moti": 9047,
      "primers": 9048,
      "ethics": 9049,
      "hydr": 9050,
      "progress": 9051,
      "funding": 9052,
      "tensin": 9053,
      "kore": 9054,
      "rise": 9055,
      "aut": 9056,
      "topic": 9057,
      "stroke": 9058,
      "consequently": 9059,
      "awareness": 9060,
      "coding": 9061,
      "clinicians": 9062,
      "became": 9063,
      "immedi": 9064,
      "sched": 9065,
      "97": 9066,
      "uting": 9067,
      "participate": 9068,
      "92": 9069,
      "assumed": 9070,
      "heal": 9071,
      "gar": 9072,
      "viol": 9073,
      "trau": 9074,
      "tree": 9075,
      "referred": 9076,
      "nearly": 9077,
      "reliable": 9078,
      "occurrence": 9079,
      "improving": 9080,
      "representative": 9081,
      "associations": 9082,
      "ycin": 9083,
      "preg": 9084,
      "03": 9085,
      "pregnant": 9086,
      "circum": 9087,
      "arged": 9088,
      "blue": 9089,
      "went": 9090,
      "zi": 9091,
      "93": 9092,
      "apo": 9093,
      "compliance": 9094,
      "heat": 9095,
      "mone": 9096,
      "csf": 9097,
      "contributed": 9098,
      "liqu": 9099,
      "angiotensin": 9100,
      "modul": 9101,
      "0000": 9102,
      "machine": 9103,
      "serve": 9104,
      "coordin": 9105,
      "trop": 9106,
      "spir": 9107,
      "''": 9108,
      "exhibited": 9109,
      "smart": 9110,
      "placement": 9111,
      "guidance": 9112,
      "clar": 9113,
      "plot": 9114,
      "colleagues": 9115,
      "signals": 9116,
      "pigs": 9117,
      "rank": 9118,
      "atin": 9119,
      "prolonged": 9120,
      "minutes": 9121,
      "missing": 9122,
      "histor": 9123,
      "immediately": 9124,
      "iden": 9125,
      "consensus": 9126,
      "mature": 9127,
      "suppression": 9128,
      "dc": 9129,
      "vig": 9130,
      "coagulation": 9131,
      "migration": 9132,
      "ship": 9133,
      "adheren": 9134,
      "mn": 9135,
      "www": 9136,
      "preparation": 9137,
      "vital": 9138,
      "intub": 9139,
      "pf": 9140,
      "discre": 9141,
      "igm": 9142,
      "situations": 9143,
      "105": 9144,
      "tam": 9145,
      "impos": 9146,
      "feedback": 9147,
      "japan": 9148,
      "trauma": 9149,
      "appendix": 9150,
      "front": 9151,
      "platforms": 9152,
      "colo": 9153,
      "largest": 9154,
      "ged": 9155,
      "standards": 9156,
      "define": 9157,
      "neon": 9158,
      "encephal": 9159,
      "ultr": 9160,
      "potent": 9161,
      "arti": 9162,
      "trade": 9163,
      "medication": 9164,
      "h1n1": 9165,
      "july": 9166,
      "competi": 9167,
      "stimulation": 9168,
      "primer": 9169,
      "uv": 9170,
      "kinase": 9171,
      "north": 9172,
      "predictive": 9173,
      "pla": 9174,
      "apparent": 9175,
      "coupl": 9176,
      "temporal": 9177,
      "predominant": 9178,
      "implications": 9179,
      "interferon": 9180,
      "scenarios": 9181,
      "besides": 9182,
      "spo": 9183,
      "lys": 9184,
      "complexes": 9185,
      "contained": 9186,
      "sar": 9187,
      "african": 9188,
      "p2": 9189,
      "item": 9190,
      "upreg": 9191,
      "loy": 9192,
      "economy": 9193,
      "importantly": 9194,
      "explored": 9195,
      "staining": 9196,
      "consists": 9197,
      "dar": 9198,
      "hemat": 9199,
      "ching": 9200,
      "discrim": 9201,
      "aves": 9202,
      "fluorescence": 9203,
      "vor": 9204,
      "similarity": 9205,
      "decline": 9206,
      "membranes": 9207,
      "stop": 9208,
      "explor": 9209,
      "enable": 9210,
      "partners": 9211,
      "gli": 9212,
      "sharing": 9213,
      "utilized": 9214,
      "virul": 9215,
      "loo": 9216,
      "validated": 9217,
      "plates": 9218,
      "astic": 9219,
      "nan": 9220,
      "substrate": 9221,
      "consideration": 9222,
      "preced": 9223,
      "construction": 9224,
      "ación": 9225,
      "1999": 9226,
      "penia": 9227,
      "train": 9228,
      "extra": 9229,
      "genic": 9230,
      "presenting": 9231,
      "tempor": 9232,
      "written": 9233,
      "nes": 9234,
      "assigned": 9235,
      "washed": 9236,
      "recruitment": 9237,
      "ili": 9238,
      "paralle": 9239,
      "gap": 9240,
      "coefficient": 9241,
      "companies": 9242,
      "locations": 9243,
      "dissemin": 9244,
      "pathology": 9245,
      "conclusions": 9246,
      "maintained": 9247,
      "icht": 9248,
      "ubi": 9249,
      "gm": 9250,
      "autophag": 9251,
      "surge": 9252,
      "analyze": 9253,
      "91": 9254,
      "compart": 9255,
      "sera": 9256,
      "stored": 9257,
      "younger": 9258,
      "females": 9259,
      "barriers": 9260,
      "preven": 9261,
      "variance": 9262,
      "publication": 9263,
      "interpretation": 9264,
      "cumulative": 9265,
      "radiation": 9266,
      "electronic": 9267,
      "accoun": 9268,
      "rnas": 9269,
      "thern": 9270,
      "cytoplas": 9271,
      "males": 9272,
      "algorithms": 9273,
      "supernat": 9274,
      "east": 9275,
      "sigma": 9276,
      "perception": 9277,
      "depends": 9278,
      "indicators": 9279,
      "satisfaction": 9280,
      "hla": 9281,
      "writing": 9282,
      "mand": 9283,
      "hygi": 9284,
      "tice": 9285,
      "flo": 9286,
      "notably": 9287,
      "released": 9288,
      "corre": 9289,
      "ferences": 9290,
      "fications": 9291,
      "donor": 9292,
      "washing": 9293,
      "polar": 9294,
      "capable": 9295,
      "immunization": 9296,
      "chosen": 9297,
      "unclear": 9298,
      "vero": 9299,
      "jus": 9300,
      "strict": 9301,
      "band": 9302,
      "oxide": 9303,
      "adoles": 9304,
      "tai": 9305,
      "contribution": 9306,
      "uptake": 9307,
      "infras": 9308,
      "namely": 9309,
      "zero": 9310,
      "challenging": 9311,
      "differentiation": 9312,
      "personnel": 9313,
      "swabs": 9314,
      "sche": 9315,
      "thermo": 9316,
      "highlighted": 9317,
      "sn": 9318,
      "emergence": 9319,
      "jud": 9320,
      "logic": 9321,
      "trends": 9322,
      "approval": 9323,
      "pneumo": 9324,
      "sha": 9325,
      "positively": 9326,
      "regim": 9327,
      "becomes": 9328,
      "interact": 9329,
      "adju": 9330,
      "directed": 9331,
      "chrom": 9332,
      "univers": 9333,
      "sl": 9334,
      "ek": 9335,
      "otherwise": 9336,
      "advantages": 9337,
      "kal": 9338,
      "110": 9339,
      "restricted": 9340,
      "bola": 9341,
      "computed": 9342,
      "zer": 9343,
      "yield": 9344,
      "kill": 9345,
      "assembly": 9346,
      "harm": 9347,
      "oh": 9348,
      "2d": 9349,
      "cit": 9350,
      "101101": 9351,
      "infrastru": 9352,
      "effort": 9353,
      "neutrophils": 9354,
      "capital": 9355,
      "ubiqu": 9356,
      "preser": 9357,
      "lytic": 9358,
      "inhibitory": 9359,
      "ungen": 9360,
      "solute": 9361,
      "barrier": 9362,
      "word": 9363,
      "span": 9364,
      "ultim": 9365,
      "bb": 9366,
      "tag": 9367,
      "simulations": 9368,
      "windo": 9369,
      "file": 9370,
      "onco": 9371,
      "crp": 9372,
      "o2": 9373,
      "ert": 9374,
      "tuber": 9375,
      "collect": 9376,
      "differ": 9377,
      "vectors": 9378,
      "ebola": 9379,
      "vity": 9380,
      "candidate": 9381,
      "quickly": 9382,
      "transi": 9383,
      "wang": 9384,
      "options": 9385,
      "sac": 9386,
      "logistic": 9387,
      "stake": 9388,
      "cessive": 9389,
      "company": 9390,
      "nine": 9391,
      "mutant": 9392,
      "braz": 9393,
      "hic": 9394,
      "dn": 9395,
      "multiv": 9396,
      "usual": 9397,
      "preventing": 9398,
      "enab": 9399,
      "west": 9400,
      "involves": 9401,
      "integration": 9402,
      "dry": 9403,
      "takes": 9404,
      "standardi": 9405,
      "3b": 9406,
      "neurological": 9407,
      "province": 9408,
      "rats": 9409,
      "cape": 9410,
      "httpsdoiorg101101": 9411,
      "zik": 9412,
      "circulating": 9413,
      "extract": 9414,
      "elig": 9415,
      "platelet": 9416,
      "transplantation": 9417,
      "usage": 9418,
      "ford": 9419,
      "ley": 9420,
      "surfaces": 9421,
      "ises": 9422,
      "lact": 9423,
      "laborator": 9424,
      "constructed": 9425,
      "purch": 9426,
      "sf": 9427,
      "sect": 9428,
      "rm": 9429,
      "otypes": 9430,
      "emerged": 9431,
      "mind": 9432,
      "fragment": 9433,
      "ads": 9434,
      "dl": 9435,
      "behavioral": 9436,
      "rium": 9437,
      "multivari": 9438,
      "pathological": 9439,
      "heterogeneity": 9440,
      "farm": 9441,
      "centrif": 9442,
      "cns": 9443,
      "cytosis": 9444,
      "labeled": 9445,
      "lax": 9446,
      "manifestations": 9447,
      "discovery": 9448,
      "acceler": 9449,
      "morpho": 9450,
      "chap": 9451,
      "experts": 9452,
      "stated": 9453,
      "ident": 9454,
      "cmv": 9455,
      "governments": 9456,
      "pedv": 9457,
      "ologists": 9458,
      "yes": 9459,
      "haz": 9460,
      "thelium": 9461,
      "atal": 9462,
      "preventive": 9463,
      "gut": 9464,
      "lowest": 9465,
      "probe": 9466,
      "donors": 9467,
      "computer": 9468,
      "rus": 9469,
      "fibrosis": 9470,
      "06": 9471,
      "electron": 9472,
      "methodology": 9473,
      "took": 9474,
      "trigger": 9475,
      "traff": 9476,
      "brazil": 9477,
      "gastrointestinal": 9478,
      "absolute": 9479,
      "fram": 9480,
      "correl": 9481,
      "crystal": 9482,
      "aceu": 9483,
      "interviews": 9484,
      "coster": 9485,
      "asia": 9486,
      "ched": 9487,
      "drop": 9488,
      "resilience": 9489,
      "attributed": 9490,
      "synthetic": 9491,
      "ogenic": 9492,
      "express": 9493,
      "1c": 9494,
      "guide": 9495,
      "round": 9496,
      "iq": 9497,
      "assume": 9498,
      "listed": 9499,
      "changing": 9500,
      "ron": 9501,
      "n2": 9502,
      "displayed": 9503,
      "easy": 9504,
      "106": 9505,
      "werden": 9506,
      "embed": 9507,
      "oil": 9508,
      "adherence": 9509,
      "stabil": 9510,
      "ole": 9511,
      "corticoster": 9512,
      "option": 9513,
      "traffic": 9514,
      "infer": 9515,
      "chy": 9516,
      "intervals": 9517,
      "otherapy": 9518,
      "kind": 9519,
      "adic": 9520,
      "hcws": 9521,
      "accumulation": 9522,
      "rem": 9523,
      "itec": 9524,
      "yle": 9525,
      "mgkg": 9526,
      "exchange": 9527,
      "citi": 9528,
      "fatal": 9529,
      "medications": 9530,
      "sometimes": 9531,
      "104": 9532,
      "zh": 9533,
      "ires": 9534,
      "deliver": 9535,
      "characteristic": 9536,
      "obvious": 9537,
      "metabolism": 9538,
      "metr": 9539,
      "programm": 9540,
      "hts": 9541,
      "positions": 9542,
      "tasks": 9543,
      "milk": 9544,
      "believe": 9545,
      "vac": 9546,
      "prognosis": 9547,
      "facility": 9548,
      "affecting": 9549,
      "operating": 9550,
      "malign": 9551,
      "plants": 9552,
      "dysp": 9553,
      "µl": 9554,
      "biop": 9555,
      "t1": 9556,
      "ribo": 9557,
      "practical": 9558,
      "ico": 9559,
      "organs": 9560,
      "column": 9561,
      "onin": 9562,
      "tope": 9563,
      "µm": 9564,
      "defec": 9565,
      "laboratories": 9566,
      "variability": 9567,
      "extremely": 9568,
      "addressed": 9569,
      "kets": 9570,
      "route": 9571,
      "isch": 9572,
      "producing": 9573,
      "mixture": 9574,
      "productive": 9575,
      "myco": 9576,
      "fewer": 9577,
      "concerning": 9578,
      "smoking": 9579,
      "cox": 9580,
      "consum": 9581,
      "glob": 9582,
      "secretion": 9583,
      "fp": 9584,
      "affects": 9585,
      "dental": 9586,
      "tubercul": 9587,
      "independently": 9588,
      "occurring": 9589,
      "fying": 9590,
      "architec": 9591,
      "malaria": 9592,
      "cold": 9593,
      "coagul": 9594,
      "transferred": 9595,
      "1998": 9596,
      "une": 9597,
      "4a": 9598,
      "idae": 9599,
      "103": 9600,
      "pharmaceu": 9601,
      "limitation": 9602,
      "phenotype": 9603,
      "07": 9604,
      "mam": 9605,
      "opin": 9606,
      "glycoprotein": 9607,
      "spreading": 9608,
      "vors": 9609,
      "twice": 9610,
      "ech": 9611,
      "answer": 9612,
      "ilib": 9613,
      "complexity": 9614,
      "joint": 9615,
      "mobil": 9616,
      "pread": 9617,
      "urgent": 9618,
      "telemedicine": 9619,
      "gold": 9620,
      "p3": 9621,
      "wides": 9622,
      "deviation": 9623,
      "authorities": 9624,
      "parallel": 9625,
      "inhibited": 9626,
      "delayed": 9627,
      "ny": 9628,
      "hf": 9629,
      "fract": 9630,
      "estimation": 9631,
      "pit": 9632,
      "zone": 9633,
      "analysed": 9634,
      "reduces": 9635,
      "precise": 9636,
      "respond": 9637,
      "widespread": 9638,
      "hosts": 9639,
      "clearance": 9640,
      "tm": 9641,
      "ache": 9642,
      "matter": 9643,
      "hygiene": 9644,
      "varying": 9645,
      "ptive": 9646,
      "exec": 9647,
      "_1": 9648,
      "funda": 9649,
      "cdna": 9650,
      "places": 9651,
      "sich": 9652,
      "400": 9653,
      "droplets": 9654,
      "environments": 9655,
      "surpr": 9656,
      "intravenous": 9657,
      "lan": 9658,
      "inhal": 9659,
      "influenced": 9660,
      "tracing": 9661,
      "nanoparticles": 9662,
      "persistent": 9663,
      "liquid": 9664,
      "een": 9665,
      "pk": 9666,
      "b1": 9667,
      "prospective": 9668,
      "apply": 9669,
      "employees": 9670,
      "placebo": 9671,
      "stood": 9672,
      "initiation": 9673,
      "nasopharyngeal": 9674,
      "channel": 9675,
      "retr": 9676,
      "neural": 9677,
      "negatively": 9678,
      "teachers": 9679,
      "adapted": 9680,
      "sv": 9681,
      "m2": 9682,
      "newly": 9683,
      "bats": 9684,
      "anger": 9685,
      "microbio": 9686,
      "limits": 9687,
      "came": 9688,
      "belief": 9689,
      "color": 9690,
      "hour": 9691,
      "nac": 9692,
      "treating": 9693,
      "conform": 9694,
      "cathe": 9695,
      "book": 9696,
      "ives": 9697,
      "ergic": 9698,
      "quite": 9699,
      "hg": 9700,
      "caregi": 9701,
      "lm": 9702,
      "trip": 9703,
      "altered": 9704,
      "ng": 9705,
      "legal": 9706,
      "odds": 9707,
      "increasingly": 9708,
      "für": 9709,
      "sizes": 9710,
      "expan": 9711,
      "haps": 9712,
      "copies": 9713,
      "cultured": 9714,
      "diame": 9715,
      "immediate": 9716,
      "amide": 9717,
      "globul": 9718,
      "amoun": 9719,
      "vast": 9720,
      "chic": 9721,
      "ever": 9722,
      "_i": 9723,
      "regardless": 9724,
      "centrifug": 9725,
      "decreases": 9726,
      "residue": 9727,
      "factory": 9728,
      "proven": 9729,
      "leuko": 9730,
      "saliv": 9731,
      "ago": 9732,
      "comparisons": 9733,
      "nutrition": 9734,
      "removal": 9735,
      "papers": 9736,
      "copd": 9737,
      "vesic": 9738,
      "survivors": 9739,
      "journal": 9740,
      "cade": 9741,
      "progressive": 9742,
      "ya": 9743,
      "sou": 9744,
      "reviews": 9745,
      "empirical": 9746,
      "perhaps": 9747,
      "infrastructure": 9748,
      "vessel": 9749,
      "conflict": 9750,
      "composed": 9751,
      "considerable": 9752,
      "physician": 9753,
      "elic": 9754,
      "titer": 9755,
      "centre": 9756,
      "ku": 9757,
      "fati": 9758,
      "think": 9759,
      "spac": 9760,
      "entero": 9761,
      "plastic": 9762,
      "profiles": 9763,
      "lymph": 9764,
      "performing": 9765,
      "discuss": 9766,
      "blin": 9767,
      "dom": 9768,
      "idi": 9769,
      "summarized": 9770,
      "equilib": 9771,
      "coccus": 9772,
      "variations": 9773,
      "transmitted": 9774,
      "rules": 9775,
      "epidemics": 9776,
      "293": 9777,
      "theoretical": 9778,
      "ji": 9779,
      "graphical": 9780,
      "ging": 9781,
      "deng": 9782,
      "autom": 9783,
      "selective": 9784,
      "encoding": 9785,
      "aki": 9786,
      "goals": 9787,
      "maternal": 9788,
      "worsen": 9789,
      "ibv": 9790,
      "insulin": 9791,
      "loaded": 9792,
      "eds": 9793,
      "hz": 9794,
      "loid": 9795,
      "equivalent": 9796,
      "morph": 9797,
      "collaboration": 9798,
      "arri": 9799,
      "docking": 9800,
      "ea": 9801,
      "monoclonal": 9802,
      "itin": 9803,
      "candidates": 9804,
      "globally": 9805,
      "thanol": 9806,
      "wr": 9807,
      "lc": 9808,
      "observe": 9809,
      "magnit": 9810,
      "manage": 9811,
      "oxidative": 9812,
      "representation": 9813,
      "tory": 9814,
      "varied": 9815,
      "willing": 9816,
      "nea": 9817,
      "processed": 9818,
      "mathem": 9819,
      "depth": 9820,
      "aired": 9821,
      "maintaining": 9822,
      "understood": 9823,
      "offe": 9824,
      "lost": 9825,
      "fab": 9826,
      "poss": 9827,
      "closure": 9828,
      "fortun": 9829,
      "epitope": 9830,
      "ank": 9831,
      "storm": 9832,
      "neo": 9833,
      "dex": 9834,
      "detectable": 9835,
      "chron": 9836,
      "diluted": 9837,
      "remark": 9838,
      "resh": 9839,
      "valuable": 9840,
      "lymphocyte": 9841,
      "exhibit": 9842,
      "1997": 9843,
      "pin": 9844,
      "tmp": 9845,
      "exo": 9846,
      "promoting": 9847,
      "square": 9848,
      "circumst": 9849,
      "shape": 9850,
      "ske": 9851,
      "myocardial": 9852,
      "identical": 9853,
      "intermediate": 9854,
      "assessing": 9855,
      "rss": 9856,
      "perme": 9857,
      "deploy": 9858,
      "aer": 9859,
      "embr": 9860,
      "rule": 9861,
      "forming": 9862,
      "psycho": 9863,
      "exts": 9864,
      "orter": 9865,
      "spectro": 9866,
      "simultaneously": 9867,
      "glass": 9868,
      "rr": 9869,
      "vehic": 9870,
      "insights": 9871,
      "axis": 9872,
      "mell": 9873,
      "administr": 9874,
      "deple": 9875,
      "instructions": 9876,
      "transfected": 9877,
      "possess": 9878,
      "holders": 9879,
      "agric": 9880,
      "qpcr": 9881,
      "5a": 9882,
      "chro": 9883,
      "http": 9884,
      "mainten": 9885,
      "activate": 9886,
      "eye": 9887,
      "expon": 9888,
      "rat": 9889,
      "france": 9890,
      "bud": 9891,
      "epis": 9892,
      "tuberculosis": 9893,
      "4c": 9894,
      "dimensional": 9895,
      "coron": 9896,
      "worth": 9897,
      "seasonal": 9898,
      "neighbor": 9899,
      "born": 9900,
      "contag": 9901,
      "library": 9902,
      "prelimin": 9903,
      "arab": 9904,
      "pairs": 9905,
      "strati": 9906,
      "controlling": 9907,
      "impaired": 9908,
      "subset": 9909,
      "laxis": 9910,
      "dilution": 9911,
      "ell": 9912,
      "109": 9913,
      "comfor": 9914,
      "fungal": 9915,
      "reads": 9916,
      "rever": 9917,
      "tube": 9918,
      "reliability": 9919,
      "amounts": 9920,
      "propag": 9921,
      "confo": 9922,
      "away": 9923,
      "raw": 9924,
      "korea": 9925,
      "fatigue": 9926,
      "interface": 9927,
      "iga": 9928,
      "sodium": 9929,
      "subunit": 9930,
      "glycan": 9931,
      "idea": 9932,
      "extracellular": 9933,
      "ento": 9934,
      "rn": 9935,
      "unte": 9936,
      "maintenance": 9937,
      "bios": 9938,
      "qi": 9939,
      "asian": 9940,
      "adapt": 9941,
      "element": 9942,
      "cg": 9943,
      "tember": 9944,
      "dram": 9945,
      "fisher": 9946,
      "surveys": 9947,
      "habit": 9948,
      "102": 9949,
      "depres": 9950,
      "minimize": 9951,
      "phylogenetic": 9952,
      "promp": 9953,
      "investigations": 9954,
      "purposes": 9955,
      "protected": 9956,
      "works": 9957,
      "h2": 9958,
      "cutaneous": 9959,
      "monocytes": 9960,
      "unable": 9961,
      "cine": 9962,
      "calves": 9963,
      "matched": 9964,
      "proof": 9965,
      "decreasing": 9966,
      "briefly": 9967,
      "compati": 9968,
      "h5": 9969,
      "build": 9970,
      "randomly": 9971,
      "fda": 9972,
      "dd": 9973,
      "america": 9974,
      "ested": 9975,
      "obstru": 9976,
      "kon": 9977,
      "reading": 9978,
      "tables": 9979,
      "ultras": 9980,
      "orted": 9981,
      "nach": 9982,
      "sessions": 9983,
      "annot": 9984,
      "igen": 9985,
      "hemor": 9986,
      "ighting": 9987,
      "whom": 9988,
      "anticip": 9989,
      "september": 9990,
      "price": 9991,
      "shi": 9992,
      "sensor": 9993,
      "sem": 9994,
      "rho": 9995,
      "custo": 9996,
      "nels": 9997,
      "nl": 9998,
      "college": 9999,
      "limiting": 10000,
      "delivered": 10001,
      "nar": 10002,
      "border": 10003,
      "induces": 10004,
      "mitochondrial": 10005,
      "outpatient": 10006,
      "cycles": 10007,
      "plo": 10008,
      "canada": 10009,
      "expansion": 10010,
      "accordance": 10011,
      "auch": 10012,
      "scales": 10013,
      "abnormalities": 10014,
      "recipients": 10015,
      "112": 10016,
      "ultimately": 10017,
      "teams": 10018,
      "weekly": 10019,
      "errors": 10020,
      "ony": 10021,
      "exists": 10022,
      "documents": 10023,
      "pollution": 10024,
      "einer": 10025,
      "aspir": 10026,
      "hier": 10027,
      "hepat": 10028,
      "inside": 10029,
      "chains": 10030,
      "veter": 10031,
      "underwent": 10032,
      "3c": 10033,
      "objectives": 10034,
      "dengue": 10035,
      "makers": 10036,
      "mab": 10037,
      "volunte": 10038,
      "principles": 10039,
      "phenomenon": 10040,
      "synthesized": 10041,
      "consequence": 10042,
      "250": 10043,
      "preliminary": 10044,
      "representing": 10045,
      "magnitude": 10046,
      "declared": 10047,
      "phosphorylation": 10048,
      "bovine": 10049,
      "bran": 10050,
      "rely": 10051,
      "storage": 10052,
      "illin": 10053,
      "fv": 10054,
      "accep": 10055,
      "vice": 10056,
      "unter": 10057,
      "una": 10058,
      "alysis": 10059,
      "cia": 10060,
      "evaluating": 10061,
      "exclusion": 10062,
      "enrolled": 10063,
      "evident": 10064,
      "intubation": 10065,
      "doctors": 10066,
      "annual": 10067,
      "viridae": 10068,
      "107": 10069,
      "structured": 10070,
      "velope": 10071,
      "sustainable": 10072,
      "foreign": 10073,
      "chol": 10074,
      "rid": 10075,
      "infectivity": 10076,
      "cers": 10077,
      "1990": 10078,
      "envelope": 10079,
      "iqr": 10080,
      "hemorrh": 10081,
      "difficulties": 10082,
      "coping": 10083,
      "spain": 10084,
      "hp": 10085,
      "itary": 10086,
      "fru": 10087,
      "retrie": 10088,
      "biomarkers": 10089,
      "depic": 10090,
      "priority": 10091,
      "wered": 10092,
      "cision": 10093,
      "κb": 10094,
      "accordingly": 10095,
      "isolate": 10096,
      "supplemental": 10097,
      "record": 10098,
      "submitted": 10099,
      "herpes": 10100,
      "soluble": 10101,
      "learn": 10102,
      "diameter": 10103,
      "binds": 10104,
      "dest": 10105,
      "sud": 10106,
      "operations": 10107,
      "remdes": 10108,
      "hsv": 10109,
      "strepto": 10110,
      "feeding": 10111,
      "layers": 10112,
      "race": 10113,
      "rhe": 10114,
      "disaster": 10115,
      "provision": 10116,
      "phosphate": 10117,
      "decades": 10118,
      "highlight": 10119,
      "aver": 10120,
      "observational": 10121,
      "fields": 10122,
      "gradu": 10123,
      "autophagy": 10124,
      "monito": 10125,
      "tmprss": 10126,
      "involve": 10127,
      "dramatic": 10128,
      "predictions": 10129,
      "distric": 10130,
      "australia": 10131,
      "scr": 10132,
      "neutralization": 10133,
      "lamp": 10134,
      "explic": 10135,
      "clon": 10136,
      "wat": 10137,
      "adhes": 10138,
      "remdesivir": 10139,
      "english": 10140,
      "built": 10141,
      "exception": 10142,
      "ante": 10143,
      "partially": 10144,
      "reproduction": 10145,
      "excell": 10146,
      "edema": 10147,
      "august": 10148,
      "monitored": 10149,
      "frac": 10150,
      "said": 10151,
      "hed": 10152,
      "sr": 10153,
      "preca": 10154,
      "urally": 10155,
      "felt": 10156,
      "dimensions": 10157,
      "initiated": 10158,
      "ctive": 10159,
      "modification": 10160,
      "circumstances": 10161,
      "conven": 10162,
      "determining": 10163,
      "mucosal": 10164,
      "metal": 10165,
      "forced": 10166,
      "psin": 10167,
      "pase": 10168,
      "fatality": 10169,
      "scope": 10170,
      "bond": 10171,
      "worse": 10172,
      "iar": 10173,
      "arterial": 10174,
      "abdomin": 10175,
      "hong": 10176,
      "bis": 10177,
      "carc": 10178,
      "gamma": 10179,
      "stimulated": 10180,
      "2c": 10181,
      "overcome": 10182,
      "transfusion": 10183,
      "chemis": 10184,
      "meeting": 10185,
      "surprising": 10186,
      "supports": 10187,
      "ranged": 10188,
      "practition": 10189,
      "hydroxychloroquine": 10190,
      "tures": 10191,
      "tourism": 10192,
      "avian": 10193,
      "umatic": 10194,
      "computational": 10195,
      "assumption": 10196,
      "pac": 10197,
      "ratios": 10198,
      "households": 10199,
      "reh": 10200,
      "trajec": 10201,
      "unlike": 10202,
      "terr": 10203,
      "pel": 10204,
      "bmi": 10205,
      "mhc": 10206,
      "ined": 10207,
      "excess": 10208,
      "gfp": 10209,
      "validity": 10210,
      "topics": 10211,
      "108": 10212,
      "ow": 10213,
      "s3": 10214,
      "mye": 10215,
      "vil": 10216,
      "gradi": 10217,
      "scheme": 10218,
      "industrial": 10219,
      "acknow": 10220,
      "117": 10221,
      "ov": 10222,
      "pneumoniae": 10223,
      "rein": 10224,
      "secu": 10225,
      "fundamental": 10226,
      "tumors": 10227,
      "lum": 10228,
      "universal": 10229,
      "zens": 10230,
      "markets": 10231,
      "recruited": 10232,
      "pancre": 10233,
      "optimization": 10234,
      "generating": 10235,
      "hydropho": 10236,
      "conversion": 10237,
      "fluor": 10238,
      "wearing": 10239,
      "1996": 10240,
      "declin": 10241,
      "vance": 10242,
      "rdr": 10243,
      "mammal": 10244,
      "regulate": 10245,
      "covered": 10246,
      "abdominal": 10247,
      "popular": 10248,
      "look": 10249,
      "1995": 10250,
      "prioriti": 10251,
      "acet": 10252,
      "attitudes": 10253,
      "pus": 10254,
      "meter": 10255,
      "former": 10256,
      "downstream": 10257,
      "antagon": 10258,
      "conceptual": 10259,
      "fortunately": 10260,
      "stained": 10261,
      "preferred": 10262,
      "escent": 10263,
      "ventric": 10264,
      "relevance": 10265,
      "standardized": 10266,
      "microscopy": 10267,
[...]
